{
  "version": "1.0",
  "truncation": null,
  "padding": null,
  "added_tokens": [
    {
      "id": 0,
      "content": "[PAD]",
      "single_word": false,
      "lstrip": false,
      "rstrip": false,
      "normalized": false,
      "special": true
    },
    {
      "id": 1,
      "content": "[UNK]",
      "single_word": false,
      "lstrip": false,
      "rstrip": false,
      "normalized": false,
      "special": true
    },
    {
      "id": 2,
      "content": "[START]",
      "single_word": false,
      "lstrip": false,
      "rstrip": false,
      "normalized": false,
      "special": true
    },
    {
      "id": 3,
      "content": "[END]",
      "single_word": false,
      "lstrip": false,
      "rstrip": false,
      "normalized": false,
      "special": true
    }
  ],
  "normalizer": null,
  "pre_tokenizer": {
    "type": "ByteLevel",
    "add_prefix_space": true,
    "trim_offsets": true,
    "use_regex": true
  },
  "post_processor": {
    "type": "TemplateProcessing",
    "single": [
      {
        "SpecialToken": {
          "id": "[START]",
          "type_id": 0
        }
      },
      {
        "Sequence": {
          "id": "A",
          "type_id": 0
        }
      },
      {
        "SpecialToken": {
          "id": "[END]",
          "type_id": 0
        }
      }
    ],
    "pair": [
      {
        "Sequence": {
          "id": "A",
          "type_id": 0
        }
      },
      {
        "Sequence": {
          "id": "B",
          "type_id": 1
        }
      }
    ],
    "special_tokens": {
      "[END]": {
        "id": "[END]",
        "ids": [
          3
        ],
        "tokens": [
          "[END]"
        ]
      },
      "[START]": {
        "id": "[START]",
        "ids": [
          2
        ],
        "tokens": [
          "[START]"
        ]
      }
    }
  },
  "decoder": {
    "type": "ByteLevel",
    "add_prefix_space": true,
    "trim_offsets": true,
    "use_regex": true
  },
  "model": {
    "type": "BPE",
    "dropout": null,
    "unk_token": "[UNK]",
    "continuing_subword_prefix": null,
    "end_of_word_suffix": null,
    "fuse_unk": false,
    "byte_fallback": false,
    "ignore_merges": false,
    "vocab": {
      "[PAD]": 0,
      "[UNK]": 1,
      "[START]": 2,
      "[END]": 3,
      "!": 4,
      "\"": 5,
      "#": 6,
      "$": 7,
      "%": 8,
      "'": 9,
      "(": 10,
      ")": 11,
      ",": 12,
      "-": 13,
      ".": 14,
      "/": 15,
      "0": 16,
      "1": 17,
      "2": 18,
      "3": 19,
      "4": 20,
      "5": 21,
      "6": 22,
      "7": 23,
      "8": 24,
      "9": 25,
      ":": 26,
      ";": 27,
      "?": 28,
      "A": 29,
      "B": 30,
      "C": 31,
      "D": 32,
      "E": 33,
      "F": 34,
      "G": 35,
      "H": 36,
      "I": 37,
      "J": 38,
      "K": 39,
      "L": 40,
      "M": 41,
      "N": 42,
      "O": 43,
      "P": 44,
      "Q": 45,
      "R": 46,
      "S": 47,
      "T": 48,
      "U": 49,
      "V": 50,
      "W": 51,
      "X": 52,
      "Y": 53,
      "Z": 54,
      "[": 55,
      "a": 56,
      "b": 57,
      "c": 58,
      "d": 59,
      "e": 60,
      "f": 61,
      "g": 62,
      "h": 63,
      "i": 64,
      "j": 65,
      "k": 66,
      "l": 67,
      "m": 68,
      "n": 69,
      "o": 70,
      "p": 71,
      "q": 72,
      "r": 73,
      "s": 74,
      "t": 75,
      "u": 76,
      "v": 77,
      "w": 78,
      "x": 79,
      "y": 80,
      "z": 81,
      "¡": 82,
      "¢": 83,
      "£": 84,
      "¤": 85,
      "§": 86,
      "¨": 87,
      "©": 88,
      "ª": 89,
      "¬": 90,
      "¯": 91,
      "°": 92,
      "³": 93,
      "´": 94,
      "µ": 95,
      "º": 96,
      "¼": 97,
      "½": 98,
      "Â": 99,
      "Ã": 100,
      "Ä": 101,
      "Î": 102,
      "Ð": 103,
      "×": 104,
      "á": 105,
      "â": 106,
      "Ġ": 107,
      "Ģ": 108,
      "ģ": 109,
      "Ĥ": 110,
      "ĥ": 111,
      "Ī": 112,
      "ī": 113,
      "ĭ": 114,
      "į": 115,
      "Ĳ": 116,
      "ĳ": 117,
      "ĵ": 118,
      "Ķ": 119,
      "ķ": 120,
      "Ļ": 121,
      "ľ": 122,
      "Ŀ": 123,
      "ł": 124,
      "Ń": 125,
      "Ġt": 126,
      "Ġa": 127,
      "om": 128,
      "ĠT": 129,
      "Ġd": 130,
      "er": 131,
      "Ġs": 132,
      "ou": 133,
      "ar": 134,
      "ĠTom": 135,
      "Ġc": 136,
      "es": 137,
      "in": 138,
      "Ġm": 139,
      "Ġp": 140,
      "is": 141,
      "Ġn": 142,
      "en": 143,
      "ĠI": 144,
      "on": 145,
      "Ġf": 146,
      "qu": 147,
      "Ġw": 148,
      "an": 149,
      "Ġth": 150,
      "or": 151,
      "Ġh": 152,
      "os": 153,
      "Ġqu": 154,
      "as": 155,
      "re": 156,
      "Ã£": 157,
      "Ġto": 158,
      "ĠE": 159,
      "Ã£o": 160,
      "Ġb": 161,
      "at": 162,
      "Ġo": 163,
      "em": 164,
      "Ġv": 165,
      "Ġl": 166,
      "Ġy": 167,
      "it": 168,
      "Ġes": 169,
      "Ġque": 170,
      "Ġde": 171,
      "Ġyou": 172,
      "ed": 173,
      "Ãª": 174,
      "ing": 175,
      "do": 176,
      "Ġg": 177,
      "oc": 178,
      "el": 179,
      "Ġis": 180,
      "Ã¡": 181,
      "Ġest": 182,
      "Ġu": 183,
      "al": 184,
      "ocÃª": 185,
      "'t": 186,
      "Ġthe": 187,
      "ĠEu": 188,
      "av": 189,
      "am": 190,
      "ĠnÃ£o": 191,
      "ĠÃ": 192,
      "ent": 193,
      "Ġdo": 194,
      "Ġe": 195,
      "id": 196,
      "ia": 197,
      "ad": 198,
      "Ġme": 199,
      "Ġcom": 200,
      "ir": 201,
      "ĠM": 202,
      "he": 203,
      "Ġse": 204,
      "ic": 205,
      "ĠW": 206,
      "im": 207,
      "Ġum": 208,
      "le": 209,
      "ow": 210,
      "so": 211,
      "Ġin": 212,
      "ĠÃ©": 213,
      "ot": 214,
      "ant": 215,
      "ĠV": 216,
      "ho": 217,
      "ĠA": 218,
      "ĠO": 219,
      "Ġpar": 220,
      "et": 221,
      "Ġthat": 222,
      "st": 223,
      "ĠN": 224,
      "Ġan": 225,
      "il": 226,
      "ro": 227,
      "ost": 228,
      "ĠMar": 229,
      "se": 230,
      "ĠVocÃª": 231,
      "ve": 232,
      "ay": 233,
      "ere": 234,
      "'s": 235,
      "ĠvocÃª": 236,
      "ig": 237,
      "Ġbe": 238,
      "ver": 239,
      "Ġal": 240,
      "Ġmu": 241,
      "ch": 242,
      "ĠMary": 243,
      "Ġli": 244,
      "Ġk": 245,
      "ol": 246,
      "Ġr": 247,
      "ĠH": 248,
      "Ġwas": 249,
      "hat": 250,
      "ave": 251,
      "Ġcon": 252,
      "ĠestÃ¡": 253,
      "od": 254,
      "Ġre": 255,
      "Ġpara": 256,
      "Ġon": 257,
      "ab": 258,
      "ĠD": 259,
      "Ã§": 260,
      "Ġof": 261,
      "Ġfa": 262,
      "ld": 263,
      "gu": 264,
      "ĠP": 265,
      "ĠS": 266,
      "ke": 267,
      "Ġgo": 268,
      "ri": 269,
      "Ġfor": 270,
      "Ġas": 271,
      "Ġem": 272,
      "Ġst": 273,
      "Ġno": 274,
      "ado": 275,
      "Ġj": 276,
      "Ġisso": 277,
      "Ġsu": 278,
      "ce": 279,
      "Ã³": 280,
      "Ġtr": 281,
      "Ġkn": 282,
      "ando": 283,
      "Ġfaz": 284,
      "ente": 285,
      "ito": 286,
      "ĠY": 287,
      "Ġne": 288,
      "te": 289,
      "Ġwant": 290,
      "ĠNÃ£o": 291,
      "ĠYou": 292,
      "Ġma": 293,
      "Ġhave": 294,
      "Ġdon": 295,
      "ĠThe": 296,
      "Ġac": 297,
      "ta": 298,
      "Ġknow": 299,
      "ha": 300,
      "'m": 301,
      "Ġit": 302,
      "Ã©": 303,
      "un": 304,
      "out": 305,
      "Ġdid": 306,
      "ould": 307,
      "Ġquer": 308,
      "ter": 309,
      "Ġhe": 310,
      "ĠC": 311,
      "Ġtem": 312,
      "Ġcan": 313,
      "Ġuma": 314,
      "to": 315,
      "Ġat": 316,
      "ava": 317,
      "ĠWe": 318,
      "Ġfazer": 319,
      "ly": 320,
      "de": 321,
      "ai": 322,
      "Ġpr": 323,
      "ht": 324,
      "Ġdi": 325,
      "Qu": 326,
      "ap": 327,
      "Ġeu": 328,
      "Ġel": 329,
      "Ġmy": 330,
      "ith": 331,
      "ĠQu": 332,
      "ĠB": 333,
      "Ġthis": 334,
      "Ġver": 335,
      "ĠEst": 336,
      "ill": 337,
      "Ġnot": 338,
      "Ġcar": 339,
      "Ġpor": 340,
      "ut": 341,
      "ink": 342,
      "la": 343,
      "Ġmuito": 344,
      "Ġwith": 345,
      "ĠF": 346,
      "Ġdis": 347,
      "ud": 348,
      "amos": 349,
      "ome": 350,
      "us": 351,
      "Ġlike": 352,
      "Ġpre": 353,
      "ok": 354,
      "ÃŃ": 355,
      "ion": 356,
      "Ġyour": 357,
      "ur": 358,
      "Ġso": 359,
      "end": 360,
      "ĠTh": 361,
      "Ġper": 362,
      "Ġab": 363,
      "ei": 364,
      "ess": 365,
      "Ġare": 366,
      "her": 367,
      "ĠIt": 368,
      "ust": 369,
      "ul": 370,
      "est": 371,
      "ĠHe": 372,
      "one": 373,
      "Ġfr": 374,
      "Ġmais": 375,
      "Ġthink": 376,
      "Ġsab": 377,
      "'re": 378,
      "Ġch": 379,
      "pe": 380,
      "ĠEle": 381,
      "ada": 382,
      "ll": 383,
      "hing": 384,
      "Ġwe": 385,
      "Ġte": 386,
      "Ġam": 387,
      "Ġgost": 388,
      "ĠBost": 389,
      "ĠBoston": 390,
      "ind": 391,
      "pr": 392,
      "Ġand": 393,
      "inha": 394,
      "ĠWh": 395,
      "Ġna": 396,
      "Ã³s": 397,
      "Ġen": 398,
      "Ġsa": 399,
      "ade": 400,
      "Ãªs": 401,
      "Ġestava": 402,
      "Ġhis": 403,
      "Ġle": 404,
      "ook": 405,
      "Ġfo": 406,
      "Ġaqu": 407,
      "Ġda": 408,
      "Ġpro": 409,
      "ra": 410,
      "Ġex": 411,
      "ĠWhat": 412,
      "Ġpod": 413,
      "Ġdidn": 414,
      "Ġmor": 415,
      "Ġwhat": 416,
      "Ġus": 417,
      "per": 418,
      "Ġir": 419,
      "ell": 420,
      "Ġfal": 421,
      "Ġsh": 422,
      "'ll": 423,
      "Ġcas": 424,
      "um": 425,
      "Ġag": 426,
      "ren": 427,
      "cis": 428,
      "ĠDo": 429,
      "Ġco": 430,
      "Ġwh": 431,
      "Ġfe": 432,
      "ight": 433,
      "Ġany": 434,
      "ac": 435,
      "ime": 436,
      "iz": 437,
      "ora": 438,
      "Ġpl": 439,
      "Ġdes": 440,
      "po": 441,
      "Ġele": 442,
      "Ġwor": 443,
      "Ġout": 444,
      "'ve": 445,
      "ĠIs": 446,
      "Ġesc": 447,
      "Ġhere": 448,
      "Ġhas": 449,
      "ag": 450,
      "Ġfoi": 451,
      "Ġgoing": 452,
      "if": 453,
      "Ġter": 454,
      "Ġten": 455,
      "ido": 456,
      "ĠPor": 457,
      "and": 458,
      "pen": 459,
      "Ġneed": 460,
      "Ġvai": 461,
      "Ã©m": 462,
      "Ġvery": 463,
      "Ġser": 464,
      "co": 465,
      "ca": 466,
      "Ġaqui": 467,
      "ĠNÃ³s": 468,
      "Ġdoes": 469,
      "Ġdisse": 470,
      "ite": 471,
      "emos": 472,
      "ass": 473,
      "Ġget": 474,
      "Ġabout": 475,
      "nd": 476,
      "Ġcome": 477,
      "Ġfic": 478,
      "endo": 479,
      "Ġseu": 480,
      "Ġreal": 481,
      "Ġprecis": 482,
      "ong": 483,
      "Ġer": 484,
      "Ġtime": 485,
      "Ġmeu": 486,
      "oug": 487,
      "ĠÃł": 488,
      "ive": 489,
      "Ġwill": 490,
      "very": 491,
      "Ġtod": 492,
      "anc": 493,
      "Ġim": 494,
      "Ġall": 495,
      "ĠThis": 496,
      "io": 497,
      "ĠEla": 498,
      "ĠShe": 499,
      "ast": 500,
      "ain": 501,
      "Ġman": 502,
      "ĠL": 503,
      "Ġcasa": 504,
      "Ġhim": 505,
      "les": 506,
      "ont": 507,
      "ĠThey": 508,
      "Ġos": 509,
      "Ġliv": 510,
      "aria": 511,
      "op": 512,
      "ak": 513,
      "ase": 514,
      "iro": 515,
      "ry": 516,
      "alk": 517,
      "Ġhel": 518,
      "hor": 519,
      "iv": 520,
      "Ġone": 521,
      "ĠÃī": 522,
      "iu": 523,
      "Ã§a": 524,
      "osso": 525,
      "ist": 526,
      "Ġar": 527,
      "Ġhelp": 528,
      "Ġou": 529,
      "Ġsem": 530,
      "Ġaj": 531,
      "ame": 532,
      "ĠHow": 533,
      "Ġalgu": 534,
      "ach": 535,
      "ard": 536,
      "go": 537,
      "Ġres": 538,
      "Ġup": 539,
      "ort": 540,
      "inda": 541,
      "Ġhap": 542,
      "Ġcont": 543,
      "Ġjo": 544,
      "Ġho": 545,
      "igo": 546,
      "Ġbr": 547,
      "Ġpe": 548,
      "ĠThat": 549,
      "Ġquero": 550,
      "Ġwere": 551,
      "avor": 552,
      "ĠJ": 553,
      "ct": 554,
      "Ġsua": 555,
      "Ġap": 556,
      "que": 557,
      "ish": 558,
      "Ġfavor": 559,
      "rench": 560,
      "all": 561,
      "Ġajud": 562,
      "ĠFrench": 563,
      "gar": 564,
      "Ġent": 565,
      "Ã§Ã£o": 566,
      "Ġdoesn": 567,
      "ate": 568,
      "Ġhad": 569,
      "Ġwon": 570,
      "Ġestou": 571,
      "Ġminha": 572,
      "Ġsei": 573,
      "ancÃªs": 574,
      "fe": 575,
      "Ġwould": 576,
      "Ġshould": 577,
      "mente": 578,
      "pre": 579,
      "Ġtenho": 580,
      "Ġao": 581,
      "ĠEs": 582,
      "abal": 583,
      "ĠWhy": 584,
      "Ġisn": 585,
      "Ġwork": 586,
      "thing": 587,
      "ĠEstou": 588,
      "ide": 589,
      "Ġtrabal": 590,
      "ante": 591,
      "Ġche": 592,
      "sa": 593,
      "red": 594,
      "nt": 595,
      "Ġlo": 596,
      "ree": 597,
      "Ġgr": 598,
      "ĠestÃ£o": 599,
      "cer": 600,
      "Ġsaid": 601,
      "anto": 602,
      "Ġsabe": 603,
      "ays": 604,
      "ais": 605,
      "Ġve": 606,
      "Ġcl": 607,
      "Ġass": 608,
      "Ġpes": 609,
      "bre": 610,
      "Ġacho": 611,
      "Ġpode": 612,
      "Ġcer": 613,
      "'d": 614,
      "ĠG": 615,
      "ĠDon": 616,
      "Ġtempo": 617,
      "ice": 618,
      "bl": 619,
      "Ġtalk": 620,
      "Ġcois": 621,
      "up": 622,
      "ĠMy": 623,
      "ep": 624,
      "me": 625,
      "Ġbem": 626,
      "Ġnov": 627,
      "Ġnos": 628,
      "indo": 629,
      "Ġsom": 630,
      "onte": 631,
      "Ġthere": 632,
      "ought": 633,
      "ake": 634,
      "Ġesper": 635,
      "ack": 636,
      "Ġdiz": 637,
      "ĠMaria": 638,
      "cho": 639,
      "Ġlook": 640,
      "ma": 641,
      "amente": 642,
      "br": 643,
      "ĠsÃ£o": 644,
      "ore": 645,
      "ira": 646,
      "Ġthan": 647,
      "ĠfrancÃªs": 648,
      "Ġmes": 649,
      "Ġainda": 650,
      "Ġher": 651,
      "ĠVocÃªs": 652,
      "Ġpen": 653,
      "Ġeat": 654,
      "Ġevery": 655,
      "Ġad": 656,
      "Ġcomp": 657,
      "Ġsee": 658,
      "Ġgood": 659,
      "ustr": 660,
      "Ġfrom": 661,
      "Ġbeen": 662,
      "ix": 663,
      "unca": 664,
      "je": 665,
      "Ġsou": 666,
      "ĠIsso": 667,
      "Ġdever": 668,
      "ci": 669,
      "ĠCan": 670,
      "ĠEles": 671,
      "ja": 672,
      "ĠCom": 673,
      "Ġplan": 674,
      "ĠjÃ¡": 675,
      "cia": 676,
      "Ġnever": 677,
      "Ġpass": 678,
      "Ġby": 679,
      "ĠAustr": 680,
      "ie": 681,
      "ĠvocÃªs": 682,
      "Ġfalar": 683,
      "Ġtu": 684,
      "Ġspe": 685,
      "mo": 686,
      "ica": 687,
      "rio": 688,
      "Ġpare": 689,
      "Ġsome": 690,
      "orr": 691,
      "ang": 692,
      "Ġimp": 693,
      "ĠAre": 694,
      "Ġask": 695,
      "Ġjust": 696,
      "der": 697,
      "other": 698,
      "art": 699,
      "Ġcould": 700,
      "ida": 701,
      "Ġera": 702,
      "ico": 703,
      "lo": 704,
      "Ġqueria": 705,
      "Ġsen": 706,
      "Ġnada": 707,
      "Ġgot": 708,
      "Ġestar": 709,
      "Ġcomo": 710,
      "Ġstill": 711,
      "ber": 712,
      "Ġmel": 713,
      "Ġtell": 714,
      "Ġhou": 715,
      "Ġwho": 716,
      "Ã§o": 717,
      "sel": 718,
      "Ġhome": 719,
      "Ġvou": 720,
      "Ġnow": 721,
      "Ġreally": 722,
      "ĠThere": 723,
      "Ġaf": 724,
      "vel": 725,
      "Ġmuch": 726,
      "Ġbook": 727,
      "ĠMe": 728,
      "ug": 729,
      "anh": 730,
      "riend": 731,
      "Ġaconte": 732,
      "Ġsobre": 733,
      "Ġtom": 734,
      "ceu": 735,
      "ele": 736,
      "aram": 737,
      "Ġfil": 738,
      "Ġbo": 739,
      "ous": 740,
      "Ġvez": 741,
      "Ġtold": 742,
      "Ġmelhor": 743,
      "lease": 744,
      "Ġdif": 745,
      "Ġpesso": 746,
      "Ġcompr": 747,
      "ried": 748,
      "ody": 749,
      "Ġspeak": 750,
      "ingu": 751,
      "Ġenc": 752,
      "Ġhappen": 753,
      "ady": 754,
      "inho": 755,
      "Ġach": 756,
      "Ġinter": 757,
      "Ãº": 758,
      "Ġdin": 759,
      "Ġpergu": 760,
      "Ġquando": 761,
      "Ġlot": 762,
      "Ġdoing": 763,
      "ĠtÃ£o": 764,
      "Ġsomet": 765,
      "Ġback": 766,
      "Ġlong": 767,
      "Ġmim": 768,
      "ty": 769,
      "body": 770,
      "Ġor": 771,
      "Ġnunca": 772,
      "blem": 773,
      "Ġsent": 774,
      "ela": 775,
      "Ġproblem": 776,
      "Ġhow": 777,
      "day": 778,
      "inguÃ©m": 779,
      "Ġtoo": 780,
      "Ġcarro": 781,
      "Ġwr": 782,
      "ĠlÃ¡": 783,
      "Ġconhe": 784,
      "Ġmore": 785,
      "Ġ\"": 786,
      "Ġif": 787,
      "Ġplay": 788,
      "etter": 789,
      "car": 790,
      "Ġmin": 791,
      "Ġvol": 792,
      "Ġdr": 793,
      "Ġposso": 794,
      "Ġbus": 795,
      "ait": 796,
      "lia": 797,
      "Ġca": 798,
      "Ġfez": 799,
      "Ġbut": 800,
      "az": 801,
      "wn": 802,
      "Ġdeix": 803,
      "uy": 804,
      "ear": 805,
      "Ġstud": 806,
      "Ġsomething": 807,
      "Ġficar": 808,
      "Ġagora": 809,
      "idade": 810,
      "Ġcam": 811,
      "Ġeste": 812,
      "Ġsabia": 813,
      "Ġgosta": 814,
      "orm": 815,
      "ĠDid": 816,
      "Ġcol": 817,
      "heiro": 818,
      "eria": 819,
      "Ġwhen": 820,
      "Ġdeveria": 821,
      "hos": 822,
      "ation": 823,
      "ather": 824,
      "Ġvis": 825,
      "ento": 826,
      "Ġhoje": 827,
      "ose": 828,
      "ados": 829,
      "Ġanything": 830,
      "Ġcoisa": 831,
      "ĠAs": 832,
      "ven": 833,
      "oss": 834,
      "Ġencont": 835,
      "Ġfriend": 836,
      "ĠSe": 837,
      "ng": 838,
      "Ġwasn": 839,
      "Ġwait": 840,
      "Ġgosto": 841,
      "Ġoff": 842,
      "ita": 843,
      "Ġpou": 844,
      "ick": 845,
      "Ġwanted": 846,
      "ĠComo": 847,
      "Ġescol": 848,
      "self": 849,
      "Ġmen": 850,
      "Ġsay": 851,
      "Ġcons": 852,
      "vi": 853,
      "za": 854,
      "ild": 855,
      "Ġdele": 856,
      "Ġtudo": 857,
      "Ġfel": 858,
      "ople": 859,
      "Ġti": 860,
      "Ġquem": 861,
      "ian": 862,
      "Ġro": 863,
      "Ġthree": 864,
      "segu": 865,
      "Ġlast": 866,
      "ĠLet": 867,
      "Ġdizer": 868,
      "Ġhav": 869,
      "Ġyear": 870,
      "Ġmas": 871,
      "Ġmo": 872,
      "Ġbom": 873,
      "ista": 874,
      "ĠtrÃªs": 875,
      "cid": 876,
      "Ġtinha": 877,
      "Ġright": 878,
      "ib": 879,
      "itt": 880,
      "ĠOn": 881,
      "Ġdia": 882,
      "elo": 883,
      "Ġstay": 884,
      "oney": 885,
      "ĠWho": 886,
      "ĠWhere": 887,
      "Ġtent": 888,
      "Ġped": 889,
      "Ġvi": 890,
      "ĠNo": 891,
      "get": 892,
      "Ġagain": 893,
      "esse": 894,
      "Ġdinheiro": 895,
      "Ġlivro": 896,
      "Ġday": 897,
      "cil": 898,
      "Ġlu": 899,
      "Ãªn": 900,
      "Ġmoney": 901,
      "Ġun": 902,
      "Ġsegu": 903,
      "rar": 904,
      "ĠQuer": 905,
      "are": 906,
      "Ġnew": 907,
      "Ġesta": 908,
      "iss": 909,
      "Ġconsegu": 910,
      "ning": 911,
      "Ġnoite": 912,
      "Ġmar": 913,
      "Ġhouse": 914,
      "Ġwat": 915,
      "ying": 916,
      "ĠTen": 917,
      "Ġfin": 918,
      "Ġestud": 919,
      "Ġnovo": 920,
      "Ġtoday": 921,
      "Ġpouco": 922,
      "ord": 923,
      "Ġpeople": 924,
      "Ġsure": 925,
      "ready": 926,
      "Ġanos": 927,
      "Ġalready": 928,
      "edo": 929,
      "Ġthing": 930,
      "Ġajudar": 931,
      "Ġsoz": 932,
      "Ġprecisa": 933,
      "orrow": 934,
      "ĠHave": 935,
      "ĠhÃ¡": 936,
      "Ġthought": 937,
      "Ġund": 938,
      "Ġbetter": 939,
      "Ġlove": 940,
      "Ġ2": 941,
      "Ġonly": 942,
      "ĠQuem": 943,
      "Ġide": 944,
      "Ġonde": 945,
      "Ġwhere": 946,
      "mer": 947,
      "Ġwent": 948,
      "Ġfam": 949,
      "Ġunder": 950,
      "ĠU": 951,
      "ese": 952,
      "ound": 953,
      "va": 954,
      "ĠOs": 955,
      "Ġpessoas": 956,
      "ĠnÃ³s": 957,
      "Ġsempre": 958,
      "Ġalgo": 959,
      "Ġread": 960,
      "Ġold": 961,
      "Ġtodos": 962,
      "Ġmany": 963,
      "Ġparece": 964,
      "Ġtake": 965,
      "orn": 966,
      "Ġthey": 967,
      "ways": 968,
      "Ġgu": 969,
      "Ġconf": 970,
      "chool": 971,
      "dade": 972,
      "jo": 973,
      "Ġshe": 974,
      "Ġmesmo": 975,
      "ck": 976,
      "ros": 977,
      "Ġbuy": 978,
      "kes": 979,
      "ĠPlease": 980,
      "Ġsur": 981,
      "Ġela": 982,
      "ras": 983,
      "ĠÃº": 984,
      "Ġalways": 985,
      "Ġirm": 986,
      "Ã¡s": 987,
      "Ġschool": 988,
      "Ġfun": 989,
      "ĠTod": 990,
      "ew": 991,
      "ĠTenho": 992,
      "ĠDe": 993,
      "tes": 994,
      "ue": 995,
      "Ġrec": 996,
      "ĠOnde": 997,
      "Ġverdade": 998,
      "Ġfeliz": 999,
      "ely": 1000,
      "ĠAl": 1001,
      "ĠEste": 1002,
      "Ġfl": 1003,
      "Ġsp": 1004,
      "tar": 1005,
      "ĠsÃ³": 1006,
      "Ġsw": 1007,
      "Ġquanto": 1008,
      "teza": 1009,
      "Ġfiz": 1010,
      "Ġtrabalho": 1011,
      "Ġcr": 1012,
      "Ġbel": 1013,
      "Ġcerteza": 1014,
      "itar": 1015,
      "anhÃ£": 1016,
      "Ġdem": 1017,
      "Ġcall": 1018,
      "Ġtw": 1019,
      "Ã¡lia": 1020,
      "ure": 1021,
      "Ġsenhor": 1022,
      "aix": 1023,
      "Ã¡rio": 1024,
      "Ġpol": 1025,
      "ther": 1026,
      "Ġseem": 1027,
      "Ġchild": 1028,
      "Ġwell": 1029,
      "ĠEvery": 1030,
      "Ġcomer": 1031,
      "py": 1032,
      "ima": 1033,
      "tem": 1034,
      "Ġmade": 1035,
      "oso": 1036,
      "Ġhope": 1037,
      "ers": 1038,
      "ten": 1039,
      "har": 1040,
      "Ġmake": 1041,
      "urn": 1042,
      "ĠAcho": 1043,
      "be": 1044,
      "ender": 1045,
      "Ġasked": 1046,
      "Ġever": 1047,
      "Ġtomorrow": 1048,
      "ine": 1049,
      "Ġteach": 1050,
      "ĠAustral": 1051,
      "Ġdog": 1052,
      "vers": 1053,
      "ance": 1054,
      "ough": 1055,
      "ĠAustrÃ¡lia": 1056,
      "ĠAustralia": 1057,
      "leep": 1058,
      "Ġacha": 1059,
      "iga": 1060,
      "Ġsm": 1061,
      "ato": 1062,
      "ult": 1063,
      "Ġlive": 1064,
      "ire": 1065,
      "ved": 1066,
      "Ġapr": 1067,
      "Ġmat": 1068,
      "Ġpai": 1069,
      "Ġsal": 1070,
      "th": 1071,
      "ally": 1072,
      "ents": 1073,
      "ici": 1074,
      "ĠamanhÃ£": 1075,
      "Ġhor": 1076,
      "ĠQual": 1077,
      "Ġfind": 1078,
      "Ġaw": 1079,
      "Ġrealmente": 1080,
      "Ġdone": 1081,
      "Ġcor": 1082,
      "Ġcri": 1083,
      "Ġour": 1084,
      "Ġresp": 1085,
      "anÃ§": 1086,
      "Ġontem": 1087,
      "ĠWhen": 1088,
      "Ġfeel": 1089,
      "Ãµ": 1090,
      "ft": 1091,
      "Ġway": 1092,
      "arn": 1093,
      "Ġgostaria": 1094,
      "ĠmÃ£": 1095,
      "Ġexp": 1096,
      "ĠGost": 1097,
      "Ġimport": 1098,
      "ting": 1099,
      "Ġfazendo": 1100,
      "ĠMeu": 1101,
      "able": 1102,
      "Ġused": 1103,
      "ndo": 1104,
      "ĠÃ¡": 1105,
      "las": 1106,
      "ĠPre": 1107,
      "ĠQue": 1108,
      "ĠcomeÃ§": 1109,
      "Ġknows": 1110,
      "ĠQuero": 1111,
      "Ġdev": 1112,
      "Ġpens": 1113,
      "Ġol": 1114,
      "ina": 1115,
      "Ġprof": 1116,
      "Ġescola": 1117,
      "ĠQuando": 1118,
      "Ġroom": 1119,
      "Ġknew": 1120,
      "Ġoc": 1121,
      "fore": 1122,
      "Ġpres": 1123,
      "Ġfu": 1124,
      "ĠHÃ¡": 1125,
      "Ġpergunt": 1126,
      "gou": 1127,
      "Ġcomigo": 1128,
      "Ġthem": 1129,
      "Ġesp": 1130,
      "ĠVamos": 1131,
      "Ġpoderia": 1132,
      "Ãµes": 1133,
      "Ġquest": 1134,
      "Ġsaber": 1135,
      "Ġunderst": 1136,
      "Ġfather": 1137,
      "Ġalguma": 1138,
      "Ġsozinho": 1139,
      "Ġafter": 1140,
      "Ġwants": 1141,
      "ote": 1142,
      "Ġhappy": 1143,
      "Ġantes": 1144,
      "Ġfar": 1145,
      "Ġbefore": 1146,
      "Ġmuit": 1147,
      "xt": 1148,
      "ict": 1149,
      "no": 1150,
      "Ġcare": 1151,
      "Ġwhy": 1152,
      "Ġdorm": 1153,
      "ilo": 1154,
      "ana": 1155,
      "Ġtodo": 1156,
      "Ġgar": 1157,
      "mas": 1158,
      "age": 1159,
      "Ġcach": 1160,
      "ank": 1161,
      "ester": 1162,
      "ĠVou": 1163,
      "Ġrem": 1164,
      "Ġcost": 1165,
      "oth": 1166,
      "Ġstart": 1167,
      "Ġpreciso": 1168,
      "fer": 1169,
      "deu": 1170,
      "avam": 1171,
      "ador": 1172,
      "Ġleft": 1173,
      "Ġbelie": 1174,
      "Ġmundo": 1175,
      "ĠTu": 1176,
      "Ġpo": 1177,
      "Ġmust": 1178,
      "Ã´": 1179,
      "Ġbre": 1180,
      "Ġisto": 1181,
      "Ġseus": 1182,
      "ated": 1183,
      "Ġvir": 1184,
      "Ġdar": 1185,
      "Ġyears": 1186,
      "ĠNinguÃ©m": 1187,
      "Ġdown": 1188,
      "Ġke": 1189,
      "Ġ1": 1190,
      "ĠEsta": 1191,
      "Ġname": 1192,
      "ich": 1193,
      "Ġhappened": 1194,
      "esterday": 1195,
      "ĠR": 1196,
      "Ġsol": 1197,
      "Ġesque": 1198,
      "esta": 1199,
      "Ġnight": 1200,
      "Ġlet": 1201,
      "ittle": 1202,
      "ior": 1203,
      "Ġlittle": 1204,
      "Ġdoor": 1205,
      "upado": 1206,
      "ngl": 1207,
      "ĠprÃ³": 1208,
      "ek": 1209,
      "Ã©d": 1210,
      "Ġlev": 1211,
      "pt": 1212,
      "qui": 1213,
      "Ġfriends": 1214,
      "Ġtre": 1215,
      "ock": 1216,
      "Ġyet": 1217,
      "ĠTodos": 1218,
      "asse": 1219,
      "irst": 1220,
      "Ġstop": 1221,
      "Ġunderstand": 1222,
      "par": 1223,
      "Ġhom": 1224,
      "Ġson": 1225,
      "Ġgive": 1226,
      "ign": 1227,
      "Ġleave": 1228,
      "Ġla": 1229,
      "gry": 1230,
      "Ġnome": 1231,
      "oto": 1232,
      "Ġpergun": 1233,
      "ful": 1234,
      "int": 1235,
      "Ġassim": 1236,
      "ĠEstÃ¡": 1237,
      "amb": 1238,
      "Ġtemos": 1239,
      "has": 1240,
      "ĠninguÃ©m": 1241,
      "Ġweek": 1242,
      "Ġopen": 1243,
      "Ġquestion": 1244,
      "Ġsor": 1245,
      "Ġcu": 1246,
      "Ġtwo": 1247,
      "Ġother": 1248,
      "ĠIf": 1249,
      "ĠatÃ©": 1250,
      "Ġsaw": 1251,
      "Ġprofess": 1252,
      ".\"": 1253,
      "Ġhard": 1254,
      "Ġacred": 1255,
      "arde": 1256,
      "Ġamig": 1257,
      "Ġbl": 1258,
      "Ġbar": 1259,
      "Ġalone": 1260,
      "Ġnext": 1261,
      "Ġcoisas": 1262,
      "ÃŃvel": 1263,
      "Ġbusy": 1264,
      "Ġcomprar": 1265,
      "Ġbought": 1266,
      "Ġyesterday": 1267,
      "ĠÃłs": 1268,
      "cul": 1269,
      "ĠPrecis": 1270,
      "ria": 1271,
      "ity": 1272,
      "Ġporta": 1273,
      "pp": 1274,
      "Ġprom": 1275,
      "Ġdecid": 1276,
      "son": 1277,
      "Ġcho": 1278,
      "Ġvisit": 1279,
      "Ġsurpr": 1280,
      "Ġcou": 1281,
      "Ġpa": 1282,
      "imo": 1283,
      "orro": 1284,
      "Ġdisso": 1285,
      "ĠEsper": 1286,
      "Ġposs": 1287,
      "ge": 1288,
      "Ã¡vel": 1289,
      "gua": 1290,
      "Ġeverything": 1291,
      "Ġouv": 1292,
      "Ġdos": 1293,
      "oub": 1294,
      "ua": 1295,
      "Ġwonder": 1296,
      "Ġcachorro": 1297,
      "ange": 1298,
      "Ġdu": 1299,
      "enh": 1300,
      "ĠJo": 1301,
      "min": 1302,
      "Ġover": 1303,
      "Ġlearn": 1304,
      "Ġdrink": 1305,
      "Ġchildren": 1306,
      "Ġtele": 1307,
      "Ġgir": 1308,
      "Ġaconteceu": 1309,
      "Ġsin": 1310,
      "Ġnum": 1311,
      "almente": 1312,
      "Ġsleep": 1313,
      "Ġpart": 1314,
      "ond": 1315,
      "Ãªm": 1316,
      "Ġtarde": 1317,
      "Ġans": 1318,
      "Ġesse": 1319,
      "Ġinto": 1320,
      "eix": 1321,
      "Ġmost": 1322,
      "Ġmeet": 1323,
      "ĠmÃ£e": 1324,
      "fÃ©": 1325,
      "Ġing": 1326,
      "ambÃ©m": 1327,
      "ves": 1328,
      "ary": 1329,
      "Ġfirst": 1330,
      "antar": 1331,
      "Ġwish": 1332,
      "ital": 1333,
      "Ġpreoc": 1334,
      "Ġwatch": 1335,
      "Ġgirl": 1336,
      "vis": 1337,
      "Ġbelieve": 1338,
      "30": 1339,
      "Ġhand": 1340,
      "Ġquar": 1341,
      "avel": 1342,
      "Ġmud": 1343,
      "Ġdemais": 1344,
      "Ġsair": 1345,
      "ĠJap": 1346,
      "ĠAlgu": 1347,
      "Ġhur": 1348,
      "ens": 1349,
      "Ġhora": 1350,
      "ĠElas": 1351,
      "Ġmeus": 1352,
      "Ġdri": 1353,
      "anÃ§a": 1354,
      "ĠFr": 1355,
      "cion": 1356,
      "Ġpret": 1357,
      "Ġshow": 1358,
      "Ã¢": 1359,
      "ence": 1360,
      "ile": 1361,
      "Ġvel": 1362,
      "Ġlhe": 1363,
      "olo": 1364,
      "pa": 1365,
      "ans": 1366,
      "Ġerr": 1367,
      "Ġcat": 1368,
      "Ġgre": 1369,
      "Ġsemana": 1370,
      "Ġjob": 1371,
      "ĠcafÃ©": 1372,
      "ĠEngl": 1373,
      "ember": 1374,
      "ĠPosso": 1375,
      "Ġescre": 1376,
      "Ġnothing": 1377,
      "Ġwear": 1378,
      "Ġeles": 1379,
      "Ġficou": 1380,
      "ĠCh": 1381,
      "Ġqual": 1382,
      "Ġhoras": 1383,
      "Ġestamos": 1384,
      "Ġlugar": 1385,
      "Ġswim": 1386,
      "ivo": 1387,
      "quer": 1388,
      "Ġdeve": 1389,
      "Ġdoc": 1390,
      "cre": 1391,
      "Ġmother": 1392,
      "Ġput": 1393,
      "ons": 1394,
      "Ãªncia": 1395,
      "ĠtambÃ©m": 1396,
      "Ġhot": 1397,
      "pect": 1398,
      "Ġwrong": 1399,
      "Ġcap": 1400,
      "Ġinterest": 1401,
      "hÃ£": 1402,
      "Ġuse": 1403,
      "ĠmanhÃ£": 1404,
      "Ġvida": 1405,
      "ife": 1406,
      "Ġsoon": 1407,
      "Ġable": 1408,
      "Ġlate": 1409,
      "Ġjun": 1410,
      "ĠPar": 1411,
      "Ġchegar": 1412,
      "Ġhaven": 1413,
      "tor": 1414,
      "Ġph": 1415,
      "Ġfound": 1416,
      "ily": 1417,
      "Ġajuda": 1418,
      "Ġeven": 1419,
      "Ġproblema": 1420,
      "enhum": 1421,
      "Ġamigos": 1422,
      "Ġtook": 1423,
      "rou": 1424,
      "Ġpelo": 1425,
      "Ġcab": 1426,
      "Ġment": 1427,
      "Ġquis": 1428,
      "Ġlem": 1429,
      "ĠEnglish": 1430,
      "Ġessa": 1431,
      "ĠWould": 1432,
      "air": 1433,
      "ns": 1434,
      "use": 1435,
      "Ġprime": 1436,
      "Ġboy": 1437,
      "wer": 1438,
      "Ġsit": 1439,
      "ĠFo": 1440,
      "ĠalguÃ©m": 1441,
      "tos": 1442,
      "Ġestavam": 1443,
      "Ġprov": 1444,
      "Ġfi": 1445,
      "Ġmet": 1446,
      "Ġaway": 1447,
      "Ġvamos": 1448,
      "Ġlikes": 1449,
      "Ġmal": 1450,
      "Ġ20": 1451,
      "Ġteacher": 1452,
      "press": 1453,
      "Ġmedo": 1454,
      "Ġplease": 1455,
      "Ġwalk": 1456,
      "Ġbest": 1457,
      "Ġlost": 1458,
      "Ġear": 1459,
      "Ġaquilo": 1460,
      "Ġthings": 1461,
      "Ġdias": 1462,
      "Ġtermin": 1463,
      "ĠdifÃŃ": 1464,
      "Ġint": 1465,
      "Ġrel": 1466,
      "ĠPod": 1467,
      "Ġcans": 1468,
      "Ġvoltar": 1469,
      "osa": 1470,
      "igh": 1471,
      "Ġdois": 1472,
      "Ġseen": 1473,
      "ĠFoi": 1474,
      "Ġquase": 1475,
      "Ġmarried": 1476,
      "ĠEspero": 1477,
      "Ġaren": 1478,
      "eram": 1479,
      "Ġestr": 1480,
      "sto": 1481,
      "ped": 1482,
      "ĠtÃªm": 1483,
      "Ġmiss": 1484,
      "Ġprofessor": 1485,
      "sei": 1486,
      "Ġinteress": 1487,
      "Ġtired": 1488,
      "Ġdir": 1489,
      "ande": 1490,
      "Ġcouldn": 1491,
      "Ġlist": 1492,
      "Ġwouldn": 1493,
      "este": 1494,
      "Ġemb": 1495,
      "Ġstr": 1496,
      "Ġdisc": 1497,
      "raid": 1498,
      "Ġbrother": 1499,
      "Ġafraid": 1500,
      "anÃ§as": 1501,
      "more": 1502,
      "arei": 1503,
      "let": 1504,
      "Ġrain": 1505,
      "Ġcham": 1506,
      "Ġfora": 1507,
      "Ġtry": 1508,
      "Ġanymore": 1509,
      "Ãºs": 1510,
      "Ġlig": 1511,
      "ĠSou": 1512,
      "ÃŃamos": 1513,
      "ĠdifÃŃcil": 1514,
      "Ġsho": 1515,
      "Ġins": 1516,
      "Ġplane": 1517,
      "Ġquarto": 1518,
      "ugh": 1519,
      "ĠirmÃ£": 1520,
      "ise": 1521,
      "Ġeas": 1522,
      "Ġnad": 1523,
      "entes": 1524,
      "ete": 1525,
      "Ġheard": 1526,
      "ĠGostaria": 1527,
      "Ġhomem": 1528,
      "iam": 1529,
      "Ġsame": 1530,
      "Ġenough": 1531,
      "?\"": 1532,
      "Ġwin": 1533,
      "Ġven": 1534,
      "bro": 1535,
      "Ġdas": 1536,
      "ĠIsto": 1537,
      "hn": 1538,
      "ies": 1539,
      "Ġsing": 1540,
      "ĠJohn": 1541,
      "Ġsai": 1542,
      "Ġob": 1543,
      "Ġmul": 1544,
      "Ġesperar": 1545,
      "Ġcal": 1546,
      "ĠrÃ¡": 1547,
      "Ġremember": 1548,
      "lic": 1549,
      "Ġnenhum": 1550,
      "Ġhun": 1551,
      "Ġban": 1552,
      "Ġbic": 1553,
      "Ġid": 1554,
      "ĠmÃºs": 1555,
      "Ġgl": 1556,
      "penas": 1557,
      "Ġencontrar": 1558,
      "most": 1559,
      "ually": 1560,
      "Ġpela": 1561,
      "adas": 1562,
      "Ġinc": 1563,
      "amento": 1564,
      "Ġtried": 1565,
      "ude": 1566,
      "Ġnem": 1567,
      "Ġinv": 1568,
      "Ġbad": 1569,
      "Ġfeito": 1570,
      "Ġconc": 1571,
      "Ġideia": 1572,
      "Ġcame": 1573,
      "Ġgave": 1574,
      "Ġconsigo": 1575,
      "lÃªs": 1576,
      "Ġtalking": 1577,
      "Ġanyone": 1578,
      "ĠEsse": 1579,
      "ĠÃºn": 1580,
      "Ġanswer": 1581,
      "ĠinglÃªs": 1582,
      "cess": 1583,
      "rei": 1584,
      "Ġvezes": 1585,
      "Ġsim": 1586,
      "Ġhos": 1587,
      "angu": 1588,
      "Ġatr": 1589,
      "Ġstudy": 1590,
      "Ġfui": 1591,
      "aut": 1592,
      "Ġyoung": 1593,
      "Ġperson": 1594,
      "Ġminut": 1595,
      "ĠPare": 1596,
      "Ġpag": 1597,
      "Ġgrande": 1598,
      "brig": 1599,
      "ĠTV": 1600,
      "ĠprÃ³x": 1601,
      "quei": 1602,
      "Ġkind": 1603,
      "Ġarri": 1604,
      "pido": 1605,
      "erv": 1606,
      "Ġmont": 1607,
      "Ġgente": 1608,
      "Ġfala": 1609,
      "ga": 1610,
      "rit": 1611,
      "ĠTo": 1612,
      "ater": 1613,
      "imos": 1614,
      "Ġcedo": 1615,
      "Ġalmost": 1616,
      "ĠMinha": 1617,
      "ister": 1618,
      "Ġconv": 1619,
      "Ã§Ãµes": 1620,
      "Ġens": 1621,
      "ĠcrianÃ§as": 1622,
      "ĠMay": 1623,
      "Ġnam": 1624,
      "Ġfinish": 1625,
      "Ġhosp": 1626,
      "Ġbeaut": 1627,
      "chu": 1628,
      "iful": 1629,
      "ĠJÃ¡": 1630,
      "Ġwater": 1631,
      "reu": 1632,
      "Ġacab": 1633,
      "Ġelse": 1634,
      "Ġlooks": 1635,
      "vert": 1636,
      "Ġproc": 1637,
      "Ġtrabalhar": 1638,
      "Ġhospital": 1639,
      "atos": 1640,
      "Ġhear": 1641,
      "Ġeng": 1642,
      "ffe": 1643,
      "vo": 1644,
      "ĠmÃ©d": 1645,
      "Ġforg": 1646,
      "ĠvÃ¡": 1647,
      "Ġlooking": 1648,
      "iÃ£o": 1649,
      "Ġparty": 1650,
      "Ġapp": 1651,
      "Ġclass": 1652,
      "Ġidea": 1653,
      "Ġbeautiful": 1654,
      "nib": 1655,
      "Ġano": 1656,
      "gether": 1657,
      "lt": 1658,
      "Ġtogether": 1659,
      "Ġdeu": 1660,
      "Ġbeb": 1661,
      "Ġerrado": 1662,
      "´nib": 1663,
      "ĠÃ´nib": 1664,
      "Ġboa": 1665,
      "Ġestudar": 1666,
      "eixe": 1667,
      "ĠÃ´nibus": 1668,
      "Ġturn": 1669,
      "ĠYour": 1670,
      "Ġocupado": 1671,
      "Ġpla": 1672,
      "osse": 1673,
      "Ġmulher": 1674,
      "Ġmay": 1675,
      "Ġgetting": 1676,
      "Ġcostum": 1677,
      "Ġforget": 1678,
      "eio": 1679,
      "ne": 1680,
      "Ġz": 1681,
      "Ġbon": 1682,
      "Ġfilhos": 1683,
      "Ġlife": 1684,
      "Ġcomprou": 1685,
      "Ġbrin": 1686,
      "Ġmil": 1687,
      "Ġesperando": 1688,
      "Ġwaiting": 1689,
      "ĠAll": 1690,
      "Ġbec": 1691,
      "Ġtrying": 1692,
      "ĠQuant": 1693,
      "Ġeating": 1694,
      "Ġviu": 1695,
      "ĠÃ³": 1696,
      "pois": 1697,
      "Ġbooks": 1698,
      "low": 1699,
      "Ġoften": 1700,
      "Ġmov": 1701,
      "Ġmista": 1702,
      "ĠirmÃ£o": 1703,
      "di": 1704,
      "mos": 1705,
      "ised": 1706,
      "ĠDoes": 1707,
      "Ġcontar": 1708,
      "fic": 1709,
      "Ġseja": 1710,
      "Ġpessoa": 1711,
      "ner": 1712,
      "Ġcidade": 1713,
      "Ġpay": 1714,
      "ĠfÃ¡": 1715,
      "Ġop": 1716,
      "imes": 1717,
      "Ġamigo": 1718,
      "Ġdur": 1719,
      "onto": 1720,
      "Ġfesta": 1721,
      "ĠQuanto": 1722,
      "Ġsat": 1723,
      "ĠSome": 1724,
      "essa": 1725,
      "Ġmorning": 1726,
      "Ġhurt": 1727,
      "Ġbro": 1728,
      "ible": 1729,
      "Ġta": 1730,
      "Ġchor": 1731,
      "ĠEssa": 1732,
      "Ġtrabalh": 1733,
      "Ġbig": 1734,
      "Ġtrue": 1735,
      "hora": 1736,
      "ĠTell": 1737,
      "Ġsister": 1738,
      "Ġmom": 1739,
      "Ġfood": 1740,
      "Ġsays": 1741,
      "Ġsuf": 1742,
      "lain": 1743,
      "Ġwithout": 1744,
      "ied": 1745,
      "iver": 1746,
      "Ġenjo": 1747,
      "Ġcuid": 1748,
      "ĠEstamos": 1749,
      "Ġperm": 1750,
      "ĠmÃºsica": 1751,
      "Ġvo": 1752,
      "Ġhour": 1753,
      "Ġcount": 1754,
      "Ġpais": 1755,
      "Ġsenhora": 1756,
      "da": 1757,
      "ino": 1758,
      "Ġrep": 1759,
      "Ġmora": 1760,
      "Ġassist": 1761,
      "Ġtir": 1762,
      "Ġinf": 1763,
      "Ġrece": 1764,
      "Ġpict": 1765,
      "hei": 1766,
      "ÃŃn": 1767,
      "Ġlivros": 1768,
      "ĠÃ¡gua": 1769,
      "ffee": 1770,
      "Ġcle": 1771,
      "Ġready": 1772,
      "avelmente": 1773,
      "Ġdela": 1774,
      "Ġbeing": 1775,
      "ĠfaÃ§a": 1776,
      "Ġtrain": 1777,
      "Ġpal": 1778,
      "Ġfosse": 1779,
      "ory": 1780,
      "Ġconta": 1781,
      "Ġconvers": 1782,
      "Ġnadar": 1783,
      "Ġnas": 1784,
      "Ġret": 1785,
      "Ġatras": 1786,
      "Ġparents": 1787,
      "Ã³ria": 1788,
      "Ġcoffee": 1789,
      "Ġhimself": 1790,
      "ĠEveryone": 1791,
      "ĠTem": 1792,
      "ular": 1793,
      "Ġduas": 1794,
      "ced": 1795,
      "ru": 1796,
      "act": 1797,
      "Ġcold": 1798,
      "ĠAqu": 1799,
      "Ġsuas": 1800,
      "Ġmyself": 1801,
      "Ġdeixar": 1802,
      "Ġbed": 1803,
      "ĠvÃ£o": 1804,
      "ĠSt": 1805,
      "Ġseems": 1806,
      "ĠPreciso": 1807,
      "iano": 1808,
      "Ġmuitas": 1809,
      "Ġkeep": 1810,
      "Ġcansado": 1811,
      "Ġfol": 1812,
      "Ġresta": 1813,
      "ĠCanad": 1814,
      "Ġler": 1815,
      "Ġtheir": 1816,
      "Ġbeg": 1817,
      "Ġforam": 1818,
      "ÃŃlia": 1819,
      "Ġapenas": 1820,
      "Ġcomida": 1821,
      "Ġfamily": 1822,
      "ĠUm": 1823,
      "ĠÃºlt": 1824,
      "lar": 1825,
      "Ġbat": 1826,
      "eta": 1827,
      "ĠAm": 1828,
      "Ġfalando": 1829,
      "ĠPer": 1830,
      "Ġdivert": 1831,
      "ĠJapan": 1832,
      "Ġjuntos": 1833,
      "ĠAc": 1834,
      "ĠAinda": 1835,
      "Ġangry": 1836,
      "Ġmesa": 1837,
      "Ġvia": 1838,
      "Ġpodemos": 1839,
      "agem": 1840,
      "ĠconheÃ§o": 1841,
      "Ġplace": 1842,
      "ĠfÃ¡cil": 1843,
      "Ġacord": 1844,
      "ip": 1845,
      "Ġmot": 1846,
      "Ġmaior": 1847,
      "ÃŃs": 1848,
      "ĠfamÃŃlia": 1849,
      "Ġstarted": 1850,
      "ork": 1851,
      "Ġlangu": 1852,
      "Ġalgumas": 1853,
      "Ġhon": 1854,
      "Ġacontecer": 1855,
      "Ġdied": 1856,
      "Ġcontin": 1857,
      "ivers": 1858,
      "Ġkid": 1859,
      "Ġsegund": 1860,
      "ger": 1861,
      "gue": 1862,
      "Ġpretty": 1863,
      "Ġearly": 1864,
      "Ġenjoy": 1865,
      "Ġrestaur": 1866,
      "alve": 1867,
      "Ġoutro": 1868,
      "Ġsorry": 1869,
      "Ġgreat": 1870,
      "ĠrÃ¡pido": 1871,
      "osed": 1872,
      "Ġdire": 1873,
      "ĠserÃ¡": 1874,
      "Ġalgum": 1875,
      "ores": 1876,
      "iram": 1877,
      "ĠNunca": 1878,
      "Ġreg": 1879,
      "Ġtentando": 1880,
      "tei": 1881,
      "Ġtak": 1882,
      "atamente": 1883,
      "Ġrun": 1884,
      "Ġcerto": 1885,
      "Ġeasy": 1886,
      "Ġprocur": 1887,
      "ked": 1888,
      "Ġboth": 1889,
      "Ġdepois": 1890,
      "unch": 1891,
      "ĠCould": 1892,
      "Ġdoctor": 1893,
      "sic": 1894,
      "Ġganh": 1895,
      "uth": 1896,
      "gr": 1897,
      "ably": 1898,
      "Ġmuitos": 1899,
      "cle": 1900,
      "Ġcin": 1901,
      "Ġago": 1902,
      "Ġneeds": 1903,
      "Ġmonth": 1904,
      "Ġbu": 1905,
      "Ġparecia": 1906,
      "Ġbreak": 1907,
      "Ġtelef": 1908,
      "alvez": 1909,
      "ĠcomeÃ§ou": 1910,
      "Ġtorn": 1911,
      "any": 1912,
      "ĠThank": 1913,
      "Ġkill": 1914,
      "ĠNobody": 1915,
      "ĠTodo": 1916,
      "gg": 1917,
      "Ġanother": 1918,
      "ious": 1919,
      "Ġsk": 1920,
      "Ġsub": 1921,
      "Ġdaqui": 1922,
      "Ġtrem": 1923,
      "ĠAlguÃ©m": 1924,
      "Ġwearing": 1925,
      "Ġphone": 1926,
      "Ġcha": 1927,
      "anho": 1928,
      "Ġhate": 1929,
      "ream": 1930,
      "Ġcoming": 1931,
      "Ġtruth": 1932,
      "Ġlooked": 1933,
      "Ġaprender": 1934,
      "Ġmight": 1935,
      "Ġguy": 1936,
      "rias": 1937,
      "Ġdirig": 1938,
      "Ġlisten": 1939,
      "brigado": 1940,
      "Ġsn": 1941,
      "ars": 1942,
      "ense": 1943,
      "Ġbir": 1944,
      "Ġyourself": 1945,
      "vamos": 1946,
      "Ġpiano": 1947,
      "Ġwife": 1948,
      "Ġvest": 1949,
      "Ġprob": 1950,
      "ĠCanadian": 1951,
      "Ġlim": 1952,
      "Ġey": 1953,
      "Ġtrust": 1954,
      "Ġcanad": 1955,
      "Ġpoder": 1956,
      "Ġacontec": 1957,
      "Ġmenos": 1958,
      "Ġempr": 1959,
      "Ġleg": 1960,
      "Ġtoda": 1961,
      "Ġend": 1962,
      "inh": 1963,
      "Ġthese": 1964,
      "Ġvem": 1965,
      "Ġexpect": 1966,
      "cause": 1967,
      "Ġsala": 1968,
      "Ġown": 1969,
      "Ġchance": 1970,
      "Ġoutra": 1971,
      "Ġlives": 1972,
      "Ġpediu": 1973,
      "Ġnamor": 1974,
      "Ġcry": 1975,
      "Ġpain": 1976,
      "Ġnosso": 1977,
      "Ġfre": 1978,
      "Ġdesc": 1979,
      "Ġshouldn": 1980,
      "Ġcorre": 1981,
      "Ġthir": 1982,
      "Ġexc": 1983,
      "Ġador": 1984,
      "Ġprobably": 1985,
      "bol": 1986,
      "Ġletter": 1987,
      "antes": 1988,
      "ÃŃcia": 1989,
      "Ġhist": 1990,
      "Ġjog": 1991,
      "Ġvelho": 1992,
      "esa": 1993,
      "icle": 1994,
      "Ġpensei": 1995,
      "Ġdinner": 1996,
      "ment": 1997,
      "guei": 1998,
      "ura": 1999,
      "Ġperfe": 2000,
      "Ġfew": 2001,
      "Ġjogar": 2002,
      "Ġprovavelmente": 2003,
      "Ġton": 2004,
      "Ġwom": 2005,
      "edi": 2006,
      "ivesse": 2007,
      "ught": 2008,
      "ula": 2009,
      "ĠMon": 2010,
      "Ġworking": 2011,
      "Ġcook": 2012,
      "Ġlunch": 2013,
      "Ġmuita": 2014,
      "Ġidi": 2015,
      "ĠatrÃ¡s": 2016,
      "ota": 2017,
      "Ġporque": 2018,
      "Ġtodas": 2019,
      "Ġentre": 2020,
      "Ġdormir": 2021,
      "Ġsufici": 2022,
      "Ġscar": 2023,
      "idente": 2024,
      "Ġquiser": 2025,
      "oud": 2026,
      "ĠIn": 2027,
      "ĠPe": 2028,
      "Ġfilme": 2029,
      "Ġforgot": 2030,
      "Ġbast": 2031,
      "Ġanim": 2032,
      "Ġteve": 2033,
      "Ġcoz": 2034,
      "Ġfome": 2035,
      "Ġbecause": 2036,
      "Ġatt": 2037,
      "Ġalguns": 2038,
      "Ġmorreu": 2039,
      "Ġplaying": 2040,
      "Ġcoloc": 2041,
      "Ġarr": 2042,
      "Ġsomos": 2043,
      "Ġsick": 2044,
      "Ġred": 2045,
      "Ġexper": 2046,
      "Ġkey": 2047,
      "arÃ¡": 2048,
      "Ġbol": 2049,
      "ades": 2050,
      "eto": 2051,
      "ĠBe": 2052,
      "Ġfica": 2053,
      "Ġimpress": 2054,
      "ited": 2055,
      "Ġconhece": 2056,
      "Ġafterno": 2057,
      "ĠFrancÃªs": 2058,
      "Ġmovie": 2059,
      "Ġbastante": 2060,
      "Ġveio": 2061,
      "Ġdec": 2062,
      "Ġstand": 2063,
      "Ġwhile": 2064,
      "ĠOK": 2065,
      "tain": 2066,
      "Ġperto": 2067,
      "Ġsabem": 2068,
      "Ġfilho": 2069,
      "Ġesteja": 2070,
      "Ġhotel": 2071,
      "Ġafternoon": 2072,
      "Ġnice": 2073,
      "00": 2074,
      "omos": 2075,
      "idos": 2076,
      "ĠSei": 2077,
      "Ġtenha": 2078,
      "ĠK": 2079,
      "ordo": 2080,
      "Ġref": 2081,
      "Ġsus": 2082,
      "Ġtable": 2083,
      "Ġsuficiente": 2084,
      "Ġbi": 2085,
      "Ġpalav": 2086,
      "Ġpap": 2087,
      "Ġunt": 2088,
      "Ġalmo": 2089,
      "Ġjan": 2090,
      "Ġsomeone": 2091,
      "Ġfuncion": 2092,
      "Ġpergunta": 2093,
      "Ġcust": 2094,
      "Ġdez": 2095,
      "Ġnovamente": 2096,
      "Ġhungry": 2097,
      "cou": 2098,
      "Ġquerem": 2099,
      "Ġword": 2100,
      "indow": 2101,
      "Ġensin": 2102,
      "ĠMonday": 2103,
      "orta": 2104,
      "Ã³rio": 2105,
      "ize": 2106,
      "Ġquestions": 2107,
      "ĠmÃ©dico": 2108,
      "Ġtanto": 2109,
      "ĠTemos": 2110,
      "Ġlar": 2111,
      "Ġalto": 2112,
      "ĠCome": 2113,
      "Ġdiffic": 2114,
      "Ġdrive": 2115,
      "cio": 2116,
      "Ġmeeting": 2117,
      "Ġate": 2118,
      "ĠWill": 2119,
      "Ġext": 2120,
      "Ġfavorite": 2121,
      "Ġconsegue": 2122,
      "Ġtonight": 2123,
      "iste": 2124,
      "reet": 2125,
      "emente": 2126,
      "Ġdel": 2127,
      "ĠDes": 2128,
      "Ġempre": 2129,
      "ions": 2130,
      "Ġpegar": 2131,
      "Ġcomplet": 2132,
      "Ġstudying": 2133,
      "Ġdecided": 2134,
      "Ġembora": 2135,
      "ias": 2136,
      "Ġdays": 2137,
      "Ġnerv": 2138,
      "Ġwindow": 2139,
      "Ġindo": 2140,
      "prei": 2141,
      "Ġadm": 2142,
      "ĠTalvez": 2143,
      "Ġsign": 2144,
      "Ġquebr": 2145,
      "Ġcarta": 2146,
      "ĠFi": 2147,
      "Ġperder": 2148,
      "Ġusar": 2149,
      "Ġfinished": 2150,
      "Ġtelefone": 2151,
      "Ġeach": 2152,
      "Ġpra": 2153,
      "Ġpassado": 2154,
      "Ġtipo": 2155,
      "ĠhistÃ³ria": 2156,
      "ood": 2157,
      "ata": 2158,
      "Ġje": 2159,
      "Ġnecess": 2160,
      "Ġmachu": 2161,
      "Ġprepar": 2162,
      "Ġolh": 2163,
      "Ġfrequ": 2164,
      "Ġsuc": 2165,
      "ever": 2166,
      "gado": 2167,
      "endeu": 2168,
      "Ġfaria": 2169,
      "ates": 2170,
      "Ġagree": 2171,
      "Ġfech": 2172,
      "Ġchegou": 2173,
      "Ġmine": 2174,
      "Ġsimp": 2175,
      "Ġsegunda": 2176,
      "Ġuntil": 2177,
      "cando": 2178,
      "Ġsupp": 2179,
      "Ġnossa": 2180,
      "Ġcama": 2181,
      "ider": 2182,
      "iment": 2183,
      "Ġmusic": 2184,
      "Ġconcer": 2185,
      "Ġpodem": 2186,
      "Ġgrand": 2187,
      "Ġminhas": 2188,
      "Ġvolta": 2189,
      "ĠTudo": 2190,
      "ĠParece": 2191,
      "Ġarrived": 2192,
      "Ġcul": 2193,
      "Ġgato": 2194,
      "Ġjantar": 2195,
      "Ġsuper": 2196,
      "Ã³g": 2197,
      "Ġdifer": 2198,
      "Ġtentou": 2199,
      "Ġmatter": 2200,
      "Ġimportant": 2201,
      "Ġpergunto": 2202,
      "ball": 2203,
      "friend": 2204,
      "ted": 2205,
      "Ġdent": 2206,
      "quen": 2207,
      "rios": 2208,
      "Ġchange": 2209,
      "Ġanybody": 2210,
      "Ġliving": 2211,
      "Ġimportante": 2212,
      "Ġprimeiro": 2213,
      "ĠHis": 2214,
      "used": 2215,
      "Ġaquele": 2216,
      "Ġworried": 2217,
      "Ġaround": 2218,
      "Ġcalled": 2219,
      "Ã¢n": 2220,
      "tou": 2221,
      "ĠDeixe": 2222,
      "icion": 2223,
      "Ġparar": 2224,
      "osta": 2225,
      "Ġart": 2226,
      "Ġmesma": 2227,
      "ossa": 2228,
      "Ġroub": 2229,
      "Ġeveryone": 2230,
      "Ġpassada": 2231,
      "icleta": 2232,
      "bo": 2233,
      "jar": 2234,
      "Ġfoto": 2235,
      "Ġusually": 2236,
      "Ġcontou": 2237,
      "Ġdiffer": 2238,
      "ba": 2239,
      "ze": 2240,
      "rem": 2241,
      "Ġbit": 2242,
      "Ġparte": 2243,
      "riu": 2244,
      "Ġentrar": 2245,
      "Ġespero": 2246,
      "Ġtomar": 2247,
      "Ġdeixou": 2248,
      "king": 2249,
      "uit": 2250,
      "vem": 2251,
      "Ġtall": 2252,
      "inta": 2253,
      "Ġev": 2254,
      "Ġru": 2255,
      "eira": 2256,
      "iar": 2257,
      "Ġsong": 2258,
      "Ġmind": 2259,
      "Ġnat": 2260,
      "teira": 2261,
      "Ġcareful": 2262,
      "Ġqualquer": 2263,
      "sas": 2264,
      "Ġgone": 2265,
      "irt": 2266,
      "Ġbei": 2267,
      "cident": 2268,
      "Ġviol": 2269,
      "Ġguard": 2270,
      "ĠEverybody": 2271,
      "ĠÃºnico": 2272,
      "uz": 2273,
      "ĠEm": 2274,
      "ĠAg": 2275,
      "ĠSÃ³": 2276,
      "cept": 2277,
      "Ġhasn": 2278,
      "Ġtentar": 2279,
      "Ġnews": 2280,
      "ĠUn": 2281,
      "Ġbicicleta": 2282,
      "Ġglass": 2283,
      "ĠpÃ©": 2284,
      "Ġstation": 2285,
      "ĠAgora": 2286,
      "ses": 2287,
      "Ġx": 2288,
      "Ġquite": 2289,
      "ĠThese": 2290,
      "Ġlaugh": 2291,
      "Ġouvir": 2292,
      "Ġdifficult": 2293,
      "anha": 2294,
      "Ġkiss": 2295,
      "ĠCon": 2296,
      "here": 2297,
      "ating": 2298,
      "Ġgol": 2299,
      "Ġchang": 2300,
      "Ġprocurando": 2301,
      "Ġnear": 2302,
      "Ġpreocup": 2303,
      "ĠlÃŃn": 2304,
      "Ġreun": 2305,
      "ĠDiga": 2306,
      "Ġdesco": 2307,
      "Ġapart": 2308,
      "Ġrespon": 2309,
      "Ġesposa": 2310,
      "ace": 2311,
      "Ġinst": 2312,
      "osto": 2313,
      "Ġwrite": 2314,
      "Ġsurprised": 2315,
      "ĠdÃ³": 2316,
      "Ġprop": 2317,
      "anger": 2318,
      "Ġinterested": 2319,
      "Ġcontinu": 2320,
      "isso": 2321,
      "Ġhum": 2322,
      "osco": 2323,
      "Ġopin": 2324,
      "cado": 2325,
      "Ġcaix": 2326,
      "into": 2327,
      "Ġplano": 2328,
      "ĠestaÃ§Ã£o": 2329,
      "Ġtelevis": 2330,
      "Ġpreocupado": 2331,
      "Ġbet": 2332,
      "veu": 2333,
      "erei": 2334,
      "Ġteu": 2335,
      "Ġentend": 2336,
      "aixo": 2337,
      "Ġperguntas": 2338,
      "Ġconcord": 2339,
      "Ġdor": 2340,
      "Ġfum": 2341,
      "Ġlou": 2342,
      "Ġescrit": 2343,
      "Ġimag": 2344,
      "Ġhaving": 2345,
      "Ġpedir": 2346,
      "entemente": 2347,
      "Ġtrans": 2348,
      "Ġgostam": 2349,
      "Ġnova": 2350,
      "tas": 2351,
      "Ġstory": 2352,
      "Ġperd": 2353,
      "raz": 2354,
      "Ġprecisava": 2355,
      "ĠLook": 2356,
      "Ġmudar": 2357,
      "ble": 2358,
      "cido": 2359,
      "hes": 2360,
      "Ġtimes": 2361,
      "Ġhair": 2362,
      "Ġacidente": 2363,
      "Ġaccident": 2364,
      "Ġpequen": 2365,
      "Ġencontr": 2366,
      "Ġhavia": 2367,
      "Ġpolice": 2368,
      "ĠcrianÃ§a": 2369,
      "Ġperguntou": 2370,
      "Ġpicture": 2371,
      "Ġemprego": 2372,
      "ny": 2373,
      "Ġabr": 2374,
      "Ġmed": 2375,
      "Ġfer": 2376,
      "Ġrich": 2377,
      "Ġonce": 2378,
      "ĠmaÃ§": 2379,
      "Ã©u": 2380,
      "Ġguitar": 2381,
      "lhe": 2382,
      "pas": 2383,
      "work": 2384,
      "ĠAt": 2385,
      "Ġreading": 2386,
      "Ġcav": 2387,
      "Ġbeh": 2388,
      "Ġconosco": 2389,
      "nis": 2390,
      "uro": 2391,
      "Ġpop": 2392,
      "Ġdist": 2393,
      "peito": 2394,
      "Ġagr": 2395,
      "ĠQuantos": 2396,
      "bra": 2397,
      "res": 2398,
      "xi": 2399,
      "Ġtive": 2400,
      "Ġav": 2401,
      "Ġcant": 2402,
      "ale": 2403,
      "ĠpaÃŃs": 2404,
      "Ġcanadense": 2405,
      "we": 2406,
      "Ã¡t": 2407,
      "Ġemp": 2408,
      "Ġmorr": 2409,
      "Ġdescul": 2410,
      "Ġseria": 2411,
      "ĠpolÃŃcia": 2412,
      "Ġinteresting": 2413,
      "Ġdream": 2414,
      "our": 2415,
      "Ġcorr": 2416,
      "ĠEx": 2417,
      "ican": 2418,
      "ull": 2419,
      "Ġlonger": 2420,
      "Ġfollow": 2421,
      "ual": 2422,
      "ĠpÃ´": 2423,
      "Ġfree": 2424,
      "ath": 2425,
      "Ġdoll": 2426,
      "olog": 2427,
      "ĠÃºltima": 2428,
      "ĠreuniÃ£o": 2429,
      "Ġlight": 2430,
      "Ġjovem": 2431,
      "era": 2432,
      "Ġfrio": 2433,
      "Ġthr": 2434,
      "oca": 2435,
      "ĠWhich": 2436,
      "Ġtennis": 2437,
      "Ġjogo": 2438,
      "Ġspend": 2439,
      "ĠcomeÃ§ar": 2440,
      "Ġpensar": 2441,
      "Ġfast": 2442,
      "Ġborn": 2443,
      "Ġbolo": 2444,
      "Ġdecis": 2445,
      "Ġcarne": 2446,
      "raÃ§": 2447,
      "aco": 2448,
      "Ġoffice": 2449,
      "Ġsenhores": 2450,
      "Ġsenhoras": 2451,
      "Ġolhos": 2452,
      "ughter": 2453,
      "Ġhours": 2454,
      "Ġcake": 2455,
      "Ġthose": 2456,
      "Ġode": 2457,
      "Ġdoente": 2458,
      "Ġpark": 2459,
      "ĠSh": 2460,
      "Ġmakes": 2461,
      "Ġpronto": 2462,
      "Ġarm": 2463,
      "Ġouvi": 2464,
      "Ġassust": 2465,
      "Ġsmall": 2466,
      "ĠRe": 2467,
      "Ġjanela": 2468,
      "ĠtÃªn": 2469,
      "ĠvÃª": 2470,
      "gul": 2471,
      "Ġsaud": 2472,
      "Ġerro": 2473,
      "Ġexpl": 2474,
      "Ġocup": 2475,
      "Ġpagar": 2476,
      "Ġconversar": 2477,
      "ient": 2478,
      "Ġdanger": 2479,
      "ĠObrigado": 2480,
      "Ġminutes": 2481,
      "Ġhonest": 2482,
      "Ġbirth": 2483,
      "Ġcaixa": 2484,
      "ĠmaÃ§Ã£": 2485,
      "ĠtÃªnis": 2486,
      "cem": 2487,
      "Ġconven": 2488,
      "Ġneeded": 2489,
      "ĠLe": 2490,
      "Ġbox": 2491,
      "Ġdormindo": 2492,
      "ui": 2493,
      "enÃ§a": 2494,
      "Ġfell": 2495,
      "Ġsof": 2496,
      "Ġusando": 2497,
      "ific": 2498,
      "Ġprimeira": 2499,
      "gem": 2500,
      "Ġsum": 2501,
      "Ġcara": 2502,
      "Ġprecisamos": 2503,
      "cial": 2504,
      "Ġimporta": 2505,
      "Ġconsider": 2506,
      "ĠÃ¡r": 2507,
      "Ġmistake": 2508,
      "ken": 2509,
      "Ġrou": 2510,
      "Ġconst": 2511,
      "Ġperdeu": 2512,
      "Ġcountry": 2513,
      "ff": 2514,
      "Ġsap": 2515,
      "idas": 2516,
      "Ġdiv": 2517,
      "Ġaber": 2518,
      "Ġworld": 2519,
      "Ġ19": 2520,
      "Ġinteressante": 2521,
      "Ġminutos": 2522,
      "Ġclean": 2523,
      "ĠdÃ³lar": 2524,
      "ier": 2525,
      "Ġqui": 2526,
      "own": 2527,
      "ĠHo": 2528,
      "Ġdaughter": 2529,
      "Ġescap": 2530,
      "Ġadv": 2531,
      "Ġbroke": 2532,
      "ming": 2533,
      "ycle": 2534,
      "ĠmÃªs": 2535,
      "ende": 2536,
      "Ġhigh": 2537,
      "ostum": 2538,
      "Ġsuch": 2539,
      "Ġhelped": 2540,
      "Ġlogo": 2541,
      "Ġcaminho": 2542,
      "aixon": 2543,
      "Ġsatis": 2544,
      "Ġeyes": 2545,
      "Ġpat": 2546,
      "Ġpud": 2547,
      "ama": 2548,
      "Ġraz": 2549,
      "ĠPrecisamos": 2550,
      "ĠPara": 2551,
      "bos": 2552,
      "Ġtal": 2553,
      "Ġwhe": 2554,
      "Ġwine": 2555,
      "Ġtocar": 2556,
      "Ġvinho": 2557,
      "ĠOur": 2558,
      "Ġprote": 2559,
      "ush": 2560,
      "Ġapaixon": 2561,
      "Ġworks": 2562,
      "Ġloves": 2563,
      "Ġlembr": 2564,
      "port": 2565,
      "otos": 2566,
      "Ġanivers": 2567,
      "unk": 2568,
      "ages": 2569,
      "Ġlived": 2570,
      "Ġtrabalha": 2571,
      "Ġfeeling": 2572,
      "Ġtri": 2573,
      "Ġaos": 2574,
      "Ġaula": 2575,
      "Ġcur": 2576,
      "Ġbas": 2577,
      "Ġcomeu": 2578,
      "Ġsound": 2579,
      "Ġexplain": 2580,
      "Ġcabelo": 2581,
      "Ġmomento": 2582,
      "Ġsido": 2583,
      "Ġexact": 2584,
      "pens": 2585,
      "Ġhomework": 2586,
      "Ġsinto": 2587,
      "Ġsnow": 2588,
      "ĠdÃ³lares": 2589,
      "Ġsoc": 2590,
      "Ġsecre": 2591,
      "ĠOc": 2592,
      "Ġchoc": 2593,
      "Ġcaus": 2594,
      "Ġspent": 2595,
      "ĠaniversÃ¡rio": 2596,
      "ĠmÃ£o": 2597,
      "Ġmess": 2598,
      "Ġnisso": 2599,
      "Ġbot": 2600,
      "Ġmeio": 2601,
      "Ġcomm": 2602,
      "und": 2603,
      "Ġolder": 2604,
      "Ġsince": 2605,
      "ĠprÃ³ximo": 2606,
      "ĠHoje": 2607,
      "bor": 2608,
      "side": 2609,
      "ĠTake": 2610,
      "erÃ¡": 2611,
      "Ġsil": 2612,
      "ins": 2613,
      "ither": 2614,
      "Ġthinks": 2615,
      "ago": 2616,
      "Ġfelt": 2617,
      "ĠJapÃ£o": 2618,
      "Ġplanej": 2619,
      "Ġscared": 2620,
      "Ġace": 2621,
      "Ġbab": 2622,
      "Ġgame": 2623,
      "Ġris": 2624,
      "Ġreas": 2625,
      "Ġasleep": 2626,
      "Ġprefer": 2627,
      "Ġallow": 2628,
      "Ġstudents": 2629,
      "Ġcamis": 2630,
      "beu": 2631,
      "Ġshoes": 2632,
      "Ġemprest": 2633,
      "gn": 2634,
      "Ġmean": 2635,
      "ical": 2636,
      "ĠAmer": 2637,
      "Ġexatamente": 2638,
      "Ġmaneira": 2639,
      "ĠpossÃŃvel": 2640,
      "Ġsaiu": 2641,
      "ĠprÃ³xima": 2642,
      "Ġreturn": 2643,
      "Ġacontecendo": 2644,
      "Ġfire": 2645,
      "Ġlater": 2646,
      "ede": 2647,
      "veja": 2648,
      "Ġliked": 2649,
      "top": 2650,
      "Ġdie": 2651,
      "ĠverÃ£o": 2652,
      "Ġchave": 2653,
      "Ġcontr": 2654,
      "Ġorder": 2655,
      "Ġconseguiu": 2656,
      "af": 2657,
      "Ġcut": 2658,
      "Ġcantar": 2659,
      "Ġfish": 2660,
      "elas": 2661,
      "Ġact": 2662,
      "Ġproblemas": 2663,
      "Ġdeixe": 2664,
      "Ġescrever": 2665,
      "Ġbonita": 2666,
      "Ġexperi": 2667,
      "ket": 2668,
      "ubro": 2669,
      "Ġtest": 2670,
      "Ġaz": 2671,
      "ĠmÃ¡": 2672,
      "Ġfix": 2673,
      "Ġwar": 2674,
      "Ġlav": 2675,
      "tober": 2676,
      "Ġtua": 2677,
      "Ġencontrou": 2678,
      "Ġflow": 2679,
      "Ġnumber": 2680,
      "Ġsummer": 2681,
      "Ġsapatos": 2682,
      "ĠOctober": 2683,
      "uck": 2684,
      "where": 2685,
      "Ġdiss": 2686,
      "Ġentender": 2687,
      "Ġadd": 2688,
      "Ġpassar": 2689,
      "Ãºmer": 2690,
      "Ġminu": 2691,
      "Ġsurpres": 2692,
      "Ġpaid": 2693,
      "Ġacabou": 2694,
      "Ġwoman": 2695,
      "ĠÃ¡rv": 2696,
      "Ġsand": 2697,
      "orto": 2698,
      "Ġiria": 2699,
      "ĠajudÃ¡": 2700,
      "Ġlonge": 2701,
      "Ġlaw": 2702,
      "Ġlearned": 2703,
      "ĠPode": 2704,
      "Ġresult": 2705,
      "Ġidade": 2706,
      "Ġgen": 2707,
      "enta": 2708,
      "Ġneigh": 2709,
      "adeira": 2710,
      "Ġfilha": 2711,
      "ĠSeu": 2712,
      "Ġconvid": 2713,
      "ple": 2714,
      "Ġair": 2715,
      "Ġdro": 2716,
      "Ġcity": 2717,
      "quanto": 2718,
      "Ġlado": 2719,
      "Ġelas": 2720,
      "Ġgostar": 2721,
      "Ġeverybody": 2722,
      "Ġconser": 2723,
      "ĠUma": 2724,
      "Ġstopped": 2725,
      "che": 2726,
      "Ġquente": 2727,
      "Ġbor": 2728,
      "Ġran": 2729,
      "Ġtrinta": 2730,
      "oking": 2731,
      "Ġcasar": 2732,
      "Ġoutubro": 2733,
      "Ġdress": 2734,
      "Ġexplic": 2735,
      "Ġturned": 2736,
      "Ġbecome": 2737,
      "Ġbirthday": 2738,
      "Ġneighbor": 2739,
      "fast": 2740,
      "Ġdiga": 2741,
      "Ġchat": 2742,
      "aste": 2743,
      "als": 2744,
      "Ġrico": 2745,
      "Ġpris": 2746,
      "Ġfrente": 2747,
      "Ġleite": 2748,
      "point": 2749,
      "Ġcontigo": 2750,
      "Ġpassou": 2751,
      "Ġlanguage": 2752,
      "Ġdirigir": 2753,
      "Ġthirty": 2754,
      "Ġexactly": 2755,
      "iente": 2756,
      "mar": 2757,
      "Ġlying": 2758,
      "gun": 2759,
      "Ġnaqu": 2760,
      "Ġluck": 2761,
      "Ġcabe": 2762,
      "na": 2763,
      "Ġfim": 2764,
      "Ġlose": 2765,
      "ized": 2766,
      "Ġpegou": 2767,
      "upid": 2768,
      "Ġorgul": 2769,
      "cel": 2770,
      "Ġdict": 2771,
      "Ġpick": 2772,
      "Ġtown": 2773,
      "Ġdeles": 2774,
      "Ġstupid": 2775,
      "feira": 2776,
      "azer": 2777,
      "Ġpresente": 2778,
      "Ġhands": 2779,
      "Ġestranho": 2780,
      "ĠMaybe": 2781,
      "Ġmilk": 2782,
      "Ġcinco": 2783,
      "Ġbreakfast": 2784,
      "ĠescritÃ³rio": 2785,
      "Ġsafe": 2786,
      "Ġplanning": 2787,
      "Ġdurante": 2788,
      "uter": 2789,
      "ĠnÃºmer": 2790,
      "aves": 2791,
      "ention": 2792,
      "ĠSinto": 2793,
      "Ġforte": 2794,
      "Ġproud": 2795,
      "uss": 2796,
      "ĠGive": 2797,
      "Ġacredito": 2798,
      "Ġglad": 2799,
      "Ġguys": 2800,
      "Ġneste": 2801,
      "Ġfut": 2802,
      "Ġrest": 2803,
      "Ġdesde": 2804,
      "Ġclose": 2805,
      "Ġcerveja": 2806,
      "ĠdeverÃŃamos": 2807,
      "Ġwrit": 2808,
      "Ġsozinha": 2809,
      "irei": 2810,
      "Ġdollars": 2811,
      "Ġbeer": 2812,
      "entei": 2813,
      "utador": 2814,
      "Ġenquanto": 2815,
      "Ġveget": 2816,
      "Ġviver": 2817,
      "Ġresposta": 2818,
      "iado": 2819,
      "Ġtravel": 2820,
      "ĠirÃ¡": 2821,
      "ĠestarÃ¡": 2822,
      "Ġbicycle": 2823,
      "Ġed": 2824,
      "Ġaut": 2825,
      "erg": 2826,
      "Ġmad": 2827,
      "Ġflo": 2828,
      "Ġestiver": 2829,
      "antas": 2830,
      "Ġbeber": 2831,
      "ject": 2832,
      "Ġwrote": 2833,
      "Ġmenino": 2834,
      "Ġdevo": 2835,
      "Ġcapaz": 2836,
      "Ġligar": 2837,
      "Ġbuild": 2838,
      "ĠThanks": 2839,
      "Ġcolocou": 2840,
      "Ġia": 2841,
      "Ġdest": 2842,
      "esso": 2843,
      "Ġpac": 2844,
      "anta": 2845,
      "iled": 2846,
      "tebol": 2847,
      "Ġyours": 2848,
      "Ġbring": 2849,
      "Ġeaten": 2850,
      "Ġstayed": 2851,
      "Ġdentro": 2852,
      "Ġbaby": 2853,
      "mel": 2854,
      "ving": 2855,
      "Ġdom": 2856,
      "Ġsel": 2857,
      "Ġcort": 2858,
      "Ġmem": 2859,
      "Ġdef": 2860,
      "ĠSua": 2861,
      "ested": 2862,
      "Ġdeser": 2863,
      "Ġpensa": 2864,
      "Ġcomputador": 2865,
      "Ġdark": 2866,
      "Ġnenhuma": 2867,
      "Ġchanged": 2868,
      "ial": 2869,
      "Ġsendo": 2870,
      "inhos": 2871,
      "Ġquick": 2872,
      "Ġqueremos": 2873,
      "Ġmorar": 2874,
      "Ġoutside": 2875,
      "Ġficando": 2876,
      "Ġcomputer": 2877,
      "Ġcaminh": 2878,
      "Ġ201": 2879,
      "Ġstrong": 2880,
      "Ġbecame": 2881,
      "Ġavi": 2882,
      "Ġsell": 2883,
      "Ġpossa": 2884,
      "itos": 2885,
      "ĠMuit": 2886,
      "ures": 2887,
      "ĠentÃ£o": 2888,
      "Ġvisto": 2889,
      "Ġvisitar": 2890,
      "Ġacreditar": 2891,
      "Ġcostumava": 2892,
      "Ġabrir": 2893,
      "Ġdiction": 2894,
      "ĠdanÃ§": 2895,
      "Ġdicion": 2896,
      "ĠsÃ©": 2897,
      "Ġhat": 2898,
      "Ġhid": 2899,
      "Ġparque": 2900,
      "ĠPr": 2901,
      "Ġaten": 2902,
      "lack": 2903,
      "Ġthinking": 2904,
      "Ġdrunk": 2905,
      "Ġaprend": 2906,
      "Ġfutebol": 2907,
      "Ġzo": 2908,
      "Ġguarda": 2909,
      "ĠnÃºmero": 2910,
      "ĠFa": 2911,
      "Ġandar": 2912,
      "raf": 2913,
      "Ġrecl": 2914,
      "Ġatrasado": 2915,
      "ĠlÃŃngua": 2916,
      "Ġsecret": 2917,
      "ding": 2918,
      "ph": 2919,
      "omet": 2920,
      "Ġce": 2921,
      "Ġfive": 2922,
      "ĠWas": 2923,
      "room": 2924,
      "ĠStop": 2925,
      "Ġneg": 2926,
      "Ġprecisar": 2927,
      "ĠGet": 2928,
      "Ġrespons": 2929,
      "ĠmÃ£os": 2930,
      "ĠGosto": 2931,
      "Ġrestaurant": 2932,
      "Ġcaval": 2933,
      "Ġger": 2934,
      "elig": 2935,
      "Ġrua": 2936,
      "Ġchu": 2937,
      "Ġpodia": 2938,
      "Ġbrav": 2939,
      "ĠJust": 2940,
      "Ġsaying": 2941,
      "Ã¡ss": 2942,
      "Ġintelig": 2943,
      "Ġkilled": 2944,
      "Ġchap": 2945,
      "ces": 2946,
      "ps": 2947,
      "sos": 2948,
      "iness": 2949,
      "imento": 2950,
      "ĠfaÃ§o": 2951,
      "ĠPen": 2952,
      "Ġamo": 2953,
      "Ġtalked": 2954,
      "Ġswimming": 2955,
      "ĠÃ³t": 2956,
      "Ġwhether": 2957,
      "ĠaviÃ£o": 2958,
      "Ġcup": 2959,
      "ĠEn": 2960,
      "Ġacostum": 2961,
      "Ġstudent": 2962,
      "Ġesteve": 2963,
      "Ġluz": 2964,
      "Ġchover": 2965,
      "Ġkids": 2966,
      "Ġtaking": 2967,
      "pensive": 2968,
      "Ġpun": 2969,
      "ema": 2970,
      "Ġdet": 2971,
      "ĠAren": 2972,
      "ÃŃm": 2973,
      "Ġteam": 2974,
      "Ġshirt": 2975,
      "ivemos": 2976,
      "Ġimposs": 2977,
      "Ġchoice": 2978,
      "ĠÃºnica": 2979,
      "Ġpraia": 2980,
      "Ġsurpreso": 2981,
      "by": 2982,
      "ured": 2983,
      "Ġign": 2984,
      "inhar": 2985,
      "onde": 2986,
      "itou": 2987,
      "Ġgiv": 2988,
      "Ġstreet": 2989,
      "aiu": 2990,
      "apon": 2991,
      "Ġdeste": 2992,
      "Ġworry": 2993,
      "Ġescolha": 2994,
      "Ġcres": 2995,
      "Ġdifferent": 2996,
      "ĠcabeÃ§a": 2997,
      "Ġdictionary": 2998,
      "ĠdicionÃ¡rio": 2999,
      "ress": 3000,
      "aro": 3001,
      "Ġbag": 3002,
      "Ġrela": 3003,
      "ĠPut": 3004,
      "Ġtrad": 3005,
      "itting": 3006,
      "Ġfiquei": 3007,
      "Ġbrincando": 3008,
      "ĠatenÃ§Ã£o": 3009,
      "Ġmant": 3010,
      "Ġmaking": 3011,
      "ended": 3012,
      "Ġama": 3013,
      "Ġexam": 3014,
      "Ġfalta": 3015,
      "Ġnuma": 3016,
      "ĠalmoÃ§": 3017,
      "uÃŃ": 3018,
      "enha": 3019,
      "orte": 3020,
      "aving": 3021,
      "Ġlibr": 3022,
      "Ġcomplain": 3023,
      "Ġopened": 3024,
      "Ġtree": 3025,
      "Ġtivesse": 3026,
      "Ġbur": 3027,
      "Ġvont": 3028,
      "amais": 3029,
      "iras": 3030,
      "veis": 3031,
      "ĠSab": 3032,
      "Ġgoes": 3033,
      "Ġexpensive": 3034,
      "Ġflu": 3035,
      "Ġlevar": 3036,
      "Ġconvin": 3037,
      "ĠQuantas": 3038,
      "Ġvontade": 3039,
      "bed": 3040,
      "ĠTr": 3041,
      "Ġblack": 3042,
      "ately": 3043,
      "Ġbeach": 3044,
      "ĠQueria": 3045,
      "Ġfale": 3046,
      "Ġworked": 3047,
      "Ġloja": 3048,
      "Ġspeaks": 3049,
      "Ġplayed": 3050,
      "Ġfine": 3051,
      "Ġblue": 3052,
      "Ġpossible": 3053,
      "Ġgirlfriend": 3054,
      "eteu": 3055,
      "Ġacordado": 3056,
      "Ġimagin": 3057,
      "Ġchocol": 3058,
      "rist": 3059,
      "itch": 3060,
      "iros": 3061,
      "ĠMany": 3062,
      "Ġant": 3063,
      "Ġwash": 3064,
      "Ġacc": 3065,
      "Ġdisap": 3066,
      "Ġescut": 3067,
      "Ġcloth": 3068,
      "Ġwaited": 3069,
      "Ġcrying": 3070,
      "Ġbehind": 3071,
      "cu": 3072,
      "Ġdoub": 3073,
      "Ġfas": 3074,
      "Ġgent": 3075,
      "Ġjard": 3076,
      "ĠEstava": 3077,
      "Ġdese": 3078,
      "Ġteria": 3079,
      "ĠGo": 3080,
      "ocked": 3081,
      "Ġlanguages": 3082,
      "Ġnamorada": 3083,
      "Ġpopular": 3084,
      "Ġ2013": 3085,
      "den": 3086,
      "ĠaÃŃ": 3087,
      "Ġcraz": 3088,
      "ĠSem": 3089,
      "enda": 3090,
      "Ġvejo": 3091,
      "Ġclosed": 3092,
      "Ġcaught": 3093,
      "Ġterminar": 3094,
      "Ġjeito": 3095,
      "ĠchapÃ©u": 3096,
      "dio": 3097,
      "eep": 3098,
      "vido": 3099,
      "Ġtel": 3100,
      "Ġmeat": 3101,
      "Ġcomendo": 3102,
      "Ġcomprei": 3103,
      "Ġrap": 3104,
      "Ġcarteira": 3105,
      "Ġaquela": 3106,
      "Ġcolle": 3107,
      "Ġbegin": 3108,
      "Ġpalavra": 3109,
      "Ġdelici": 3110,
      "ĠtelevisÃ£o": 3111,
      "Ġreason": 3112,
      "con": 3113,
      "du": 3114,
      "Ġavis": 3115,
      "Ġvac": 3116,
      "Ġgas": 3117,
      "alth": 3118,
      "Ġmeia": 3119,
      "ĠNow": 3120,
      "ĠNot": 3121,
      "Ġvermel": 3122,
      "Ġweather": 3123,
      "Ġgets": 3124,
      "Ġsentar": 3125,
      "culos": 3126,
      "Ġbroken": 3127,
      "Ġresponder": 3128,
      "Ġbuilding": 3129,
      "tle": 3130,
      "omp": 3131,
      "Ġalun": 3132,
      "Ġaccept": 3133,
      "Ġcancel": 3134,
      "Ġtea": 3135,
      "Ġseguro": 3136,
      "Ġfique": 3137,
      "ĠJapanese": 3138,
      "Ġperfect": 3139,
      "Ġcamisa": 3140,
      "Ġbravo": 3141,
      "vos": 3142,
      "Ġcora": 3143,
      "ĠHav": 3144,
      "ĠSerÃ¡": 3145,
      "unto": 3146,
      "Ġperce": 3147,
      "Ġfalou": 3148,
      "Ġachava": 3149,
      "Ġencontrei": 3150,
      "Ġwatching": 3151,
      "Ġtrabalhando": 3152,
      "Ġmotor": 3153,
      "Ġclothes": 3154,
      "bado": 3155,
      "iote": 3156,
      "ĠfÃ©": 3157,
      "entos": 3158,
      "Ġcomet": 3159,
      "ĠSomos": 3160,
      "Ġserious": 3161,
      "ept": 3162,
      "Ġflores": 3163,
      "Ġfizeram": 3164,
      "Ã©dio": 3165,
      "Ġcuidado": 3166,
      "Ġrestaurante": 3167,
      "Ġbibl": 3168,
      "Ġfight": 3169,
      "icos": 3170,
      "Ġumbre": 3171,
      "Ġoutros": 3172,
      "Ġentendo": 3173,
      "ĠrelÃ³g": 3174,
      "Ġfloor": 3175,
      "Ġlibrary": 3176,
      "Ġchocolate": 3177,
      "Ġbibliote": 3178,
      "sol": 3179,
      "ĠchÃ¡": 3180,
      "Ġrespeito": 3181,
      "Ġcontra": 3182,
      "Ġseemed": 3183,
      "Ġdiscut": 3184,
      "Ġadoro": 3185,
      "Ġdescobr": 3186,
      "Ġcrazy": 3187,
      "hado": 3188,
      "kely": 3189,
      "til": 3190,
      "erra": 3191,
      "Ġhop": 3192,
      "Ġbase": 3193,
      "ently": 3194,
      "ĠfazÃª": 3195,
      "Ġdizendo": 3196,
      "Ġyounger": 3197,
      "Ġpermiss": 3198,
      "Ġmorrer": 3199,
      "Ġpior": 3200,
      "Ġestivesse": 3201,
      "Ġcomes": 3202,
      "Ġconsel": 3203,
      "Ġsuit": 3204,
      "Ġtroub": 3205,
      "Ġdesse": 3206,
      "ĠesqueÃ§a": 3207,
      "Ġinteressado": 3208,
      "Ġchorar": 3209,
      "Ġquiet": 3210,
      "Ġbiblioteca": 3211,
      "Ġpie": 3212,
      "ane": 3213,
      "Ġali": 3214,
      "Ġkept": 3215,
      "Ġstore": 3216,
      "ĠFui": 3217,
      "ĠsaÃŃ": 3218,
      "cias": 3219,
      "vies": 3220,
      "Ġpensando": 3221,
      "Ġdiscuss": 3222,
      "Ġattention": 3223,
      "Ġsupposed": 3224,
      "Ã¢ncia": 3225,
      "ĠrelÃ³gio": 3226,
      "lla": 3227,
      "eren": 3228,
      "Ġcent": 3229,
      "Ġsup": 3230,
      "Ġpref": 3231,
      "iva": 3232,
      "ction": 3233,
      "Ġfavorito": 3234,
      "Ġdogs": 3235,
      "Ġouviu": 3236,
      "Ġlembro": 3237,
      "Ġganhar": 3238,
      "Ġbeij": 3239,
      "Ġtrip": 3240,
      "Ġumbrella": 3241,
      "nos": 3242,
      "Ġnorm": 3243,
      "Ġalso": 3244,
      "Ġrom": 3245,
      "Ġjapon": 3246,
      "Ġtrou": 3247,
      "rendo": 3248,
      "Ġdesap": 3249,
      "Ġdesist": 3250,
      "ĠJack": 3251,
      "Ġloved": 3252,
      "Ġmovies": 3253,
      "Ġconfi": 3254,
      "Ġsimples": 3255,
      "Ġtransl": 3256,
      "ged": 3257,
      "ered": 3258,
      "Ġspo": 3259,
      "Ġpri": 3260,
      "Ġhit": 3261,
      "atic": 3262,
      "rov": 3263,
      "Ġlie": 3264,
      "Ġsabemos": 3265,
      "Ġgostou": 3266,
      "Ġimedi": 3267,
      "ortun": 3268,
      "Ġfunny": 3269,
      "ĠEverything": 3270,
      "Ġconstru": 3271,
      "Ġadvice": 3272,
      "ĠrazÃ£o": 3273,
      "bi": 3274,
      "cl": 3275,
      "man": 3276,
      "Ġig": 3277,
      "ĠbÃª": 3278,
      "Ġval": 3279,
      "ition": 3280,
      "veral": 3281,
      "Ġrather": 3282,
      "Ġsugg": 3283,
      "Ġgostava": 3284,
      "acion": 3285,
      "Ġassunto": 3286,
      "itten": 3287,
      "Ġsorte": 3288,
      "Ġbanco": 3289,
      "Ġtirou": 3290,
      "Ġlegal": 3291,
      "Ġsc": 3292,
      "Ġpeixe": 3293,
      "alf": 3294,
      "ĠAp": 3295,
      "Ġforma": 3296,
      "teen": 3297,
      "Ġcheg": 3298,
      "Ġsentindo": 3299,
      "Ġgarota": 3300,
      "Ġinside": 3301,
      "Ġtaught": 3302,
      "Ġbegan": 3303,
      "Ġinteligente": 3304,
      "Ġtrouble": 3305,
      "Ġsente": 3306,
      "Ġpiz": 3307,
      "Ġnesta": 3308,
      "Ġfing": 3309,
      "ret": 3310,
      "Ġless": 3311,
      "ĠestÃ¡vamos": 3312,
      "Ġdisp": 3313,
      "Ġmens": 3314,
      "ĠChrist": 3315,
      "Ġthrough": 3316,
      "ĠJackson": 3317,
      "los": 3318,
      "lig": 3319,
      "xe": 3320,
      "Ġcima": 3321,
      "Ġpia": 3322,
      "Ġbal": 3323,
      "Ġegg": 3324,
      "ĠNa": 3325,
      "Ġrid": 3326,
      "Ġhead": 3327,
      "Ġprecisam": 3328,
      "Ġesperava": 3329,
      "Ġadvo": 3330,
      "Ġswe": 3331,
      "Ġesqueci": 3332,
      "Ġdecidiu": 3333,
      "Ġsitu": 3334,
      "Ġmistakes": 3335,
      "ĠÃ¡rvore": 3336,
      "ĠPensei": 3337,
      "ĠfÃ©rias": 3338,
      "ned": 3339,
      "set": 3340,
      "Ġsitting": 3341,
      "ĠMost": 3342,
      "Ã©r": 3343,
      "Ġterri": 3344,
      "Ġconseguir": 3345,
      "uaÃ§Ã£o": 3346,
      "Ġhurry": 3347,
      "Ġescreveu": 3348,
      "Ġcapital": 3349,
      "chuva": 3350,
      "Ġpictures": 3351,
      "ĠAquele": 3352,
      "ĠKeep": 3353,
      "Ġagrade": 3354,
      "ĠTe": 3355,
      "oun": 3356,
      "Ġpu": 3357,
      "atro": 3358,
      "Ġrar": 3359,
      "Ġreco": 3360,
      "Ġform": 3361,
      "Ġsto": 3362,
      "ĠBoth": 3363,
      "ivos": 3364,
      "Ġvoltou": 3365,
      "Ġestudando": 3366,
      "Ġterminou": 3367,
      "Ġsaiba": 3368,
      "ĠengraÃ§": 3369,
      "ĠbebÃª": 3370,
      "Ġpermit": 3371,
      "Ġviagem": 3372,
      "Ġvestido": 3373,
      "Ġimpression": 3374,
      "Ġdoubt": 3375,
      "vendo": 3376,
      "Ġdessa": 3377,
      "Ġcaiu": 3378,
      "Ġlista": 3379,
      "Ġdep": 3380,
      "Ġface": 3381,
      "Ġcopo": 3382,
      "Ġspeaking": 3383,
      "Ġachou": 3384,
      "Ġfizesse": 3385,
      "Ġpresent": 3386,
      "Ġperguntar": 3387,
      "Ġblind": 3388,
      "Ġchair": 3389,
      "ĠFique": 3390,
      "Ġplanejando": 3391,
      "Ġflowers": 3392,
      "Ġquickly": 3393,
      "Ġimediatamente": 3394,
      "Ġsix": 3395,
      "Ġdead": 3396,
      "ĠOl": 3397,
      "Ġparou": 3398,
      "Ġalive": 3399,
      "old": 3400,
      "ĠHer": 3401,
      "Ġabriu": 3402,
      "Ġeram": 3403,
      "Ġentrou": 3404,
      "Ġsentir": 3405,
      "Ġmostrar": 3406,
      "Ġapple": 3407,
      "Ġidiom": 3408,
      "Ġcompletamente": 3409,
      "Ġfumar": 3410,
      "Ġdoming": 3411,
      "Ġjardim": 3412,
      "ram": 3413,
      "Ġtick": 3414,
      "Ġfotos": 3415,
      "Ġweren": 3416,
      "teiro": 3417,
      "Ġpress": 3418,
      "Ġajudou": 3419,
      "Ġgrav": 3420,
      "Ġthank": 3421,
      "Ġwhole": 3422,
      "Ġdevia": 3423,
      "Ġgaroto": 3424,
      "Ġstrange": 3425,
      "Ġassistir": 3426,
      "Ġtirar": 3427,
      "ĠcÃ¢": 3428,
      "onhe": 3429,
      "Ġfull": 3430,
      "ors": 3431,
      "Ġbra": 3432,
      "Ġgard": 3433,
      "ĠNat": 3434,
      "ĠNem": 3435,
      "ĠestÃ¡s": 3436,
      "Ġperig": 3437,
      "Ġresol": 3438,
      "Ġupset": 3439,
      "Ġpena": 3440,
      "Ġguess": 3441,
      "Ġsono": 3442,
      "Ġweekend": 3443,
      "Ġpromised": 3444,
      "ĠAlgumas": 3445,
      "Ã¡tica": 3446,
      "Ġroupas": 3447,
      "Ġlawy": 3448,
      "Ġgarden": 3449,
      "band": 3450,
      "ouch": 3451,
      "Ġmere": 3452,
      "ishing": 3453,
      "Ġseg": 3454,
      "icas": 3455,
      "ĠchÃ£o": 3456,
      "Ġamb": 3457,
      "Ġcontro": 3458,
      "Ġproblems": 3459,
      "Ġmove": 3460,
      "Ġextrem": 3461,
      "Ġexplicar": 3462,
      "Ġorgulhos": 3463,
      "less": 3464,
      "Ġice": 3465,
      "ĠtÃ¡": 3466,
      "Ġpint": 3467,
      "Ġjorn": 3468,
      "Ġagre": 3469,
      "Ġwhite": 3470,
      "Ġbran": 3471,
      "Ġmentindo": 3472,
      "Ġvencer": 3473,
      "ĠÃ³culos": 3474,
      "Ġinform": 3475,
      "Ġclear": 3476,
      "Ġpizza": 3477,
      "Ġsituation": 3478,
      "udo": 3479,
      "ward": 3480,
      "ĠdÃ¡": 3481,
      "Ġfat": 3482,
      "Ġthen": 3483,
      "Ġdeb": 3484,
      "ĠOu": 3485,
      "ĠHere": 3486,
      "Ġquerer": 3487,
      "Ġheart": 3488,
      "Ġabsol": 3489,
      "Ġfall": 3490,
      "Ġdesk": 3491,
      "Ġconsegui": 3492,
      "Ġbarul": 3493,
      "ĠPodemos": 3494,
      "ĠSomeone": 3495,
      "Ġlaughed": 3496,
      "Ġdescobrir": 3497,
      "ĠaÃ§": 3498,
      "ĠTomÃ¡s": 3499,
      "Ġmand": 3500,
      "Ġtot": 3501,
      "ative": 3502,
      "Ġespe": 3503,
      "Ġtemp": 3504,
      "Ġcand": 3505,
      "Ġchar": 3506,
      "Ġweight": 3507,
      "Ġerros": 3508,
      "cara": 3509,
      "Ġprofessora": 3510,
      "Ġpromise": 3511,
      "Ġwalked": 3512,
      "ĠPeople": 3513,
      "Ġruim": 3514,
      "Ġazul": 3515,
      "ĠChristmas": 3516,
      "ĠdÃª": 3517,
      "arr": 3518,
      "Ġcre": 3519,
      "Ġbank": 3520,
      "Ġrio": 3521,
      "ĠDÃª": 3522,
      "Ġfoot": 3523,
      "Ġprogr": 3524,
      "Ġworth": 3525,
      "ĠLond": 3526,
      "Ġmeses": 3527,
      "Ġcomplic": 3528,
      "Ġesquecer": 3529,
      "pping": 3530,
      "ĠsituaÃ§Ã£o": 3531,
      "Ġnasceu": 3532,
      "Ġlistening": 3533,
      "ĠHavia": 3534,
      "Ġbaseball": 3535,
      "jam": 3536,
      "Ġsle": 3537,
      "Ġpasse": 3538,
      "Ġfig": 3539,
      "ĠEra": 3540,
      "Ġvot": 3541,
      "entar": 3542,
      "idades": 3543,
      "Ġseveral": 3544,
      "dei": 3545,
      "Ġpron": 3546,
      "Ġarre": 3547,
      "Ġpeso": 3548,
      "Ġbusiness": 3549,
      "Ġpedi": 3550,
      "Ġcatch": 3551,
      "Ġdangerous": 3552,
      "Ġlembrar": 3553,
      "gon": 3554,
      "Ġpur": 3555,
      "Ġachei": 3556,
      "Ġprin": 3557,
      "Ġprest": 3558,
      "Ġdaqu": 3559,
      "Ġshort": 3560,
      "feito": 3561,
      "ĠEsp": 3562,
      "Ġligou": 3563,
      "Ġmonths": 3564,
      "Ġquebrou": 3565,
      "ĠxÃŃ": 3566,
      "aÃ§Ã£o": 3567,
      "cos": 3568,
      "hone": 3569,
      "led": 3570,
      "Ġ30": 3571,
      "ĠestÃº": 3572,
      "hood": 3573,
      "ĠAd": 3574,
      "Ġrai": 3575,
      "Ġjamais": 3576,
      "ÃŃt": 3577,
      "Ġcasado": 3578,
      "Ġcerta": 3579,
      "Ġplans": 3580,
      "ĠMeus": 3581,
      "Ġhappening": 3582,
      "ĠprÃ³p": 3583,
      "Ġengan": 3584,
      "Ġmulheres": 3585,
      "Ġbath": 3586,
      "ĠdanÃ§ar": 3587,
      "ail": 3588,
      "Ġdance": 3589,
      "Ġmod": 3590,
      "Ġestive": 3591,
      "ĠDeix": 3592,
      "ldade": 3593,
      "Ġperdi": 3594,
      "Ġcoat": 3595,
      "Ġlivre": 3596,
      "Ġajude": 3597,
      "Ġcamera": 3598,
      "Ġfelizes": 3599,
      "Ġawake": 3600,
      "Ġbreve": 3601,
      "Ġpalavras": 3602,
      "Ġcompletely": 3603,
      "ĠFaÃ§a": 3604,
      "Ġchuva": 3605,
      "Ġignor": 3606,
      "book": 3607,
      "cas": 3608,
      "Ġdess": 3609,
      "Ġslow": 3610,
      "Ġthre": 3611,
      "ased": 3612,
      "Ġblo": 3613,
      "Ġvindo": 3614,
      "Ġlic": 3615,
      "Ġtriste": 3616,
      "usband": 3617,
      "Ġage": 3618,
      "Ġcompet": 3619,
      "Ãºcar": 3620,
      "Ġconhec": 3621,
      "Ġfinalmente": 3622,
      "Ġbread": 3623,
      "Ġvisited": 3624,
      "Ġmedic": 3625,
      "Ġlucky": 3626,
      "Ġreclam": 3627,
      "Ġdisappoint": 3628,
      "Ġticket": 3629,
      "ĠNatal": 3630,
      "Ġlawyer": 3631,
      "tÃ£o": 3632,
      "uff": 3633,
      "ĠTry": 3634,
      "Ġsi": 3635,
      "Ġpost": 3636,
      "ĠEnt": 3637,
      "Ġind": 3638,
      "ants": 3639,
      "ĠAqui": 3640,
      "Ã§os": 3641,
      "Ġprova": 3642,
      "ĠComprei": 3643,
      "Ġlevou": 3644,
      "Ġviajar": 3645,
      "Ġnervoso": 3646,
      "Ġsoccer": 3647,
      "ĠcÃ¢mer": 3648,
      "ĠaÃ§Ãºcar": 3649,
      "gas": 3650,
      "Ġpis": 3651,
      "Ġhalf": 3652,
      "Ġhusband": 3653,
      "Ġeither": 3654,
      "ĠVe": 3655,
      "ilt": 3656,
      "Ġmuse": 3657,
      "Ġleu": 3658,
      "Ġcole": 3659,
      "Ġdesta": 3660,
      "Ġcheck": 3661,
      "Ġgrow": 3662,
      "Ġadora": 3663,
      "Ġshowed": 3664,
      "Ġincom": 3665,
      "Ġdivertido": 3666,
      "aÃ§o": 3667,
      "gan": 3668,
      "Ġtouch": 3669,
      "Ġado": 3670,
      "Ã¡vamos": 3671,
      "adre": 3672,
      "Ġriver": 3673,
      "aper": 3674,
      "ĠEstes": 3675,
      "Ġfront": 3676,
      "ager": 3677,
      "Ġclim": 3678,
      "Ġconhecer": 3679,
      "ĠDidn": 3680,
      "ibil": 3681,
      "ĠvirÃ¡": 3682,
      "Ġhomens": 3683,
      "Ġvelha": 3684,
      "Ġdocum": 3685,
      "Ġlembra": 3686,
      "airs": 3687,
      "Ġzang": 3688,
      "Ġregret": 3689,
      "Ġnervous": 3690,
      "Ġadmit": 3691,
      "ech": 3692,
      "ios": 3693,
      "Ġ5": 3694,
      "Ġcada": 3695,
      "Ġcadeira": 3696,
      "Ġquit": 3697,
      "Ġborrow": 3698,
      "Ġsec": 3699,
      "Ġsequer": 3700,
      "ĠAf": 3701,
      "Ġalong": 3702,
      "Ã§as": 3703,
      "Ġhealth": 3704,
      "Ġapolog": 3705,
      "Ġwritten": 3706,
      "Ġconheci": 3707,
      "Ġmenina": 3708,
      "ĠOne": 3709,
      "Ġsold": 3710,
      "Ġpartir": 3711,
      "Ġfired": 3712,
      "Ġbanho": 3713,
      "Ġinvited": 3714,
      "Ġcozinha": 3715,
      "Ġpaper": 3716,
      "ĠfrequÃªncia": 3717,
      "Ġglasses": 3718,
      "Ġaberta": 3719,
      "Ġadvogado": 3720,
      "for": 3721,
      "father": 3722,
      "ss": 3723,
      "ĠpÃ£o": 3724,
      "Ġhug": 3725,
      "ĠquÃª": 3726,
      "Ġvaz": 3727,
      "Ġestaria": 3728,
      "Ġinj": 3729,
      "Ġfore": 3730,
      "Ġsugar": 3731,
      "Ġcard": 3732,
      "ume": 3733,
      "Ġimm": 3734,
      "Ġentende": 3735,
      "Ġsmart": 3736,
      "Ġpoint": 3737,
      "Ġacredita": 3738,
      "Ġmudou": 3739,
      "ĠParis": 3740,
      "Ġmissed": 3741,
      "Ġbonito": 3742,
      "Ġconcert": 3743,
      "Ġcorrer": 3744,
      "Ġallowed": 3745,
      "Ġstole": 3746,
      "hou": 3747,
      "uta": 3748,
      "ings": 3749,
      "ĠEuro": 3750,
      "Ġabs": 3751,
      "ifica": 3752,
      "Ġespera": 3753,
      "Ġfamous": 3754,
      "Ġrecom": 3755,
      "Ġdemit": 3756,
      "Ġhorse": 3757,
      "Ġarrive": 3758,
      "Ġconselho": 3759,
      "li": 3760,
      "mes": 3761,
      "of": 3762,
      "rÃŃvel": 3763,
      "Ġdito": 3764,
      "esto": 3765,
      "Ġlied": 3766,
      "Ġcaro": 3767,
      "Ġperdo": 3768,
      "Ġleast": 3769,
      "Ġexer": 3770,
      "ived": 3771,
      "cted": 3772,
      "Ġstudied": 3773,
      "Ġconfiar": 3774,
      "Ġreconhe": 3775,
      "Ġsmoking": 3776,
      "Ã´m": 3777,
      "Ġdireito": 3778,
      "Ġwomen": 3779,
      "Ġroubou": 3780,
      "ĠopiniÃ£o": 3781,
      "ĠavÃ´": 3782,
      "Ġodeio": 3783,
      "Ġmessage": 3784,
      "Ġdisseram": 3785,
      "ĠcÃ¢mera": 3786,
      "Ġponto": 3787,
      "oned": 3788,
      "Ġvivo": 3789,
      "Ġlendo": 3790,
      "Ġessas": 3791,
      "Ġgif": 3792,
      "Ġestacion": 3793,
      "ĠWere": 3794,
      "ĠVai": 3795,
      "rove": 3796,
      "Ġlikely": 3797,
      "ĠEstados": 3798,
      "ĠFal": 3799,
      "ĠFic": 3800,
      "ĠficarÃ¡": 3801,
      "Ġestudantes": 3802,
      "ĠPark": 3803,
      "Ġshopping": 3804,
      "ĠUnidos": 3805,
      "Ġlouco": 3806,
      "fort": 3807,
      "ham": 3808,
      "yed": 3809,
      "Ġdra": 3810,
      "Ġfishing": 3811,
      "ator": 3812,
      "Ġviz": 3813,
      "ĠYork": 3814,
      "Ġmag": 3815,
      "Ġcasaco": 3816,
      "Ġescond": 3817,
      "Ġdrank": 3818,
      "Ġmenin": 3819,
      "Ġsleeping": 3820,
      "Ġdriving": 3821,
      "Ġevening": 3822,
      "ĠStreet": 3823,
      "ĠalmoÃ§o": 3824,
      "Ġensinar": 3825,
      "Ġlarge": 3826,
      "Ġgener": 3827,
      "Ġvegetar": 3828,
      "Ġmensagem": 3829,
      "ioso": 3830,
      "ĠtÃŃm": 3831,
      "Ġsort": 3832,
      "Ġmid": 3833,
      "Ġnessa": 3834,
      "Ġfamos": 3835,
      "anas": 3836,
      "Ġdeath": 3837,
      "road": 3838,
      "Ġgostei": 3839,
      "Ġfool": 3840,
      "Ġfalo": 3841,
      "ished": 3842,
      "Ġpescar": 3843,
      "Ġcertain": 3844,
      "ĠGer": 3845,
      "Ġcompany": 3846,
      "Ġsense": 3847,
      "Ġinterr": 3848,
      "Ġsentado": 3849,
      "Ġconseguia": 3850,
      "Ġfinally": 3851,
      "Ġdrinking": 3852,
      "Ġestrange": 3853,
      "Ġraining": 3854,
      "ĠÃºltimo": 3855,
      "ĠPergun": 3856,
      "Ġmaioria": 3857,
      "Ġtrouxe": 3858,
      "inhas": 3859,
      "orre": 3860,
      "eth": 3861,
      "Ġenvi": 3862,
      "Ġusa": 3863,
      "agar": 3864,
      "cios": 3865,
      "Ġsomebody": 3866,
      "Ġaprendeu": 3867,
      "Ġcuri": 3868,
      "Ġduro": 3869,
      "Ġmentir": 3870,
      "Ġmoment": 3871,
      "Ġsuccess": 3872,
      "Ġconsertar": 3873,
      "Ġrelax": 3874,
      "Ġtraduz": 3875,
      "Ġjornal": 3876,
      "ired": 3877,
      "ric": 3878,
      "Ġpude": 3879,
      "Ġlid": 3880,
      "Ã¡rios": 3881,
      "adr": 3882,
      "ĠSp": 3883,
      "Ġfogo": 3884,
      "Ġmorte": 3885,
      "Ġescon": 3886,
      "Ġbrought": 3887,
      "ughing": 3888,
      "Ġmarido": 3889,
      "ĠToday": 3890,
      "Ġesqueceu": 3891,
      "Ġlaughing": 3892,
      "pped": 3893,
      "Ġtaxi": 3894,
      "Ġkeys": 3895,
      "ĠDescul": 3896,
      "ĠFiquei": 3897,
      "Ġeggs": 3898,
      "ĠtÃ¡xi": 3899,
      "Ġabsolut": 3900,
      "ĠxÃŃcara": 3901,
      "arning": 3902,
      "Ġcele": 3903,
      "ona": 3904,
      "ĠEven": 3905,
      "Ġgatos": 3906,
      "ĠVol": 3907,
      "rop": 3908,
      "verno": 3909,
      "Ġfaca": 3910,
      "Ġknife": 3911,
      "Ġneve": 3912,
      "Ġknown": 3913,
      "Ġchaves": 3914,
      "Ġlearning": 3915,
      "Ġhappens": 3916,
      "Ġrecus": 3917,
      "Ġdriver": 3918,
      "Ġfrequentemente": 3919,
      "Ġculpa": 3920,
      "Ġpequeno": 3921,
      "Ġempty": 3922,
      "Ġcavalo": 3923,
      "Ġvacation": 3924,
      "fied": 3925,
      "Ġder": 3926,
      "Ġsmo": 3927,
      "redo": 3928,
      "Ġovos": 3929,
      "Ġdeal": 3930,
      "idge": 3931,
      "ĠÃ©s": 3932,
      "ĠHas": 3933,
      "Ġaband": 3934,
      "Ġwhich": 3935,
      "ĠIsn": 3936,
      "ĠterÃ¡": 3937,
      "Ġapare": 3938,
      "Ġtelling": 3939,
      "Ġcolor": 3940,
      "Ġunivers": 3941,
      "Ġbelong": 3942,
      "Ġlevant": 3943,
      "Ġacredit": 3944,
      "enses": 3945,
      "Ġcats": 3946,
      "ĠChina": 3947,
      "Ġrelig": 3948,
      "Ġpapel": 3949,
      "Ġwords": 3950,
      "Ġgrandfather": 3951,
      "Ġxadre": 3952,
      "ween": 3953,
      "Ġcausa": 3954,
      "Ġedu": 3955,
      "Ġbarulho": 3956,
      "Ġslept": 3957,
      "Ġxadrez": 3958,
      "var": 3959,
      "Ġ6": 3960,
      "inte": 3961,
      "Ġinten": 3962,
      "ĠApr": 3963,
      "ils": 3964,
      "Ġrent": 3965,
      "Ġrad": 3966,
      "Ġfact": 3967,
      "ĠSÃ£o": 3968,
      "Ã©t": 3969,
      "tern": 3970,
      "ĠChe": 3971,
      "ÃŃcio": 3972,
      "Ġchess": 3973,
      "izar": 3974,
      "ĠfarÃ¡": 3975,
      "Ġeye": 3976,
      "Ġensinou": 3977,
      "Ġapartamento": 3978,
      "Ġapartment": 3979,
      "Ġbetween": 3980,
      "ĠbÃªbado": 3981,
      "Ġrecogn": 3982,
      "Ġgift": 3983,
      "pl": 3984,
      "sh": 3985,
      "Ġquatro": 3986,
      "Ġowe": 3987,
      "Ġvendo": 3988,
      "enty": 3989,
      "ĠVenha": 3990,
      "ĠAn": 3991,
      "Ġsun": 3992,
      "ĠCont": 3993,
      "Ġcaneta": 3994,
      "ances": 3995,
      "istic": 3996,
      "Ġestudante": 3997,
      "Ġothers": 3998,
      "ĠAcab": 3999,
      "Ġenjoyed": 4000,
      "Ġganhou": 4001,
      "Ġbolsa": 4002,
      "Ġdivor": 4003,
      "ĠnegÃ³": 4004,
      "ĠengraÃ§ado": 4005,
      "Ġperigoso": 4006,
      "ef": 4007,
      "su": 4008,
      "Ġtur": 4009,
      "Ġsorr": 4010,
      "Ġhab": 4011,
      "Ġcompre": 4012,
      "Ġseis": 4013,
      "ĠApenas": 4014,
      "Ġrul": 4015,
      "ĠBr": 4016,
      "Ġabroad": 4017,
      "Ġfres": 4018,
      "Ġdeslig": 4019,
      "Ġworse": 4020,
      "ĠTodas": 4021,
      "Ġcross": 4022,
      "Ġdevemos": 4023,
      "Ġpoor": 4024,
      "Ġgirls": 4025,
      "Ġvoo": 4026,
      "ĠAmbos": 4027,
      "Ġrunning": 4028,
      "Ġbird": 4029,
      "Ġidiota": 4030,
      "Ġgolf": 4031,
      "ĠdecisÃ£o": 4032,
      "Ġsaudades": 4033,
      "Ġaddress": 4034,
      "ĠSempre": 4035,
      "Ġraiva": 4036,
      "cendo": 4037,
      "cont": 4038,
      "Ġtio": 4039,
      "Ġgun": 4040,
      "Ġur": 4041,
      "igar": 4042,
      "Ġfair": 4043,
      "ĠFiz": 4044,
      "Ġvolt": 4045,
      "Ġuncle": 4046,
      "Ġguerra": 4047,
      "ĠvÃ¡rias": 4048,
      "Ġapples": 4049,
      "Ġexpected": 4050,
      "Ġsucesso": 4051,
      "Ġopinion": 4052,
      "Ġminute": 4053,
      "Ġwriting": 4054,
      "ĠMuitas": 4055,
      "Ġsegredo": 4056,
      "Ġ3": 4057,
      "Ġil": 4058,
      "Ġsad": 4059,
      "Ġcel": 4060,
      "Ġvive": 4061,
      "eliz": 4062,
      "ĠNada": 4063,
      "Ġbeise": 4064,
      "Ġride": 4065,
      "Ã§am": 4066,
      "pria": 4067,
      "Ġmorto": 4068,
      "Ġcomple": 4069,
      "Ġmoved": 4070,
      "Ġpensou": 4071,
      "Ġinvest": 4072,
      "Ġchorando": 4073,
      "Ġcorrect": 4074,
      "Ġspoke": 4075,
      "Ġbeisebol": 4076,
      "vol": 4077,
      "Ġdece": 4078,
      "ĠVÃ¡": 4079,
      "Ġfault": 4080,
      "ĠSomet": 4081,
      "ĠThose": 4082,
      "Ġleaving": 4083,
      "Ġmoro": 4084,
      "selves": 4085,
      "Ġsonho": 4086,
      "Ġrelat": 4087,
      "Ġobvi": 4088,
      "Ġtaller": 4089,
      "Ġpequena": 4090,
      "Ġacostumado": 4091,
      "col": 4092,
      "jet": 4093,
      "init": 4094,
      "Ġfour": 4095,
      "Ġbill": 4096,
      "Ġopt": 4097,
      "Ġset": 4098,
      "Ġstar": 4099,
      "Ġheav": 4100,
      "Ġamor": 4101,
      "Ġexist": 4102,
      "Ġfizemos": 4103,
      "Ġcalm": 4104,
      "Ġbrincar": 4105,
      "Ġculp": 4106,
      "Ġnatur": 4107,
      "Ġkissed": 4108,
      "ĠAtÃ©": 4109,
      "Ġdecision": 4110,
      "Ġneighborhood": 4111,
      "ĠÃ³timo": 4112,
      "ĠEncont": 4113,
      "Ġsmoke": 4114,
      "come": 4115,
      "ened": 4116,
      "iced": 4117,
      "ĠNe": 4118,
      "ĠEstas": 4119,
      "Ġamer": 4120,
      "Ġshy": 4121,
      "Ġshut": 4122,
      "Ġdesper": 4123,
      "Ġclu": 4124,
      "arth": 4125,
      "adores": 4126,
      "ĠprÃ³pria": 4127,
      "Ġblame": 4128,
      "ĠirmÃ£os": 4129,
      "Ġvenha": 4130,
      "Ġcalor": 4131,
      "Ġatrav": 4132,
      "ĠAquela": 4133,
      "ĠAquilo": 4134,
      "Ã³gico": 4135,
      "Ġapaixonado": 4136,
      "Ġlavar": 4137,
      "Ġterrible": 4138,
      "Ġcelular": 4139,
      "Ġtie": 4140,
      "Ġpul": 4141,
      "ĠpÃ¡ss": 4142,
      "Ġnav": 4143,
      "Ġesses": 4144,
      "Ġdepress": 4145,
      "Ġtrazer": 4146,
      "Ġescuro": 4147,
      "Ġarma": 4148,
      "Ġnovel": 4149,
      "Ġspeech": 4150,
      "Ġasking": 4151,
      "Ġacham": 4152,
      "Ġflight": 4153,
      "Ġchamar": 4154,
      "Ġreport": 4155,
      "Ġperfeito": 4156,
      "Ġarrested": 4157,
      "ĠmaÃ§Ã£s": 4158,
      "Ġminuto": 4159,
      "Ġdetal": 4160,
      "Ġmanter": 4161,
      "Ġforeign": 4162,
      "Ġradio": 4163,
      "Ġrules": 4164,
      "pis": 4165,
      "Ġsl": 4166,
      "Ġded": 4167,
      "Ġecon": 4168,
      "ĠNew": 4169,
      "orros": 4170,
      "Ġsentido": 4171,
      "Ġroad": 4172,
      "Ġpensava": 4173,
      "Ġprometeu": 4174,
      "ĠPoderia": 4175,
      "Ġeasily": 4176,
      "ĠStay": 4177,
      "Ġanimal": 4178,
      "Ġcozinhar": 4179,
      "Ġolhou": 4180,
      "Ġnaquela": 4181,
      "ton": 4182,
      "Ġi": 4183,
      "Ġteste": 4184,
      "Ġscre": 4185,
      "ĠpÃ¡": 4186,
      "Ġple": 4187,
      "Ġball": 4188,
      "Ġdeta": 4189,
      "icago": 4190,
      "Ġrais": 4191,
      "Ġfacil": 4192,
      "Ġstep": 4193,
      "Ġperigo": 4194,
      "Ġamar": 4195,
      "Ġdeveriam": 4196,
      "Ġsegur": 4197,
      "Ġsmell": 4198,
      "iremos": 4199,
      "ĠChicago": 4200,
      "Ġboyfriend": 4201,
      "Ġplaneja": 4202,
      "ĠrÃ¡dio": 4203,
      "Ġcuidados": 4204,
      "Ġregras": 4205,
      "Ġocupada": 4206,
      "Ġchate": 4207,
      "Ġpubl": 4208,
      "ĠOuvi": 4209,
      "Ġdisappointed": 4210,
      "Ġido": 4211,
      "Ġdig": 4212,
      "Ġfug": 4213,
      "ano": 4214,
      "Ġboss": 4215,
      "heu": 4216,
      "Ġseat": 4217,
      "Ġsete": 4218,
      "ĠVi": 4219,
      "olÃ³gico": 4220,
      "Ġrir": 4221,
      "Ġconte": 4222,
      "ries": 4223,
      "terior": 4224,
      "Ġnoticed": 4225,
      "Ġclasse": 4226,
      "Ġnossos": 4227,
      "Ġtiver": 4228,
      "Ġflor": 4229,
      "Ġlevantar": 4230,
      "Ġbuilt": 4231,
      "Ġtornou": 4232,
      "Ġendere": 4233,
      "Ġnamorado": 4234,
      "Ġdecide": 4235,
      "Ġsignifica": 4236,
      "ĠnecessÃ¡rio": 4237,
      "ĠviolÃ£o": 4238,
      "Ġcontrat": 4239,
      "Ġprison": 4240,
      "Ġalunos": 4241,
      "Ġbranco": 4242,
      "Ġcelebr": 4243,
      "land": 4244,
      "not": 4245,
      "way": 4246,
      "yo": 4247,
      "Ġfomos": 4248,
      "Ġviv": 4249,
      "itas": 4250,
      "Ġste": 4251,
      "outh": 4252,
      "ĠColo": 4253,
      "essar": 4254,
      "Ġirrit": 4255,
      "Ġship": 4256,
      "Ġoutras": 4257,
      "Ġjoke": 4258,
      "Ġplanos": 4259,
      "Ġparecem": 4260,
      "Ġsentou": 4261,
      "Ġdeixei": 4262,
      "Ġsurv": 4263,
      "Ġsport": 4264,
      "icial": 4265,
      "Ġgarraf": 4266,
      "Ġlimp": 4267,
      "Ġcanadenses": 4268,
      "Ġsuspect": 4269,
      "Ġcusta": 4270,
      "ĠpÃ´de": 4271,
      "Ġrisk": 4272,
      "ĠsÃ©rio": 4273,
      "Ġtelep": 4274,
      "ountain": 4275,
      "Ġidiomas": 4276,
      "Ġagreed": 4277,
      "Ġtentei": 4278,
      "ĠTente": 4279,
      "arm": 4280,
      "aremos": 4281,
      "Ġcream": 4282,
      "Ġwarn": 4283,
      "Ġhorr": 4284,
      "Ġyell": 4285,
      "ident": 4286,
      "vered": 4287,
      "Ġkitch": 4288,
      "Ġnobody": 4289,
      "Ġfalam": 4290,
      "istas": 4291,
      "Ġsometimes": 4292,
      "Ġpreso": 4293,
      "Ã´n": 4294,
      "Ġobs": 4295,
      "Ġjogando": 4296,
      "Ġanimais": 4297,
      "Ġnewsp": 4298,
      "Ġfuture": 4299,
      "Ġespecial": 4300,
      "Ġincomod": 4301,
      "ĠendereÃ§o": 4302,
      "Ġkitchen": 4303,
      "iÃ§Ã£o": 4304,
      "pcion": 4305,
      "Ġirei": 4306,
      "Ġci": 4307,
      "quio": 4308,
      "Ġcomum": 4309,
      "Ã§ou": 4310,
      "Ġtranc": 4311,
      "pear": 4312,
      "Ġfalei": 4313,
      "Ġescr": 4314,
      "Ġdeixa": 4315,
      "ĠAss": 4316,
      "Ġseguir": 4317,
      "Ġhardly": 4318,
      "Ġtornar": 4319,
      "Ġski": 4320,
      "Ġperdido": 4321,
      "ĠexperiÃªncia": 4322,
      "Ġdefinit": 4323,
      "ĠNothing": 4324,
      "clock": 4325,
      "Ġraramente": 4326,
      "xo": 4327,
      "Ġdanc": 4328,
      "Ġquant": 4329,
      "elcome": 4330,
      "ower": 4331,
      "Ġalu": 4332,
      "ĠSo": 4333,
      "Ġstuff": 4334,
      "ulas": 4335,
      "Ġexpress": 4336,
      "Ġelev": 4337,
      "Ġfavorita": 4338,
      "Ġpencil": 4339,
      "Ġmelhores": 4340,
      "Ġstanding": 4341,
      "Ġfunciona": 4342,
      "ĠcoraÃ§Ã£o": 4343,
      "Ġinjured": 4344,
      "Ġcous": 4345,
      "Ġmountain": 4346,
      "quina": 4347,
      "Ġbair": 4348,
      "Ġvend": 4349,
      "Ġlend": 4350,
      "eles": 4351,
      "Ġcomi": 4352,
      "ĠOlhe": 4353,
      "ilh": 4354,
      "Ġnoise": 4355,
      "cei": 4356,
      "Ġfazem": 4357,
      "Ġpract": 4358,
      "Ġcarre": 4359,
      "okyo": 4360,
      "Ġcasou": 4361,
      "Ġwilling": 4362,
      "Ġhadn": 4363,
      "Ġcheguei": 4364,
      "Ġagainst": 4365,
      "Ġfarei": 4366,
      "Ġgrew": 4367,
      "Ġforgive": 4368,
      "Ġvoz": 4369,
      "Ġdivertindo": 4370,
      "Ġolhando": 4371,
      "Ġdiferentes": 4372,
      "Ġgolfe": 4373,
      "Ġprotect": 4374,
      "Ġactually": 4375,
      "Ġrapid": 4376,
      "Ġgravata": 4377,
      "Ġvegetarian": 4378,
      "rig": 4379,
      "Ġsend": 4380,
      "Ġpaz": 4381,
      "Ġnesse": 4382,
      "elos": 4383,
      "Ġequi": 4384,
      "Ġmeans": 4385,
      "Ġinteira": 4386,
      "olen": 4387,
      "ĠSun": 4388,
      "Ġstolen": 4389,
      "Ġsuic": 4390,
      "Ġacordo": 4391,
      "oken": 4392,
      "Ġamiga": 4393,
      "Ġficaram": 4394,
      "Ġjoga": 4395,
      "Ġchefe": 4396,
      "Ġpassed": 4397,
      "Ġteaching": 4398,
      "Ġmatar": 4399,
      "Ġpossibil": 4400,
      "Ġsleepy": 4401,
      "Ġbrothers": 4402,
      "Ġtaken": 4403,
      "Ġnecessary": 4404,
      "Ġcontinuar": 4405,
      "Ġsounds": 4406,
      "ĠAmerican": 4407,
      "Ġzoo": 4408,
      "ĠzoolÃ³gico": 4409,
      "Ġcego": 4410,
      "Ġmotorista": 4411,
      "Ġpiece": 4412,
      "Ġdesistir": 4413,
      "Ġnavio": 4414,
      "Ġbairro": 4415,
      "case": 4416,
      "ness": 4417,
      "wich": 4418,
      "Ġty": 4419,
      "Ġagu": 4420,
      "ĠTokyo": 4421,
      "erop": 4422,
      "Ġpack": 4423,
      "onho": 4424,
      "Ġble": 4425,
      "Ġbaixo": 4426,
      "Ġboca": 4427,
      "Ġobrigado": 4428,
      "Ġliga": 4429,
      "ird": 4430,
      "ĠMake": 4431,
      "head": 4432,
      "ĠAonde": 4433,
      "ets": 4434,
      "ĠNosso": 4435,
      "ched": 4436,
      "Ġring": 4437,
      "Ġcannot": 4438,
      "urso": 4439,
      "Ġcerca": 4440,
      "Ġesperou": 4441,
      "ĠlÃ¡pis": 4442,
      "itted": 4443,
      "ĠDever": 4444,
      "Ġtakes": 4445,
      "Ġcinema": 4446,
      "Ġanimals": 4447,
      "Ġocupados": 4448,
      "Ġsatisfeito": 4449,
      "Ġsandwich": 4450,
      "Ġgentil": 4451,
      "ĠbraÃ§o": 4452,
      "Ġsecond": 4453,
      "eroporto": 4454,
      "oura": 4455,
      "Ġwall": 4456,
      "Ġwake": 4457,
      "Ġhol": 4458,
      "Ġbons": 4459,
      "Ġlos": 4460,
      "Ġjum": 4461,
      "Ã³quio": 4462,
      "ĠprÃ©dio": 4463,
      "ĠFaz": 4464,
      "Ġargu": 4465,
      "preci": 4466,
      "Ġdific": 4467,
      "Ġvolun": 4468,
      "Ġcachorros": 4469,
      "Ġ18": 4470,
      "Ġmostrou": 4471,
      "Ġsinging": 4472,
      "Ġensino": 4473,
      "ĠConhe": 4474,
      "Ġentendi": 4475,
      "Ġfuturo": 4476,
      "Ġimpossible": 4477,
      "ĠpermissÃ£o": 4478,
      "Ġsuggest": 4479,
      "Ġorgulhoso": 4480,
      "Ġlidar": 4481,
      "ĠDesculpe": 4482,
      "ĠSunday": 4483,
      "dred": 4484,
      "Ġast": 4485,
      "Ġaeroporto": 4486,
      "ĠTÃ³quio": 4487,
      "ĠdÃº": 4488,
      "Ġsy": 4489,
      "ĠIngl": 4490,
      "Ġfly": 4491,
      "Ġwal": 4492,
      "Ġbela": 4493,
      "itado": 4494,
      "Ġdei": 4495,
      "Ġgel": 4496,
      "ĠMu": 4497,
      "ĠWait": 4498,
      "illed": 4499,
      "astic": 4500,
      "Ġentr": 4501,
      "Ġgrad": 4502,
      "Ġacontece": 4503,
      "Ġfinal": 4504,
      "mercado": 4505,
      "Ġhundred": 4506,
      "Ġbanheiro": 4507,
      "Ġlimpar": 4508,
      "Ġlaran": 4509,
      "Ġsupermar": 4510,
      "Ġsupermercado": 4511,
      "Ġtelevision": 4512,
      "Ġtalent": 4513,
      "Ġcommon": 4514,
      "Ġairport": 4515,
      "ĠimpossÃŃvel": 4516,
      "Ġconvinced": 4517,
      "Ġcollege": 4518,
      "ĠOlha": 4519,
      "ssemos": 4520,
      "Ġwallet": 4521,
      "Ġsupermarket": 4522,
      "ique": 4523,
      "Ġside": 4524,
      "Ġmon": 4525,
      "quem": 4526,
      "Ġwind": 4527,
      "elho": 4528,
      "Ã¡veis": 4529,
      "Ġestre": 4530,
      "aved": 4531,
      "entou": 4532,
      "Ġearth": 4533,
      "Ġcomem": 4534,
      "Ġcond": 4535,
      "Ã§ar": 4536,
      "Ġexcept": 4537,
      "Ġexterior": 4538,
      "Ġclos": 4539,
      "Ġassin": 4540,
      "Ġimped": 4541,
      "Ġoffer": 4542,
      "ĠAlice": 4543,
      "Ġcouple": 4544,
      "Ġpretend": 4545,
      "Ġboys": 4546,
      "Ġpatient": 4547,
      "Ġdelicious": 4548,
      "Ġvermelho": 4549,
      "Ġeconom": 4550,
      "lier": 4551,
      "uso": 4552,
      "Ġcir": 4553,
      "ench": 4554,
      "Ġbate": 4555,
      "guas": 4556,
      "Ġmau": 4557,
      "Ġatta": 4558,
      "ĠQuais": 4559,
      "ĠnotÃŃ": 4560,
      "ĠnotÃŃcia": 4561,
      "Ġcartas": 4562,
      "Ġchin": 4563,
      "Ġchur": 4564,
      "Ġclar": 4565,
      "Ġcompras": 4566,
      "Ãºde": 4567,
      "Ġvista": 4568,
      "ĠFranÃ§a": 4569,
      "Ġphoto": 4570,
      "brigada": 4571,
      "Ġvestindo": 4572,
      "Ġdiferente": 4573,
      "Ġdifference": 4574,
      "Ġsatisfied": 4575,
      "Ġpuder": 4576,
      "Ġexperience": 4577,
      "Ġgeralmente": 4578,
      "ĠtÃŃmido": 4579,
      "Ġtelephone": 4580,
      "tamente": 4581,
      "Ġaper": 4582,
      "Ġdentes": 4583,
      "Ġpot": 4584,
      "Ġband": 4585,
      "Ġbother": 4586,
      "itic": 4587,
      "Ġits": 4588,
      "Ġsob": 4589,
      "ĠWhose": 4590,
      "Ġmoram": 4591,
      "Ġshot": 4592,
      "Ġcast": 4593,
      "aged": 4594,
      "ĠEsque": 4595,
      "Ġeats": 4596,
      "Ġpassa": 4597,
      "Ġtomou": 4598,
      "orda": 4599,
      "Ġconfused": 4600,
      "Ġverdadeiro": 4601,
      "Ġearlier": 4602,
      "Ġrefused": 4603,
      "ĠdiferenÃ§a": 4604,
      "Ġassustado": 4605,
      "ĠsofÃ¡": 4606,
      "Ġbasket": 4607,
      "Ġgiven": 4608,
      "Ġpiada": 4609,
      "Ġresolver": 4610,
      "Ġchateado": 4611,
      "ĠnotÃŃcias": 4612,
      "cin": 4613,
      "das": 4614,
      "Ġill": 4615,
      "Ġata": 4616,
      "Ġsang": 4617,
      "Ġmis": 4618,
      "Ġfit": 4619,
      "Ġesqui": 4620,
      "Ġesquer": 4621,
      "entually": 4622,
      "Ġalta": 4623,
      "Ġpressa": 4624,
      "Ġperten": 4625,
      "Ġmorava": 4626,
      "Ġcasamento": 4627,
      "Ġplays": 4628,
      "Ġhelping": 4629,
      "Ġclaro": 4630,
      "Ġadvis": 4631,
      "ĠaconteÃ§a": 4632,
      "Ġsenti": 4633,
      "ĠpedaÃ§o": 4634,
      "Ġcrime": 4635,
      "Ġpolic": 4636,
      "Ġsorv": 4637,
      "ĠFrance": 4638,
      "ĠChin": 4639,
      "Ġobjet": 4640,
      "ĠAchei": 4641,
      "000": 4642,
      "Ġdescob": 4643,
      "ĠShould": 4644,
      "Ġnaquele": 4645,
      "Ġfaster": 4646,
      "ĠprÃ³prio": 4647,
      "Ġimmedi": 4648,
      "Ġpublic": 4649,
      "Ġnewspaper": 4650,
      "ror": 4651,
      "Ġaulas": 4652,
      "Ġmol": 4653,
      "Ġpos": 4654,
      "Ġpil": 4655,
      "Ġponte": 4656,
      "reja": 4657,
      "Ã£es": 4658,
      "Ã¡ria": 4659,
      "ster": 4660,
      "ĠPelo": 4661,
      "Ġtroc": 4662,
      "Ã©ssemos": 4663,
      "Ġcarros": 4664,
      "ĠFor": 4665,
      "prim": 4666,
      "Ġrespect": 4667,
      "Ġappreci": 4668,
      "Ġachar": 4669,
      "Ġescolher": 4670,
      "Ġmatou": 4671,
      "Ġtrees": 4672,
      "Ġchoose": 4673,
      "Ġsurpresa": 4674,
      "Ġsingle": 4675,
      "Ġduring": 4676,
      "Ġextra": 4677,
      "Ġcarefully": 4678,
      "ĠUnited": 4679,
      "Ġpreocupar": 4680,
      "ĠAmerica": 4681,
      "Ġordered": 4682,
      "Ġdomingo": 4683,
      "Ġzangado": 4684,
      "Ġrapidamente": 4685,
      "Ġsorvete": 4686,
      "fria": 4687,
      "Ġtivemos": 4688,
      "ert": 4689,
      "Ġnu": 4690,
      "aso": 4691,
      "Ġopp": 4692,
      "Ã¡st": 4693,
      "ames": 4694,
      "ilar": 4695,
      "ĠSent": 4696,
      "Ġsuger": 4697,
      "ĠQuase": 4698,
      "ĠFe": 4699,
      "ĠsaÃºde": 4700,
      "Ġhistor": 4701,
      "ĠcomeÃ§a": 4702,
      "Ġresfria": 4703,
      "ntem": 4704,
      "Ġassass": 4705,
      "Ġsomewhere": 4706,
      "Ġconhecia": 4707,
      "ations": 4708,
      "Ġmarry": 4709,
      "Ġolhar": 4710,
      "Ġintend": 4711,
      "angue": 4712,
      "Ġhonesto": 4713,
      "Ġforgotten": 4714,
      "ĠalmoÃ§ar": 4715,
      "Ġigreja": 4716,
      "ĠestÃºpido": 4717,
      "Ġdecepcion": 4718,
      "Ġbateu": 4719,
      "Ġchurch": 4720,
      "ĠChinese": 4721,
      "bs": 4722,
      "ience": 4723,
      "jas": 4724,
      "Ġlut": 4725,
      "iria": 4726,
      "Ġinverno": 4727,
      "ĠNos": 4728,
      "Ġmur": 4729,
      "ĠSa": 4730,
      "Ġstood": 4731,
      "ĠEstarei": 4732,
      "uts": 4733,
      "Ġpreto": 4734,
      "Ġpersu": 4735,
      "Ġfran": 4736,
      "Ġcase": 4737,
      "Ġjogou": 4738,
      "Ġapar": 4739,
      "Ġenter": 4740,
      "Ġcheio": 4741,
      "cip": 4742,
      "Ġspoken": 4743,
      "Ġaware": 4744,
      "Ġmentiu": 4745,
      "Ġsisters": 4746,
      "Ġinfor": 4747,
      "ĠlÃŃnguas": 4748,
      "Ġinstru": 4749,
      "Ġbored": 4750,
      "Ġprefiro": 4751,
      "Ġimmediately": 4752,
      "vida": 4753,
      "Ġcried": 4754,
      "ĠcÃ©u": 4755,
      "onsel": 4756,
      "quete": 4757,
      "Ġoito": 4758,
      "Ġvide": 4759,
      "ities": 4760,
      "Ġeight": 4761,
      "icular": 4762,
      "Ġinim": 4763,
      "Ġrude": 4764,
      "Ġwaste": 4765,
      "Ġrev": 4766,
      "Ã³sito": 4767,
      "Ġshar": 4768,
      "Ġdesen": 4769,
      "Ġbridge": 4770,
      "Ġapro": 4771,
      "ief": 4772,
      "Ġconhecem": 4773,
      "Ġdrug": 4774,
      "Ġrespond": 4775,
      "Ġdevagar": 4776,
      "Ġpobre": 4777,
      "Ġ10": 4778,
      "Ġweeks": 4779,
      "culo": 4780,
      "Ġwatched": 4781,
      "Ġchamou": 4782,
      "Ġvoice": 4783,
      "Ġmotivo": 4784,
      "Ġbola": 4785,
      "Ġhuman": 4786,
      "Ġconvencer": 4787,
      "ĠsanduÃŃ": 4788,
      "Ġdiscutir": 4789,
      "Ġnormal": 4790,
      "Ġtranslate": 4791,
      "Ġdebaixo": 4792,
      "Ġslowly": 4793,
      "ĠBring": 4794,
      "Ġamerican": 4795,
      "ĠseguranÃ§a": 4796,
      "ĠColoque": 4797,
      "Ġdificu": 4798,
      "bby": 4799,
      "dom": 4800,
      "oke": 4801,
      "Ġden": 4802,
      "ĠsÃ¡": 4803,
      "Ġpast": 4804,
      "Ġpull": 4805,
      "Ġtocou": 4806,
      "ativo": 4807,
      "ement": 4808,
      "Ġvender": 4809,
      "Ġlinda": 4810,
      "Ġdetes": 4811,
      "imas": 4812,
      "Ġinteiro": 4813,
      "ĠAch": 4814,
      "ĠOntem": 4815,
      "Ġrindo": 4816,
      "ĠSu": 4817,
      "Ġstra": 4818,
      "Ġtemper": 4819,
      "Ġnotice": 4820,
      "Ġsoup": 4821,
      "Ãºbl": 4822,
      "Ġorig": 4823,
      "ĠPref": 4824,
      "ĠquestÃ£o": 4825,
      "Ġdormiu": 4826,
      "Ġtreze": 4827,
      "Ġdecidi": 4828,
      "Ġpreocu": 4829,
      "Ġterminei": 4830,
      "ĠirmÃ£s": 4831,
      "ĠvÃ¡rios": 4832,
      "Ġcostuma": 4833,
      "ĠStates": 4834,
      "Ġsubject": 4835,
      "Ġfuncionar": 4836,
      "Ġhumor": 4837,
      "Ġdesculpas": 4838,
      "Ġreturned": 4839,
      "Ġpaci": 4840,
      "ĠMuitos": 4841,
      "Ġconvince": 4842,
      "Ġmedicine": 4843,
      "fortable": 4844,
      "ĠContin": 4845,
      "Ġgarrafa": 4846,
      "Ġattack": 4847,
      "gest": 4848,
      "Ġtam": 4849,
      "ĠTra": 4850,
      "ĠpÃºbl": 4851,
      "Ġwet": 4852,
      "emÃ¡tica": 4853,
      "ĠlÃª": 4854,
      "eless": 4855,
      "ader": 4856,
      "irar": 4857,
      "ices": 4858,
      "iling": 4859,
      "Ġaliment": 4860,
      "ĠHel": 4861,
      "Ġfacu": 4862,
      "Ġju": 4863,
      "Ġjaz": 4864,
      "Ġcars": 4865,
      "Ġperna": 4866,
      "Ġteeth": 4867,
      "Ġprodu": 4868,
      "Ġmorando": 4869,
      "Ġsemanas": 4870,
      "Ġjoin": 4871,
      "Ġplayer": 4872,
      "ĠAsk": 4873,
      "Ġuns": 4874,
      "Ġsurpre": 4875,
      "ĠcomeÃ§ando": 4876,
      "Ġsolve": 4877,
      "Ġsky": 4878,
      "Ġmachucar": 4879,
      "Ġconcerned": 4880,
      "Ġroupa": 4881,
      "Ġsimplesmente": 4882,
      "Ġdepend": 4883,
      "Ġfigure": 4884,
      "Ġabandon": 4885,
      "Ġinforma": 4886,
      "Ġfaculdade": 4887,
      "hamos": 4888,
      "Ġtap": 4889,
      "Ġmer": 4890,
      "Ġmonte": 4891,
      "emp": 4892,
      "Ġvale": 4893,
      "itando": 4894,
      "Ġgra": 4895,
      "avil": 4896,
      "Ġcomb": 4897,
      "Ġalc": 4898,
      "Ġron": 4899,
      "Ġconver": 4900,
      "Ġtruck": 4901,
      "Ġaconsel": 4902,
      "ĠCu": 4903,
      "Ġsopa": 4904,
      "ĠItal": 4905,
      "Ġwhatever": 4906,
      "Ġanywhere": 4907,
      "Ġficaria": 4908,
      "cts": 4909,
      "Ġcolo": 4910,
      "Ġstaying": 4911,
      "Ġconfuso": 4912,
      "ĠDev": 4913,
      "ĠDevo": 4914,
      "Ġcrow": 4915,
      "Ġcalling": 4916,
      "Ġpool": 4917,
      "Ġestrada": 4918,
      "Ġembarr": 4919,
      "Ġanswered": 4920,
      "Ġreceived": 4921,
      "Ġcolocar": 4922,
      "ĠpropÃ³sito": 4923,
      "Ġodeia": 4924,
      "Ġpudesse": 4925,
      "ushed": 4926,
      "ĠmÃ¡quina": 4927,
      "Ġpaciente": 4928,
      "Ġpercebeu": 4929,
      "ĠjaponÃªs": 4930,
      "Ġdesapont": 4931,
      "Ġagradecer": 4932,
      "Ġinformation": 4933,
      "Ġobvious": 4934,
      "Ġembarrass": 4935,
      "Ġought": 4936,
      "ĠTer": 4937,
      "ĠTurn": 4938,
      "erta": 4939,
      "Ġmouth": 4940,
      "Ġhates": 4941,
      "osas": 4942,
      "Ġquad": 4943,
      "Ġtoca": 4944,
      "Ġlit": 4945,
      "Ġlock": 4946,
      "Ġgast": 4947,
      "iday": 4948,
      "Ġseven": 4949,
      "leg": 4950,
      "ĠVÃ³s": 4951,
      "ĠAr": 4952,
      "Ġjant": 4953,
      "Ġtrat": 4954,
      "Ġmach": 4955,
      "Ġdisco": 4956,
      "ĠpreÃ§o": 4957,
      "ĠHey": 4958,
      "izado": 4959,
      "Ġdesped": 4960,
      "Ġarro": 4961,
      "Ġbrown": 4962,
      "Ġhero": 4963,
      "Ġorgan": 4964,
      "Ġmenor": 4965,
      "Ãªncio": 4966,
      "Ġsmiled": 4967,
      "Ġapres": 4968,
      "Ġolho": 4969,
      "Ġharder": 4970,
      "Ġchovendo": 4971,
      "Ġsurprise": 4972,
      "Ġerrada": 4973,
      "Ġwalking": 4974,
      "Ġcansada": 4975,
      "Ġpagou": 4976,
      "Ġrecebeu": 4977,
      "Ġmachucou": 4978,
      "Ġprepared": 4979,
      "ĠencontrÃ¡": 4980,
      "ĠpÃ´s": 4981,
      "Ġbottle": 4982,
      "Ġpriv": 4983,
      "Ġthrew": 4984,
      "Ġblood": 4985,
      "Ġdemitido": 4986,
      "Ġfamoso": 4987,
      "Ġrecusou": 4988,
      "Ġappreciate": 4989,
      "Ġaum": 4990,
      "Ġsave": 4991,
      "Ġpas": 4992,
      "orar": 4993,
      "Ġvim": 4994,
      "Ġlago": 4995,
      "edding": 4996,
      "alous": 4997,
      "Ġbebe": 4998,
      "ĠDiz": 4999,
      "ĠtrÃ¡s": 5000,
      "Ġtraf": 5001,
      "Ġdishes": 5002,
      "endi": 5003,
      "Ġenem": 5004,
      "Ġenvel": 5005,
      "ctive": 5006,
      "ceram": 5007,
      "Ġnossas": 5008,
      "Ġestarei": 5009,
      "Ġconheceu": 5010,
      "ĠSeus": 5011,
      "ĠSeja": 5012,
      "icked": 5013,
      "Ġmaravil": 5014,
      "Ġfamil": 5015,
      "Ġfuri": 5016,
      "Ġamigas": 5017,
      "Ġwonderful": 5018,
      "Ġdiscurso": 5019,
      "Ġthirteen": 5020,
      "Ġcooking": 5021,
      "Ġidiot": 5022,
      "Ġarrum": 5023,
      "Ġbike": 5024,
      "Ġeventually": 5025,
      "ĠsilÃªncio": 5026,
      "Ġdisposto": 5027,
      "Ġextremely": 5028,
      "ĠpÃ¡ssaro": 5029,
      "Ġdetalhes": 5030,
      "Ġscream": 5031,
      "Ġsports": 5032,
      "Ġresfriado": 5033,
      "ĠPrefiro": 5034,
      "Ġjazz": 5035,
      "Ġtraffic": 5036,
      "ramos": 5037,
      "rica": 5038,
      "vas": 5039,
      "Ġ4": 5040,
      "omb": 5041,
      "Ġsci": 5042,
      "quÃª": 5043,
      "Ġwedding": 5044,
      "oro": 5045,
      "Ġhang": 5046,
      "eman": 5047,
      "Ġqueim": 5048,
      "Ġdeter": 5049,
      "Ġdeprim": 5050,
      "Ġcometeu": 5051,
      "imin": 5052,
      "Ġrock": 5053,
      "Ġrequ": 5054,
      "Ġforward": 5055,
      "Ġtrap": 5056,
      "ÃŃdo": 5057,
      "Ġchick": 5058,
      "Ġenerg": 5059,
      "Ġleva": 5060,
      "Ġrealize": 5061,
      "ontos": 5062,
      "Ġcontato": 5063,
      "Ġgoodby": 5064,
      "Ġsoub": 5065,
      "Ġsentiu": 5066,
      "vens": 5067,
      "ildren": 5068,
      "ĠmatemÃ¡tica": 5069,
      "Ġshower": 5070,
      "Ġconcordo": 5071,
      "ĠSomebody": 5072,
      "Ġcuidar": 5073,
      "ĠCanadians": 5074,
      "Ġpainted": 5075,
      "Ġsuppose": 5076,
      "Ġrespondeu": 5077,
      "Ġsaudade": 5078,
      "ĠLeave": 5079,
      "Ġemprestar": 5080,
      "ĠSomething": 5081,
      "Ġdedic": 5082,
      "Ġgradu": 5083,
      "Ġmurder": 5084,
      "dos": 5085,
      "ler": 5086,
      "night": 5087,
      "oper": 5088,
      "Ġtro": 5089,
      "erna": 5090,
      "orme": 5091,
      "Ġburn": 5092,
      "atas": 5093,
      "Ġqueira": 5094,
      "alha": 5095,
      "stit": 5096,
      "Ġreach": 5097,
      "Ã³p": 5098,
      "Ġmap": 5099,
      "Ġmapa": 5100,
      "ĠCD": 5101,
      "okes": 5102,
      "uros": 5103,
      "Ġenver": 5104,
      "Ġfeet": 5105,
      "Ġplant": 5106,
      "Ġcheiro": 5107,
      "Ġadi": 5108,
      "Ġspecial": 5109,
      "Ġfilmes": 5110,
      "ĠNova": 5111,
      "Ġtwice": 5112,
      "ĠpolÃŃt": 5113,
      "Ġmath": 5114,
      "Ġcorreu": 5115,
      "Ġcorrendo": 5116,
      "Ġouvindo": 5117,
      "Ġpartici": 5118,
      "Ġwinter": 5119,
      "Ġbebida": 5120,
      "ĠPerdi": 5121,
      "Ġacordar": 5122,
      "Ġemprestado": 5123,
      "Ġpicked": 5124,
      "Ġfascin": 5125,
      "Ġpermission": 5126,
      "Ġdesapare": 5127,
      "Ġmerece": 5128,
      "Ġpisc": 5129,
      "Ġlevantou": 5130,
      "ĠrelatÃ³rio": 5131,
      "Ġculpado": 5132,
      "Ġvideo": 5133,
      "VocÃª": 5134,
      "ling": 5135,
      "ope": 5136,
      "pir": 5137,
      "Ġba": 5138,
      "Ġbelo": 5139,
      "Ġlon": 5140,
      "Ġline": 5141,
      "Ġrosto": 5142,
      "Ġfailed": 5143,
      "une": 5144,
      "ĠConte": 5145,
      "ution": 5146,
      "Ġfruit": 5147,
      "Ġweird": 5148,
      "Ġcool": 5149,
      "agens": 5150,
      "Ġtens": 5151,
      "ĠEscre": 5152,
      "ĠEssas": 5153,
      "Ġnovas": 5154,
      "iew": 5155,
      "icaÃ§Ã£o": 5156,
      "Ġlongo": 5157,
      "ĠÃºtil": 5158,
      "Ġdevem": 5159,
      "Ġcostas": 5160,
      "Ġpoem": 5161,
      "Ġparticular": 5162,
      "Ġmala": 5163,
      "Ġembaixo": 5164,
      "Ġinsist": 5165,
      "Ġincl": 5166,
      "ĠAmanhÃ£": 5167,
      "Ġpainting": 5168,
      "Ġpreparado": 5169,
      "Ġbeijar": 5170,
      "Ġhoping": 5171,
      "Ġdesses": 5172,
      "ĠAfter": 5173,
      "Ġheavy": 5174,
      "Ġhistory": 5175,
      "dle": 5176,
      "ĠtÃª": 5177,
      "Ġcult": 5178,
      "isse": 5179,
      "isto": 5180,
      "Ġnele": 5181,
      "Ġwood": 5182,
      "Ġtocando": 5183,
      "ĠEi": 5184,
      "Ġvimos": 5185,
      "Ġvinte": 5186,
      "Ġesfor": 5187,
      "Ġestado": 5188,
      "ĠNossa": 5189,
      "ĠliÃ§Ã£o": 5190,
      "ĠPl": 5191,
      "ceed": 5192,
      "ĠBem": 5193,
      "Ġleve": 5194,
      "Ġdesaf": 5195,
      "Ġsozinhos": 5196,
      "Ġunderstood": 5197,
      "Ġperguntei": 5198,
      "Ġdrinks": 5199,
      "Ġsincer": 5200,
      "Ġmontanha": 5201,
      "void": 5202,
      "Ġassistindo": 5203,
      "inham": 5204,
      "Ġexpecting": 5205,
      "Ġdescans": 5206,
      "Ġjealous": 5207,
      "Ġnative": 5208,
      "Ġcontinuou": 5209,
      "ĠExc": 5210,
      "Ġdeserve": 5211,
      "Ġescutar": 5212,
      "Ġbeijou": 5213,
      "ĠLondon": 5214,
      "ĠLondres": 5215,
      "Ġarrep": 5216,
      "Ġprincip": 5217,
      "ĠlicenÃ§a": 5218,
      "adrÃ£o": 5219,
      "ĠpÃºblico": 5220,
      "Ġcrowd": 5221,
      "cri": 5222,
      "poca": 5223,
      "ross": 5224,
      "Ġaonde": 5225,
      "ĠTive": 5226,
      "Ġdate": 5227,
      "Ġsha": 5228,
      "Ġsede": 5229,
      "Ġsangue": 5230,
      "Ġcell": 5231,
      "Ġmente": 5232,
      "Ġpin": 5233,
      "Ġpelas": 5234,
      "ĠnÃ©": 5235,
      "Ġthirst": 5236,
      "Ġloud": 5237,
      "Ġug": 5238,
      "Ġuso": 5239,
      "ĠÃ©poca": 5240,
      "stairs": 5241,
      "ilty": 5242,
      "key": 5243,
      "rib": 5244,
      "Ġcarona": 5245,
      "ĠporquÃª": 5246,
      "ĠFace": 5247,
      "Ġcober": 5248,
      "ĠterrÃŃvel": 5249,
      "astes": 5250,
      "ĠLife": 5251,
      "Ġbrig": 5252,
      "Ġappoint": 5253,
      "ĠEsses": 5254,
      "Ãªnio": 5255,
      "Ġguilty": 5256,
      "Ġfizer": 5257,
      "Ġsolu": 5258,
      "Ġouvido": 5259,
      "ĠprovÃ¡vel": 5260,
      "Ġdirty": 5261,
      "ĠmÃ©dio": 5262,
      "Ġclassroom": 5263,
      "Ġsegundas": 5264,
      "Ġacontecido": 5265,
      "Ġimpressed": 5266,
      "Ġaceitar": 5267,
      "Ġseldom": 5268,
      "ĠcaminhÃ£o": 5269,
      "Ġsuitcase": 5270,
      "ĠEurope": 5271,
      "ĠAcabei": 5272,
      "Ġassassin": 5273,
      "Ġorigin": 5274,
      "Ġenvergon": 5275,
      "Ġlonely": 5276,
      "cy": 5277,
      "gada": 5278,
      "jeto": 5279,
      "tura": 5280,
      "uei": 5281,
      "eng": 5282,
      "atur": 5283,
      "Ġequ": 5284,
      "idÃ£o": 5285,
      "Ġinn": 5286,
      "ĠSor": 5287,
      "Ġfazemos": 5288,
      "Ġdisto": 5289,
      "eias": 5290,
      "eiÃ§Ã£o": 5291,
      "Ġambos": 5292,
      "Ġcaso": 5293,
      "Ġcoin": 5294,
      "Ġesco": 5295,
      "ĠapÃ³s": 5296,
      "Ġented": 5297,
      "Ġsens": 5298,
      "Ġboas": 5299,
      "Ġbutter": 5300,
      "ĠQueremos": 5301,
      "Ġestuda": 5302,
      "Ġdevol": 5303,
      "Ġgarot": 5304,
      "Ġbarato": 5305,
      "Ġchama": 5306,
      "udei": 5307,
      "Ġjogador": 5308,
      "Ġexperiment": 5309,
      "Ġwarm": 5310,
      "ĠresponsÃ¡vel": 5311,
      "denly": 5312,
      "Ġextremamente": 5313,
      "ĠEspere": 5314,
      "Ġrecognize": 5315,
      "ĠnegÃ³cios": 5316,
      "Ġdepressed": 5317,
      "Ġfacilmente": 5318,
      "Ġesquiar": 5319,
      "ĠHelp": 5320,
      "Ġmachine": 5321,
      "Ġmaravilhos": 5322,
      "Ġgoodbye": 5323,
      "Ġpiscina": 5324,
      "NÃ£o": 5325,
      "aqu": 5326,
      "ijo": 5327,
      "mother": 5328,
      "Ġom": 5329,
      "Ġavoid": 5330,
      "Ġdad": 5331,
      "ount": 5332,
      "ĠcÃ£es": 5333,
      "esar": 5334,
      "Ġpock": 5335,
      "Ġwoke": 5336,
      "Ġthough": 5337,
      "ordei": 5338,
      "Ġlocked": 5339,
      "Ġgan": 5340,
      "Ġparede": 5341,
      "Ġofere": 5342,
      "Ġdiam": 5343,
      "ĠBraz": 5344,
      "Ġarea": 5345,
      "usto": 5346,
      "Ġfrac": 5347,
      "ists": 5348,
      "Ġentered": 5349,
      "Ġpenso": 5350,
      "Ġpassap": 5351,
      "Ġpassport": 5352,
      "Ġtoma": 5353,
      "Ġsalt": 5354,
      "Ġremain": 5355,
      "ĠremÃ©dio": 5356,
      "Ġpair": 5357,
      "Ġmoving": 5358,
      "Ġoportun": 5359,
      "Ġsuspeito": 5360,
      "Ġsucceed": 5361,
      "Ġsimple": 5362,
      "ĠpÃ©s": 5363,
      "Ġferido": 5364,
      "Ġproteger": 5365,
      "Ġboring": 5366,
      "Ġhiding": 5367,
      "Ġaprendi": 5368,
      "Ġaccepted": 5369,
      "Ġimpressionado": 5370,
      "Ġmuseum": 5371,
      "Ġescondeu": 5372,
      "Ġdetails": 5373,
      "ĠhorrÃŃvel": 5374,
      "Ġpreocupe": 5375,
      "ĠTraga": 5376,
      "emplo": 5377,
      "Ġfamiliar": 5378,
      "ĠSorry": 5379,
      "ĠBrazil": 5380,
      "ea": 5381,
      "fo": 5382,
      "rite": 5383,
      "Ġ8": 5384,
      "Ġtinham": 5385,
      "ĠTire": 5386,
      "Ġoce": 5387,
      "itam": 5388,
      "Ġdeep": 5389,
      "Ġmex": 5390,
      "ĠAj": 5391,
      "Ġcontei": 5392,
      "Ġparado": 5393,
      "ĠDu": 5394,
      "Ġstuck": 5395,
      "Ġnote": 5396,
      "ĠFarei": 5397,
      "Ġsaia": 5398,
      "ellig": 5399,
      "Ġcooper": 5400,
      "akes": 5401,
      "Ġseeing": 5402,
      "Ġlots": 5403,
      "Ġpolicial": 5404,
      "Ġpromet": 5405,
      "Ġansioso": 5406,
      "Ġintellig": 5407,
      "Ġsimilar": 5408,
      "Ġpersonal": 5409,
      "Ġnamed": 5410,
      "Ġcostumo": 5411,
      "Ġcontact": 5412,
      "Ġatrasar": 5413,
      "Ġkidding": 5414,
      "Ġolhada": 5415,
      "Ġfollowed": 5416,
      "Ġlights": 5417,
      "ĠShow": 5418,
      "ĠLev": 5419,
      "Ġbasquete": 5420,
      "Ġself": 5421,
      "Ġcortou": 5422,
      "Ġnormalmente": 5423,
      "Ġsuggested": 5424,
      "Ġcontrol": 5425,
      "Ġpronta": 5426,
      "Ġpurp": 5427,
      "Ġexerc": 5428,
      "Ġinterrup": 5429,
      "Ġnatural": 5430,
      "ĠEncontrei": 5431,
      "Ġthirsty": 5432,
      "Ġpassaporte": 5433,
      "cemos": 5434,
      "iÃ§": 5435,
      "ius": 5436,
      "ks": 5437,
      "ron": 5438,
      "vard": 5439,
      "Ġtalvez": 5440,
      "ĠTw": 5441,
      "Ġcigar": 5442,
      "Ġfif": 5443,
      "Ġfato": 5444,
      "atch": 5445,
      "Ġok": 5446,
      "ĠvÃ³s": 5447,
      "Ġloc": 5448,
      "ĠÃĢ": 5449,
      "Ġmeant": 5450,
      "lev": 5451,
      "ĠNenhum": 5452,
      "Ġanno": 5453,
      "Ġbebeu": 5454,
      "Ġoferta": 5455,
      "ĠSund": 5456,
      "Ġsud": 5457,
      "Ġating": 5458,
      "deio": 5459,
      "ÃŃst": 5460,
      "Ġdesm": 5461,
      "Ġtendo": 5462,
      "pende": 5463,
      "Ġhapp": 5464,
      "Ġcheia": 5465,
      "ĠGu": 5466,
      "Ġtalks": 5467,
      "Ġunl": 5468,
      "ĠDepois": 5469,
      "Ġsmile": 5470,
      "Ġvisitou": 5471,
      "Ġprofessores": 5472,
      "Ġvenceu": 5473,
      "Ġcontinue": 5474,
      "Ġempresa": 5475,
      "Ġexcited": 5476,
      "Ġwindows": 5477,
      "ĠÃ¡rvores": 5478,
      "ĠprisÃ£o": 5479,
      "Ġvermelha": 5480,
      "Ġcentro": 5481,
      "ĠconfiÃ¡vel": 5482,
      "Ġdomingos": 5483,
      "Ġcomplicated": 5484,
      "Ġvizinhos": 5485,
      "Ġcurious": 5486,
      "ĠSpan": 5487,
      "Ġescrito": 5488,
      "Ġpractice": 5489,
      "Ġequipe": 5490,
      "Ġbasketball": 5491,
      "ĠExcuse": 5492,
      "ĠFacebook": 5493,
      "Ġinnoc": 5494,
      "ĠSundays": 5495,
      "mp": 5496,
      "nas": 5497,
      "Ġiremos": 5498,
      "ĠcÃ£o": 5499,
      "Ġpi": 5500,
      "Ġpower": 5501,
      "Ġfantas": 5502,
      "rea": 5503,
      "Ġoper": 5504,
      "Ġvote": 5505,
      "Ġlake": 5506,
      "Ġesqu": 5507,
      "Ġgate": 5508,
      "adamente": 5509,
      "ĠOdeio": 5510,
      "ĠHar": 5511,
      "Ġfail": 5512,
      "ĠSin": 5513,
      "Ġstorm": 5514,
      "Ġacomp": 5515,
      "Ġprim": 5516,
      "Ġamava": 5517,
      "Ġfalamos": 5518,
      "Ġelect": 5519,
      "Ġserv": 5520,
      "Ġadult": 5521,
      "Ġcomport": 5522,
      "Ġencontro": 5523,
      "Ġpensam": 5524,
      "Ġpresidente": 5525,
      "Ġespere": 5526,
      "ocks": 5527,
      "ĠEstÃ¡vamos": 5528,
      "Ġgreen": 5529,
      "Ġrains": 5530,
      "Ġchorou": 5531,
      "Ġsuffer": 5532,
      "Ġreceber": 5533,
      "Ã¡tico": 5534,
      "Ġdivid": 5535,
      "Ġaberto": 5536,
      "Ġneighbors": 5537,
      "Ġluzes": 5538,
      "Ġcomplaining": 5539,
      "Ġtotalmente": 5540,
      "Ġtempest": 5541,
      "Ġtraduzir": 5542,
      "ĠintenÃ§Ã£o": 5543,
      "Ġhabit": 5544,
      "Ġdancing": 5545,
      "Ġpertence": 5546,
      "Ġdescobriu": 5547,
      "ĠsanduÃŃche": 5548,
      "ĠalcanÃ§": 5549,
      "Ġpurpose": 5550,
      "rot": 5551,
      "Ġtat": 5552,
      "Ġtill": 5553,
      "Ġtome": 5554,
      "Ġspr": 5555,
      "arter": 5556,
      "ĠTome": 5557,
      "Ġmill": 5558,
      "Ġpic": 5559,
      "ats": 5560,
      "ature": 5561,
      "Ġlent": 5562,
      "Ġlaz": 5563,
      "ites": 5564,
      "itei": 5565,
      "Ġganha": 5566,
      "Ġestudo": 5567,
      "idado": 5568,
      "Ġforever": 5569,
      "Ġemerg": 5570,
      "Ġjoking": 5571,
      "haust": 5572,
      "Ġheada": 5573,
      "Ġprice": 5574,
      "ĠBras": 5575,
      "Ġamaz": 5576,
      "Ġexa": 5577,
      "Ġexhaust": 5578,
      "Ġcomecei": 5579,
      "ivamente": 5580,
      "Ġapos": 5581,
      "Ġdizem": 5582,
      "Ġcompanh": 5583,
      "Ġsoube": 5584,
      "Ġtomando": 5585,
      "Ġrob": 5586,
      "Ġideas": 5587,
      "ĠDeus": 5588,
      "Ġfeels": 5589,
      "Ġbelieved": 5590,
      "Ġpois": 5591,
      "ĠAlguns": 5592,
      "Ġescrevendo": 5593,
      "Ġshoot": 5594,
      "anhol": 5595,
      "Ġexcel": 5596,
      "imentos": 5597,
      "Ġguitarra": 5598,
      "Ġcontrato": 5599,
      "Ġdressed": 5600,
      "Ġapologize": 5601,
      "Ġhuge": 5602,
      "Ġmeninos": 5603,
      "Ġabsolutely": 5604,
      "Ġbelongs": 5605,
      "Ġlosing": 5606,
      "ĠEsqueci": 5607,
      "cut": 5608,
      "cida": 5609,
      "hy": 5610,
      "ray": 5611,
      "Ġahead": 5612,
      "omed": 5613,
      "Ġquantas": 5614,
      "Ġvar": 5615,
      "Ġlei": 5616,
      "Ġdelas": 5617,
      "Ġinde": 5618,
      "vern": 5619,
      "cha": 5620,
      "Ġri": 5621,
      "haps": 5622,
      "Ġcarry": 5623,
      "Ġpregu": 5624,
      "Ġshel": 5625,
      "Ġentendeu": 5626,
      "Ġaff": 5627,
      "Ġescolheu": 5628,
      "tende": 5629,
      "Ġteachers": 5630,
      "Ġesport": 5631,
      "Ġpretended": 5632,
      "ĠchegarÃ¡": 5633,
      "Ġbigger": 5634,
      "Ġretorn": 5635,
      "Ġthird": 5636,
      "Ġquebrado": 5637,
      "Ġfechar": 5638,
      "Ġconcerto": 5639,
      "Ġgrandes": 5640,
      "Ġgrandmother": 5641,
      "Ġevitar": 5642,
      "Ġdistra": 5643,
      "ĠavÃ³": 5644,
      "Ġflower": 5645,
      "Ġresponsible": 5646,
      "ĠSabes": 5647,
      "Ġaluno": 5648,
      "Ġsweater": 5649,
      "Ġmidnight": 5650,
      "Ġurg": 5651,
      "ĠpÃ¡g": 5652,
      "Ġobjetivo": 5653,
      "ĠDevemos": 5654,
      "Ġquadro": 5655,
      "Ġsoubesse": 5656,
      "ĠÃĢs": 5657,
      "Ġtempestade": 5658,
      "ji": 5659,
      "sy": 5660,
      "Ġtig": 5661,
      "Ġtanta": 5662,
      "Ġdam": 5663,
      "Ġcum": 5664,
      "Ġtop": 5665,
      "Ġbis": 5666,
      "itive": 5667,
      "elado": 5668,
      "ĠObrigada": 5669,
      "igos": 5670,
      "Ġrice": 5671,
      "Ġriram": 5672,
      "ables": 5673,
      "ĠPass": 5674,
      "Ġfort": 5675,
      "Ġjack": 5676,
      "Ã³i": 5677,
      "Ġacross": 5678,
      "Ġproject": 5679,
      "Ġexame": 5680,
      "Ġfeed": 5681,
      "Ġficado": 5682,
      "Ġappear": 5683,
      "Ġchega": 5684,
      "Ġclima": 5685,
      "Ġjusto": 5686,
      "Ġcaused": 5687,
      "Ġfriendly": 5688,
      "Ġmoon": 5689,
      "Ġpedido": 5690,
      "Ġsegundo": 5691,
      "Ġconfort": 5692,
      "Ġrecently": 5693,
      "Ġsmarter": 5694,
      "Ġviram": 5695,
      "Ġpartida": 5696,
      "Ġhandle": 5697,
      "ĠChildren": 5698,
      "Ġintro": 5699,
      "Ġacabei": 5700,
      "Ġtrabalhou": 5701,
      "Ġmorreram": 5702,
      "Ġconvencido": 5703,
      "ĠbotÃ£o": 5704,
      "Ġresultado": 5705,
      "Ġdrove": 5706,
      "ĠÃ³tima": 5707,
      "Ġwashed": 5708,
      "Ġhopes": 5709,
      "Ġdraw": 5710,
      "Ġmiddle": 5711,
      "Ġobserv": 5712,
      "Ġcousin": 5713,
      "Ġarroz": 5714,
      "ĠSpanish": 5715,
      "Ġcompanhia": 5716,
      "ping": 5717,
      "Ġcient": 5718,
      "Ġmir": 5719,
      "Ġmante": 5720,
      "Ġham": 5721,
      "atura": 5722,
      "Ġgordo": 5723,
      "och": 5724,
      "els": 5725,
      "aded": 5726,
      "Ġgovern": 5727,
      "Ġacus": 5728,
      "unting": 5729,
      "Ġqueres": 5730,
      "ĠCall": 5731,
      "Ġverde": 5732,
      "ĠportÃ£o": 5733,
      "lace": 5734,
      "Ġpernas": 5735,
      "Ġchall": 5736,
      "Ġpodes": 5737,
      "Ġmorrendo": 5738,
      "Ġplenty": 5739,
      "Ġterce": 5740,
      "ĠLamento": 5741,
      "Ġpeace": 5742,
      "ĠGod": 5743,
      "Ġpessoal": 5744,
      "Ġcomprom": 5745,
      "Ġord": 5746,
      "Ġorange": 5747,
      "Ġbutton": 5748,
      "Ġrecentemente": 5749,
      "ĠÃ¡l": 5750,
      "Ġpresentes": 5751,
      "Ġsorriu": 5752,
      "Ġcute": 5753,
      "Ġdecidir": 5754,
      "Ġchegaram": 5755,
      "Ġmalas": 5756,
      "Ġident": 5757,
      "Ġclasses": 5758,
      "Ġdirigindo": 5759,
      "Ġrefrig": 5760,
      "Ġjanelas": 5761,
      "Ġcustom": 5762,
      "Ġfechou": 5763,
      "Ġsongs": 5764,
      "Ġconcordou": 5765,
      "ĠdistÃ¢ncia": 5766,
      "Ġexplan": 5767,
      "ificar": 5768,
      "Ġquieto": 5769,
      "Ġrisco": 5770,
      "Ġdestru": 5771,
      "Ġcontract": 5772,
      "Ġfootball": 5773,
      "Ġpassei": 5774,
      "Ġconhecemos": 5775,
      "ĠEuropa": 5776,
      "Ġexercis": 5777,
      "Ġabsolutamente": 5778,
      "Ġfresh": 5779,
      "ĠAssim": 5780,
      "Ġtype": 5781,
      "Ġlaranja": 5782,
      "Ã¡stico": 5783,
      "Ġugly": 5784,
      "Ġappointment": 5785,
      "Ġgarotas": 5786,
      "Ġmillion": 5787,
      "Ġheadache": 5788,
      "ĠBrasil": 5789,
      "Ġrefriger": 5790,
      "fa": 5791,
      "hip": 5792,
      "og": 5793,
      "vou": 5794,
      "ys": 5795,
      "Ġtend": 5796,
      "ĠmÃ¡s": 5797,
      "Ġwelcome": 5798,
      "Ġhide": 5799,
      "Ġtow": 5800,
      "Ġvos": 5801,
      "Ġlhes": 5802,
      "ĠÃģ": 5803,
      "Ġcomfortable": 5804,
      "ĠWell": 5805,
      "Ġparked": 5806,
      "ĠNever": 5807,
      "ila": 5808,
      "Ġrum": 5809,
      "Ġwasting": 5810,
      "ĠProv": 5811,
      "Ġstairs": 5812,
      "ters": 5813,
      "ĠCl": 5814,
      "ĠCho": 5815,
      "ĠcanÃ§Ã£o": 5816,
      "Ġatrop": 5817,
      "Ġdipl": 5818,
      "ĠEstÃ¡s": 5819,
      "Ġcarp": 5820,
      "Ġenvol": 5821,
      "ightened": 5822,
      "ĠGr": 5823,
      "Ġesperto": 5824,
      "Ġherself": 5825,
      "anhas": 5826,
      "Ġcaminhar": 5827,
      "ĠTenha": 5828,
      "ĠcomeÃ§aram": 5829,
      "noite": 5830,
      "pted": 5831,
      "ints": 5832,
      "Ġbarely": 5833,
      "Ġcour": 5834,
      "ĠJoÃ£o": 5835,
      "Ġacabar": 5836,
      "Ġtax": 5837,
      "ĠAconte": 5838,
      "Ġviaj": 5839,
      "Ġmotiv": 5840,
      "Ġtrusted": 5841,
      "Ġlegs": 5842,
      "ĠPegue": 5843,
      "Ġattra": 5844,
      "Ġsignific": 5845,
      "Ġroubado": 5846,
      "Ġchanges": 5847,
      "Ġencontraram": 5848,
      "Ġspends": 5849,
      "Ġtraveling": 5850,
      "ĠSabemos": 5851,
      "Ġpintou": 5852,
      "Ġcreative": 5853,
      "Ġdaquele": 5854,
      "Ġbathroom": 5855,
      "ĠVejo": 5856,
      "Ġapareceu": 5857,
      "Ġdefinitely": 5858,
      "ĠConheÃ§o": 5859,
      "Ġadvised": 5860,
      "Ġdificuldade": 5861,
      "ĠpaciÃªncia": 5862,
      "Ġtamanho": 5863,
      "Ġenvelope": 5864,
      "Ġchicken": 5865,
      "Ġintelligent": 5866,
      "Ġdiplom": 5867,
      "bum": 5868,
      "tur": 5869,
      "vindo": 5870,
      "vidas": 5871,
      "xico": 5872,
      "Ġade": 5873,
      "ĠTanto": 5874,
      "Ġsaved": 5875,
      "Ġcla": 5876,
      "ined": 5877,
      "osqu": 5878,
      "ash": 5879,
      "Ġbil": 5880,
      "Ġlat": 5881,
      "Ãªnd": 5882,
      "Ġgal": 5883,
      "Ġglo": 5884,
      "Ġisland": 5885,
      "Ġestas": 5886,
      "Ġcoma": 5887,
      "imp": 5888,
      "Ġinoc": 5889,
      "ĠOpen": 5890,
      "Ġriu": 5891,
      "ĠPasse": 5892,
      "Ġweak": 5893,
      "Ġleaves": 5894,
      "ndia": 5895,
      "ateful": 5896,
      "Ġgram": 5897,
      "Ġveja": 5898,
      "ĠesperanÃ§a": 5899,
      "Ġimpro": 5900,
      "Ġimporto": 5901,
      "viver": 5902,
      "Ġunc": 5903,
      "Ġcruz": 5904,
      "ĠÃ¡rea": 5905,
      "Ġbelieves": 5906,
      "Ġbreath": 5907,
      "ĠRes": 5908,
      "Ġshop": 5909,
      "Ġsinger": 5910,
      "Ġmult": 5911,
      "Ġconcent": 5912,
      "Ġappro": 5913,
      "Ġhurts": 5914,
      "Ġsubstit": 5915,
      "Ġpaint": 5916,
      "Ġquebrada": 5917,
      "Ġartigo": 5918,
      "Ġproposta": 5919,
      "Ġescaped": 5920,
      "Ġdestro": 5921,
      "Ġmemor": 5922,
      "Ġreclama": 5923,
      "Ġimaginar": 5924,
      "ĠAposto": 5925,
      "Ġpermitir": 5926,
      "Ġmuseu": 5927,
      "Ġescondendo": 5928,
      "ĠGerm": 5929,
      "Ġsteal": 5930,
      "Ġirritado": 5931,
      "Ġskiing": 5932,
      "Ġconversa": 5933,
      "Ġembarrassed": 5934,
      "ĠHarvard": 5935,
      "ĠSince": 5936,
      "Ġlazy": 5937,
      "Ġexplanation": 5938,
      "bel": 5939,
      "hi": 5940,
      "line": 5941,
      "rado": 5942,
      "uo": 5943,
      "ute": 5944,
      "Ġtente": 5945,
      "ĠTivemos": 5946,
      "Ġsar": 5947,
      "Ġsite": 5948,
      "inar": 5949,
      "Ġfilled": 5950,
      "Ġhired": 5951,
      "ĠladrÃ£o": 5952,
      "irou": 5953,
      "Ġaltura": 5954,
      "guel": 5955,
      "Ġnove": 5956,
      "Ġtra": 5957,
      "ĠYesterday": 5958,
      "Ġprazer": 5959,
      "ĠEstÃ£o": 5960,
      "Ġnotou": 5961,
      "ĠFu": 5962,
      "ĠFin": 5963,
      "usa": 5964,
      "Ġpretende": 5965,
      "Ġabra": 5966,
      "Ġsabes": 5967,
      "Ġenfer": 5968,
      "Ġsaindo": 5969,
      "Ġprojeto": 5970,
      "ellent": 5971,
      "Ġfear": 5972,
      "Ġheld": 5973,
      "Ġarqu": 5974,
      "Ġpeguei": 5975,
      "Ġapag": 5976,
      "allow": 5977,
      "redit": 5978,
      "Ġgrateful": 5979,
      "brei": 5980,
      "Ġgotten": 5981,
      "ousand": 5982,
      "ĠSee": 5983,
      "Ġespanhol": 5984,
      "Ġgaragem": 5985,
      "Ġwears": 5986,
      "Ġdoce": 5987,
      "Ġdiria": 5988,
      "ĠincrÃŃvel": 5989,
      "Ġengine": 5990,
      "Ġpaying": 5991,
      "Ġacordou": 5992,
      "Ġended": 5993,
      "Ġbolso": 5994,
      "Ġbiolog": 5995,
      "Ġfechada": 5996,
      "Ġconcorda": 5997,
      "Ġimagine": 5998,
      "Ġthrow": 5999,
      "ĠRece": 6000,
      "ĠexplicaÃ§Ã£o": 6001,
      "Ġescape": 6002,
      "Ġescapar": 6003,
      "Ġaprendendo": 6004,
      "Ġsuporto": 6005,
      "Ġpiadas": 6006,
      "Ã©rica": 6007,
      "Ġlicense": 6008,
      "Ġclimb": 6009,
      "Ġrecomm": 6010,
      "Ġmagaz": 6011,
      "Ġquantos": 6012,
      "Ġjumped": 6013,
      "Ġgeladeira": 6014,
      "ĠMuito": 6015,
      "Ġesquerda": 6016,
      "Ġinimigo": 6017,
      "Ġenemy": 6018,
      "Ġbagun": 6019,
      "Ġcoincid": 6020,
      "Ġentediado": 6021,
      "Ġpocket": 6022,
      "Ġoportunidade": 6023,
      "Ġinnocent": 6024,
      "Ġacompanh": 6025,
      "ĠpreguiÃ§": 6026,
      "Ġinocente": 6027,
      "lu": 6028,
      "oz": 6029,
      "time": 6030,
      "ĠTentei": 6031,
      "eral": 6032,
      "inas": 6033,
      "Ġnap": 6034,
      "Ġfeio": 6035,
      "osen": 6036,
      "Ġquais": 6037,
      "Ġbone": 6038,
      "Ġland": 6039,
      "Ġqueix": 6040,
      "Ãªme": 6041,
      "Ġgames": 6042,
      "amp": 6043,
      "Ġearn": 6044,
      "irm": 6045,
      "Ġumas": 6046,
      "ĠAny": 6047,
      "ĠalÃ©m": 6048,
      "Ġren": 6049,
      "ĠHou": 6050,
      "ĠSw": 6051,
      "ĠSeria": 6052,
      "ĠSatur": 6053,
      "Ġemail": 6054,
      "Ġjokes": 6055,
      "ĠsuÃ©": 6056,
      "Ġpratic": 6057,
      "ĠcartÃ£o": 6058,
      "Ġdiscre": 6059,
      "Ġperf": 6060,
      "Ġproper": 6061,
      "ĠLem": 6062,
      "Ġjovens": 6063,
      "Ġbrilh": 6064,
      "Ġpego": 6065,
      "Ġcheap": 6066,
      "Ġsobreviver": 6067,
      "Ġvolte": 6068,
      "Ġcause": 6069,
      "ational": 6070,
      "ianÃ§a": 6071,
      "Ġroof": 6072,
      "ĠDeve": 6073,
      "Ġdormi": 6074,
      "Ġpromessa": 6075,
      "Ġmalu": 6076,
      "Ġideias": 6077,
      "ĠincÃªnd": 6078,
      "Ġbrinqu": 6079,
      "Ġtaunting": 6080,
      "Ġnasci": 6081,
      "Ġkeeps": 6082,
      "Ġdivertir": 6083,
      "ĠacontecerÃ¡": 6084,
      "Ġdireita": 6085,
      "Ġlistened": 6086,
      "Ġexcellent": 6087,
      "Ġjeans": 6088,
      "Ġdesculpar": 6089,
      "Ġexplained": 6090,
      "Ġbeginning": 6091,
      "Ġprefere": 6092,
      "Ġambul": 6093,
      "Ġcharge": 6094,
      "Ġprogram": 6095,
      "Ġcomplicado": 6096,
      "Ġprestes": 6097,
      "Ġvazia": 6098,
      "Ġesconder": 6099,
      "elizmente": 6100,
      "Ġaluguel": 6101,
      "ĠDeverÃŃamos": 6102,
      "Ġopportun": 6103,
      "Ġpintar": 6104,
      "Ġexhausted": 6105,
      "Ġexcelente": 6106,
      "Ġafford": 6107,
      "ĠsuÃ©ter": 6108,
      "Eu": 6109,
      "iamente": 6110,
      "tado": 6111,
      "vent": 6112,
      "xim": 6113,
      "ximo": 6114,
      "zen": 6115,
      "Ġaud": 6116,
      "Ġcen": 6117,
      "Ġcow": 6118,
      "Ġmic": 6119,
      "Ġpont": 6120,
      "ism": 6121,
      "Ġnar": 6122,
      "Ġnor": 6123,
      "Ġfoc": 6124,
      "Ġha": 6125,
      "Ġhes": 6126,
      "Ġharm": 6127,
      "osos": 6128,
      "Ġquil": 6129,
      "asure": 6130,
      "Ġyes": 6131,
      "Ġgelo": 6132,
      "Ġutil": 6133,
      "avera": 6134,
      "entando": 6135,
      "igr": 6136,
      "Ġalem": 6137,
      "Ġra": 6138,
      "Ġrab": 6139,
      "ĠPedi": 6140,
      "Ġprat": 6141,
      "Ġsabiam": 6142,
      "Ġmorou": 6143,
      "Ġirre": 6144,
      "ifÃŃcio": 6145,
      "Ġmanager": 6146,
      "ĠList": 6147,
      "Ġcontrib": 6148,
      "Ġclock": 6149,
      "Ġcloud": 6150,
      "Ġnovos": 6151,
      "bros": 6152,
      "ugg": 6153,
      "Ġmelhorar": 6154,
      "liable": 6155,
      "Ġmood": 6156,
      "Ãªncias": 6157,
      "Ġconfess": 6158,
      "Ġmatch": 6159,
      "Ġexpul": 6160,
      "Ġgarage": 6161,
      "Ġstarting": 6162,
      "Ġunderstands": 6163,
      "Ġwondered": 6164,
      "Ġvelhos": 6165,
      "Ġuseful": 6166,
      "Ġbrinc": 6167,
      "Ġrepente": 6168,
      "ĠPerhaps": 6169,
      "Ġmachuc": 6170,
      "Ġpropos": 6171,
      "Ġbetray": 6172,
      "Ġencontramos": 6173,
      "Ġresults": 6174,
      "Ġconvidou": 6175,
      "Ġvegetables": 6176,
      "Ġcortar": 6177,
      "Ġgiving": 6178,
      "Ġdesej": 6179,
      "Ġromance": 6180,
      "Ġabsent": 6181,
      "Ġclube": 6182,
      "Ġwarned": 6183,
      "Ġsugeriu": 6184,
      "Ġdescansar": 6185,
      "Ġnotebook": 6186,
      "Ġsuddenly": 6187,
      "Ġprimavera": 6188,
      "Ġjacket": 6189,
      "Ġintrodu": 6190,
      "ĠincÃªndio": 6191,
      "ĠListen": 6192,
      "bb": 6193,
      "cent": 6194,
      "ead": 6195,
      "fre": 6196,
      "pare": 6197,
      "word": 6198,
      "Ġ9": 6199,
      "Ġcem": 6200,
      "Ġcade": 6201,
      "eses": 6202,
      "Ġmember": 6203,
      "Ġpity": 6204,
      "Ġnuts": 6205,
      "Ġbak": 6206,
      "Ġodi": 6207,
      "emanha": 6208,
      "ĠgÃªme": 6209,
      "ĠÃŃ": 6210,
      "Ġsepar": 6211,
      "imista": 6212,
      "Ġbeef": 6213,
      "Ġliar": 6214,
      "Ã§amos": 6215,
      "ĠPens": 6216,
      "Ġjaqu": 6217,
      "Ġfazia": 6218,
      "ĠTheir": 6219,
      "unci": 6220,
      "Ġprontos": 6221,
      "Ġdisag": 6222,
      "ional": 6223,
      "ĠThings": 6224,
      "Ġfrustr": 6225,
      "Ġchosen": 6226,
      "Ġamea": 6227,
      "Ġenv": 6228,
      "Ġfalava": 6229,
      "Ġworst": 6230,
      "Ġescal": 6231,
      "Ġrespe": 6232,
      "Ġajudaria": 6233,
      "Ġcheese": 6234,
      "Ġconserv": 6235,
      "Ġconfia": 6236,
      "ĠAlemanha": 6237,
      "Ġcru": 6238,
      "Ġimportaria": 6239,
      "Ġbarba": 6240,
      "Ġcouch": 6241,
      "Ġvoltarei": 6242,
      "Ġchamado": 6243,
      "Ġcalend": 6244,
      "Ġtelefon": 6245,
      "Ġdescri": 6246,
      "Ġattend": 6247,
      "board": 6248,
      "Ġfuma": 6249,
      "Ġagrad": 6250,
      "ĠExiste": 6251,
      "Ġexplos": 6252,
      "Ġreasons": 6253,
      "ĠmÃ¡ximo": 6254,
      "Ġgenius": 6255,
      "Ġconvidado": 6256,
      "Ġgerente": 6257,
      "Ġaccomp": 6258,
      "Ġdaquela": 6259,
      "Ġcards": 6260,
      "ĠGerman": 6261,
      "Ġenviou": 6262,
      "Ġhabil": 6263,
      "Ġdesligou": 6264,
      "Ġinvestig": 6265,
      "Ġclub": 6266,
      "Ġraise": 6267,
      "Ġvivem": 6268,
      "Ġtomei": 6269,
      "ĠGermany": 6270,
      "ĠHouve": 6271,
      "''": 6272,
      "bas": 6273,
      "iou": 6274,
      "lor": 6275,
      "uir": 6276,
      "vio": 6277,
      "âĢ": 6278,
      "Ġdying": 6279,
      "Ġcra": 6280,
      "Ġpend": 6281,
      "ismo": 6282,
      "onha": 6283,
      "Ġtoc": 6284,
      "Ġbody": 6285,
      "Ġbater": 6286,
      "eday": 6287,
      "Ġult": 6288,
      "Ġeff": 6289,
      "ĠWrite": 6290,
      "Ġrepe": 6291,
      "Ġasham": 6292,
      "Ġacal": 6293,
      "unt": 6294,
      "Ġatra": 6295,
      "Ġpray": 6296,
      "ĠFico": 6297,
      "ĠpreÃ§os": 6298,
      "Ġyourselves": 6299,
      "ury": 6300,
      "uras": 6301,
      "Ġwebs": 6302,
      "Ġexce": 6303,
      "Ġcasada": 6304,
      "Ġfico": 6305,
      "Ġarte": 6306,
      "Ġreser": 6307,
      "Ġpeg": 6308,
      "Ġajudando": 6309,
      "ĠEscu": 6310,
      "Ġassum": 6311,
      "Ġsomeday": 6312,
      "Ġeverywhere": 6313,
      "Ġinteresse": 6314,
      "Ġbuscar": 6315,
      "Ġestudou": 6316,
      "Ġconfio": 6317,
      "Ġcomeram": 6318,
      "Ġsale": 6319,
      "Ġfarm": 6320,
      "Ġ100": 6321,
      "Ã¢nt": 6322,
      "Ġescrevi": 6323,
      "Ġmention": 6324,
      "Ġmissing": 6325,
      "Ġinvit": 6326,
      "Ġtrabalham": 6327,
      "Ġrepet": 6328,
      "ĠAmÃ©rica": 6329,
      "ĠdireÃ§Ã£o": 6330,
      "ĠpoderÃŃamos": 6331,
      "Ġexceto": 6332,
      "ĠIntern": 6333,
      "Ġperdendo": 6334,
      "Ġempol": 6335,
      "Ġdesculp": 6336,
      "Ġdreams": 6337,
      "Ġbott": 6338,
      "Ġresultados": 6339,
      "Ġchato": 6340,
      "Ġautor": 6341,
      "Ġstronger": 6342,
      "phone": 6343,
      "Ġpunished": 6344,
      "Ġcanceled": 6345,
      "Ġcometer": 6346,
      "Ġchegando": 6347,
      "Ġreclamar": 6348,
      "ĠVeja": 6349,
      "Ġcolegas": 6350,
      "ĠPerguntei": 6351,
      "Ġcurioso": 6352,
      "Ġilha": 6353,
      "ĠiP": 6354,
      "Ġcuidadoso": 6355,
      "Ġvolunte": 6356,
      "ĠInglÃªs": 6357,
      "Ġclarin": 6358,
      "Ġdetesto": 6359,
      "ĠpolÃŃtica": 6360,
      "ĠconfortÃ¡vel": 6361,
      "ĠProvavelmente": 6362,
      "Ġjaqueta": 6363,
      "Ġashamed": 6364,
      "fet": 6365,
      "host": 6366,
      "ppy": 6367,
      "Ġ7": 6368,
      "Ġtaste": 6369,
      "Ġdating": 6370,
      "ĠcÃ¡": 6371,
      "Ġciente": 6372,
      "ĠIrei": 6373,
      "Ġfla": 6374,
      "Ġfur": 6375,
      "Ġthief": 6376,
      "Ġthousand": 6377,
      "Ġhy": 6378,
      "ĠvÃŃ": 6379,
      "Ġligo": 6380,
      "Ġsea": 6381,
      "ĠWith": 6382,
      "imistic": 6383,
      "ĠAnt": 6384,
      "stem": 6385,
      "Ġkicked": 6386,
      "Ġrica": 6387,
      "Ġrang": 6388,
      "Ġremo": 6389,
      "abil": 6390,
      "Ã§ando": 6391,
      "ĠSup": 6392,
      "ÃŃf": 6393,
      "Ġtears": 6394,
      "Ġprod": 6395,
      "umb": 6396,
      "Ġcop": 6397,
      "Ġelef": 6398,
      "Ġficamos": 6399,
      "mail": 6400,
      "Ġcompla": 6401,
      "Ġdeixado": 6402,
      "ĠSegu": 6403,
      "Ġunha": 6404,
      "Ġrecu": 6405,
      "Ġtwenty": 6406,
      "Ġpolitic": 6407,
      "ĠRom": 6408,
      "Ġsolar": 6409,
      "Ġbarco": 6410,
      "Ġduvido": 6411,
      "Ġpretendo": 6412,
      "Ġescreve": 6413,
      "Ġmentira": 6414,
      "Ġ200": 6415,
      "Ġinvite": 6416,
      "Ġbebendo": 6417,
      "Ġconversando": 6418,
      "ÃŃss": 6419,
      "Ġcookies": 6420,
      "Ġsusp": 6421,
      "Ġpreocupada": 6422,
      "Ġconcordar": 6423,
      "ĠlouÃ§a": 6424,
      "Ġdrogas": 6425,
      "Ġdelicioso": 6426,
      "Ġgasol": 6427,
      "Ġidioma": 6428,
      "Ġmandou": 6429,
      "Ġmeninas": 6430,
      "Ġraised": 6431,
      "Ġimpedir": 6432,
      "Ġpulled": 6433,
      "Ġjuice": 6434,
      "Ġenvergonhado": 6435,
      "bio": 6436,
      "pend": 6437,
      "uto": 6438,
      "vid": 6439,
      "ysic": 6440,
      "Ġtough": 6441,
      "Ġsist": 6442,
      "Ġcorn": 6443,
      "Ġnine": 6444,
      "ono": 6445,
      "ĠfÃŃs": 6446,
      "Ġhire": 6447,
      "Ġtoler": 6448,
      "Ġbri": 6449,
      "Ġot": 6450,
      "ĠgÃªnio": 6451,
      "Ġghost": 6452,
      "ĠdoenÃ§a": 6453,
      "ĠMant": 6454,
      "Ġsex": 6455,
      "antic": 6456,
      "etos": 6457,
      "Ġcondi": 6458,
      "Ġgoal": 6459,
      "Ġjud": 6460,
      "Ġelet": 6461,
      "ÃŃda": 6462,
      "ÃŃveis": 6463,
      "ĠabraÃ§": 6464,
      "ĠItÃ¡lia": 6465,
      "Ġfrightened": 6466,
      "Ġtext": 6467,
      "Ġgoste": 6468,
      "Ġenorme": 6469,
      "Ġsax": 6470,
      "ello": 6471,
      "Ġterm": 6472,
      "Ġrealized": 6473,
      "Ġhelps": 6474,
      "Ġouro": 6475,
      "Ġhobby": 6476,
      "Ġgritar": 6477,
      "Ġassume": 6478,
      "Ġnose": 6479,
      "Ġpense": 6480,
      "Ġsentence": 6481,
      "Ġdeixaria": 6482,
      "cidos": 6483,
      "Ġpedindo": 6484,
      "ĠDecid": 6485,
      "ĠAlgo": 6486,
      "Ġsolteiro": 6487,
      "Ġlaund": 6488,
      "Ġhanded": 6489,
      "Ġsooner": 6490,
      "Ġphysic": 6491,
      "Ġwinning": 6492,
      "Ġcalmo": 6493,
      "Ġnames": 6494,
      "Ġbebo": 6495,
      "Ġpermane": 6496,
      "Ġrecebi": 6497,
      "Ġdirige": 6498,
      "Ġvestir": 6499,
      "Ġletters": 6500,
      "Ġsupport": 6501,
      "Ã¢ncer": 6502,
      "Ġarticle": 6503,
      "Ġcantando": 6504,
      "Ġlavou": 6505,
      "Ġdropped": 6506,
      "Ġorgulho": 6507,
      "ĠedifÃŃcio": 6508,
      "Ġcrescer": 6509,
      "ĠTrabal": 6510,
      "Ġdeseja": 6511,
      "Ġrapaz": 6512,
      "Ġseriously": 6513,
      "Ġfighting": 6514,
      "Ġsweet": 6515,
      "Ġthreat": 6516,
      "ĠEntÃ£o": 6517,
      "Ġdocument": 6518,
      "ĠPergunte": 6519,
      "Ġuniversidade": 6520,
      "ĠnegÃ³cio": 6521,
      "Ġatravessar": 6522,
      "Ġpleased": 6523,
      "Ġfugiu": 6524,
      "Ġtiveram": 6525,
      "Ġsystem": 6526,
      "Ġstraight": 6527,
      "ĠContinue": 6528,
      "ĠItaly": 6529,
      "Ġdeprimido": 6530,
      "Ġparticip": 6531,
      "ĠFuji": 6532,
      "Ġnariz": 6533,
      "Ġwebsite": 6534,
      "Ġunhappy": 6535,
      "Ġlaundry": 6536,
      "Yes": 6537,
      "bar": 6538,
      "dia": 6539,
      "graf": 6540,
      "ove": 6541,
      "Ġtorta": 6542,
      "ĠTambÃ©m": 6543,
      "Ġdando": 6544,
      "Ġcere": 6545,
      "ĠcÃ¢ncer": 6546,
      "ences": 6547,
      "ency": 6548,
      "oria": 6549,
      "Ġhip": 6550,
      "Ġleio": 6551,
      "itamente": 6552,
      "Ġess": 6553,
      "Ġdefe": 6554,
      "adÃª": 6555,
      "icana": 6556,
      "Ġliber": 6557,
      "Ġlixo": 6558,
      "Ġsuns": 6559,
      "tery": 6560,
      "oker": 6561,
      "Ġabri": 6562,
      "ulo": 6563,
      "Ġfrut": 6564,
      "Ġamiz": 6565,
      "Ġaque": 6566,
      "Ġprove": 6567,
      "Ġcash": 6568,
      "ives": 6569,
      "Ġajudasse": 6570,
      "Ġboat": 6571,
      "Ġspeaker": 6572,
      "Ġconsci": 6573,
      "ounded": 6574,
      "ĠconfianÃ§a": 6575,
      "Ġmadeira": 6576,
      "Ġsoldi": 6577,
      "Ġsonhos": 6578,
      "Ġterminado": 6579,
      "Ġhung": 6580,
      "Ġconcl": 6581,
      "Ġensina": 6582,
      "Ġassistiu": 6583,
      "Ġinfeliz": 6584,
      "Ġredor": 6585,
      "Ġnecessidade": 6586,
      "Ġnativo": 6587,
      "ĠRead": 6588,
      "Ġfixed": 6589,
      "Ġwriter": 6590,
      "Ġgives": 6591,
      "Ġtelhado": 6592,
      "ĠMostre": 6593,
      "Ġcandid": 6594,
      "ĠestÃºp": 6595,
      "Ġvazio": 6596,
      "Ã´met": 6597,
      "Ġeduc": 6598,
      "Ġdivorced": 6599,
      "Ġsurvive": 6600,
      "Ġdesapontado": 6601,
      "Ġprincipal": 6602,
      "Ġamazing": 6603,
      "Ġshelf": 6604,
      "Ġesportes": 6605,
      "Ġbisco": 6606,
      "Ġopportunity": 6607,
      "Ġproposal": 6608,
      "Ġsistema": 6609,
      "No": 6610,
      "bit": 6611,
      "cimento": 6612,
      "eiro": 6613,
      "gos": 6614,
      "jamos": 6615,
      "uis": 6616,
      "uct": 6617,
      "ualmente": 6618,
      "zentos": 6619,
      "Ġaunt": 6620,
      "Ġcader": 6621,
      "Ġfant": 6622,
      "Ġfurn": 6623,
      "oring": 6624,
      "Ġhold": 6625,
      "Ġbaix": 6626,
      "Ġview": 6627,
      "Ã¡gua": 6628,
      "Ġcomun": 6629,
      "ĠMais": 6630,
      "Ġsear": 6631,
      "ĠVis": 6632,
      "ĠAb": 6633,
      "ĠDis": 6634,
      "ĠDese": 6635,
      "Ã§ado": 6636,
      "ĠPa": 6637,
      "Ã³r": 6638,
      "ĠtrÃ¢": 6639,
      "Ġneither": 6640,
      "Ġmail": 6641,
      "under": 6642,
      "Ġvergon": 6643,
      "Ġportas": 6644,
      "essem": 6645,
      "Ġexemplo": 6646,
      "Ġmortos": 6647,
      "Ġcasas": 6648,
      "Ġcasados": 6649,
      "Ġfebre": 6650,
      "Ġescada": 6651,
      "ĠcomeÃ§o": 6652,
      "Ġallerg": 6653,
      "aking": 6654,
      "Ġreserv": 6655,
      "Ġbrush": 6656,
      "ĠherÃ³i": 6657,
      "ĠCanada": 6658,
      "Ġpassword": 6659,
      "Ġsenha": 6660,
      "Ġmencion": 6661,
      "Ġconsul": 6662,
      "Ġunf": 6663,
      "Ġunif": 6664,
      "atoes": 6665,
      "Ġmater": 6666,
      "Ġpresident": 6667,
      "Ġremind": 6668,
      "Ġcosts": 6669,
      "Ġtreat": 6670,
      "Ġbarbe": 6671,
      "eixes": 6672,
      "ĠingÃªn": 6673,
      "nsito": 6674,
      "Ġprovar": 6675,
      "ĠvoltarÃ¡": 6676,
      "Ġrained": 6677,
      "Ġfolga": 6678,
      "ĠCanadÃ¡": 6679,
      "ĠAcred": 6680,
      "Ġpoderiam": 6681,
      "Ġcorreto": 6682,
      "Ġarris": 6683,
      "Ġadmitted": 6684,
      "Ġpreparar": 6685,
      "Ġmusician": 6686,
      "Ġnearly": 6687,
      "Ġpreocupa": 6688,
      "Ġcanta": 6689,
      "ĠpaÃŃses": 6690,
      "Ġfollowing": 6691,
      "ĠRealmente": 6692,
      "ĠsaudÃ¡vel": 6693,
      "ĠLeve": 6694,
      "Ġ197": 6695,
      "Ġcaminhada": 6696,
      "Ġescutando": 6697,
      "Ġjaponesa": 6698,
      "Ġrarely": 6699,
      "Ġinterrom": 6700,
      "Ġuniversity": 6701,
      "Ġpoliceman": 6702,
      "Ġrevista": 6703,
      "Ġdiscovered": 6704,
      "Ġpasso": 6705,
      "ĠDuvido": 6706,
      "Ġspring": 6707,
      "Ġcourse": 6708,
      "ĠbagunÃ§a": 6709,
      "ĠSaturday": 6710,
      "Ġpratele": 6711,
      "Ġpendur": 6712,
      "Ġamizade": 6713,
      "ĠtrÃ¢nsito": 6714,
      "gia": 6715,
      "med": 6716,
      "wers": 6717,
      "Ġ$": 6718,
      "Ġdente": 6719,
      "Ġsocks": 6720,
      "Ġpan": 6721,
      "quinho": 6722,
      "Ġboc": 6723,
      "Ġbul": 6724,
      "Ġvenda": 6725,
      "Ġqueijo": 6726,
      "ament": 6727,
      "Ġego": 6728,
      "Ġmeias": 6729,
      "icans": 6730,
      "ostas": 6731,
      "Ġalco": 6732,
      "Ġwashing": 6733,
      "ĠDÃ¡": 6734,
      "Ġstars": 6735,
      "Ġjul": 6736,
      "Ġsuco": 6737,
      "Ġtrav": 6738,
      "Ġtraz": 6739,
      "Ġneck": 6740,
      "Ã©c": 6741,
      "Ã©s": 6742,
      "ĠCo": 6743,
      "ĠCostum": 6744,
      "Ġcancer": 6745,
      "apped": 6746,
      "ĠFale": 6747,
      "ests": 6748,
      "Ġchose": 6749,
      "Ġusava": 6750,
      "Ġcovered": 6751,
      "Ġfever": 6752,
      "Ġdesem": 6753,
      "caÃ§Ã£o": 6754,
      "Ġresem": 6755,
      "ĠpeÃ§a": 6756,
      "ĠJamais": 6757,
      "ctions": 6758,
      "Ġapre": 6759,
      "Ġchegue": 6760,
      "bras": 6761,
      "Ġpassagem": 6762,
      "Ġparecer": 6763,
      "Ġencar": 6764,
      "Ġlonga": 6765,
      "Ġtip": 6766,
      "Ġmoed": 6767,
      "Ġpedra": 6768,
      "ĠTens": 6769,
      "ĠhÃ¡b": 6770,
      "Ġconfer": 6771,
      "urei": 6772,
      "Ġsalvar": 6773,
      "Ġsons": 6774,
      "Ġpossui": 6775,
      "Ġanswers": 6776,
      "Ġmetade": 6777,
      "Ġinsult": 6778,
      "Ġnadando": 6779,
      "ĠopÃ§Ãµes": 6780,
      "Ġcountries": 6781,
      "Ġprocurar": 6782,
      "grap": 6783,
      "Ġentregou": 6784,
      "ĠKy": 6785,
      "count": 6786,
      "Ġdentista": 6787,
      "Ġpreocupados": 6788,
      "Ġescapou": 6789,
      "Ġfeelings": 6790,
      "Ġconvidados": 6791,
      "Ġmemory": 6792,
      "ĠmemÃ³ria": 6793,
      "Ġexample": 6794,
      "ĠconhecÃª": 6795,
      "Ġborrowed": 6796,
      "Ġhealthy": 6797,
      "Ġperdoar": 6798,
      "ĠFicarei": 6799,
      "Ġcertainly": 6800,
      "Ġmentiroso": 6801,
      "Ġcrossed": 6802,
      "Ġdesperdi": 6803,
      "Ġfloresta": 6804,
      "ouraged": 6805,
      "Ġcirc": 6806,
      "ĠsoluÃ§Ã£o": 6807,
      "ĠTwo": 6808,
      "Ġelectric": 6809,
      "Ġindepend": 6810,
      "Ġchallen": 6811,
      "Ġsarc": 6812,
      "ĠalemÃ£o": 6813,
      "gen": 6814,
      "wnt": 6815,
      "Ġtia": 6816,
      "Ġtour": 6817,
      "Ġtastes": 6818,
      "Ġdry": 6819,
      "Ġpet": 6820,
      "Ġpill": 6821,
      "Ġpelos": 6822,
      "ored": 6823,
      "ĠquÃ£o": 6824,
      "Ġbench": 6825,
      "ativa": 6826,
      "itivo": 6827,
      "Ġdownt": 6828,
      "Ġmeal": 6829,
      "ĠWatch": 6830,
      "antage": 6831,
      "etas": 6832,
      "Ġanel": 6833,
      "ilable": 6834,
      "Ġaccount": 6835,
      "Ġdise": 6836,
      "ĠThree": 6837,
      "ulous": 6838,
      "Ġfrase": 6839,
      "Ġgostamos": 6840,
      "Ġproib": 6841,
      "Ġexag": 6842,
      "Ġusing": 6843,
      "Ġiron": 6844,
      "Ġshare": 6845,
      "aga": 6846,
      "Ġterno": 6847,
      "anda": 6848,
      "assem": 6849,
      "Ġprecisou": 6850,
      "ĠLi": 6851,
      "Ġresist": 6852,
      "Ġaprov": 6853,
      "ĠGood": 6854,
      "ugal": 6855,
      "Ġsobrev": 6856,
      "Ġcair": 6857,
      "Ġficarei": 6858,
      "Ġhaver": 6859,
      "Ġvieram": 6860,
      "Ġlua": 6861,
      "Ġbuying": 6862,
      "ĠcrÃ©d": 6863,
      "Ġcorpo": 6864,
      "inaÃ§Ã£o": 6865,
      "Ġperguntando": 6866,
      "Ġsolution": 6867,
      "Ġdoors": 6868,
      "Ġmostre": 6869,
      "ĠFriday": 6870,
      "Ġligue": 6871,
      "ĠParecia": 6872,
      "aterra": 6873,
      "Ġmilh": 6874,
      "Ġmistaken": 6875,
      "Ġbateria": 6876,
      "Ġadorme": 6877,
      "Ġcozin": 6878,
      "Ġcozinh": 6879,
      "ĠimpressÃ£o": 6880,
      "Ġfuncionando": 6881,
      "Ġdentist": 6882,
      "ĠConc": 6883,
      "Ġcontinued": 6884,
      "Ġhumil": 6885,
      "Ġcantor": 6886,
      "Ġpatience": 6887,
      "Ġexplicou": 6888,
      "Ġwrites": 6889,
      "Ġcontrole": 6890,
      "ĠDeixei": 6891,
      "ĠFicamos": 6892,
      "Ġenviar": 6893,
      "ĠInglaterra": 6894,
      "Ġestrelas": 6895,
      "Ġfrango": 6896,
      "Ġdrugs": 6897,
      "ĠinformaÃ§Ã£o": 6898,
      "Ġcoloquei": 6899,
      "Ġobviously": 6900,
      "Ġburned": 6901,
      "Ġadiant": 6902,
      "Ġdesafio": 6903,
      "Ġlocal": 6904,
      "ĠpÃ¡gina": 6905,
      "Ġcompromisso": 6906,
      "Ġrefrigerator": 6907,
      "Ġbilhe": 6908,
      "ĠmultidÃ£o": 6909,
      "Ġdestroyed": 6910,
      "Ġrecommend": 6911,
      "Ġmagazine": 6912,
      "ĠpreguiÃ§oso": 6913,
      "ĠInternet": 6914,
      "ĠSuponho": 6915,
      "Ġrecuper": 6916,
      "Ġgasolina": 6917,
      "Ġprateleira": 6918,
      "ĠegoÃŃst": 6919,
      "Ġdowntown": 6920,
      "gy": 6921,
      "iÃµes": 6922,
      "upo": 6923,
      "Ġtiv": 6924,
      "Ġtare": 6925,
      "Ġtinta": 6926,
      "omes": 6927,
      "oming": 6928,
      "ery": 6929,
      "Ġcredit": 6930,
      "Ġpage": 6931,
      "Ġpeixes": 6932,
      "ises": 6933,
      "enes": 6934,
      "enced": 6935,
      "orde": 6936,
      "Ġyen": 6937,
      "Ġdepende": 6938,
      "Ġgain": 6939,
      "Ġestra": 6940,
      "Ġestais": 6941,
      "Ġcomido": 6942,
      "ĠMinhas": 6943,
      "Ġinse": 6944,
      "Ġaltos": 6945,
      "ches": 6946,
      "olved": 6947,
      "ode": 6948,
      "ĠfaÃ§am": 6949,
      "ĠSm": 6950,
      "Ġtran": 6951,
      "Ġacordei": 6952,
      "ĠCadÃª": 6953,
      "Ġprimo": 6954,
      "uty": 6955,
      "Ġanda": 6956,
      "Ġlead": 6957,
      "Ġshocked": 6958,
      "Ġdesign": 6959,
      "Ġeleph": 6960,
      "Ġescadas": 6961,
      "Ġteremos": 6962,
      "Ġservi": 6963,
      "Ġresto": 6964,
      "Ġupstairs": 6965,
      "Ġbright": 6966,
      "Ġajudado": 6967,
      "Ġgrou": 6968,
      "Ġgritando": 6969,
      "Ġgrupo": 6970,
      "Ġcertamente": 6971,
      "Ġfelic": 6972,
      "Ġunli": 6973,
      "Ġteaches": 6974,
      "Ġhorri": 6975,
      "Ġprofund": 6976,
      "icted": 6977,
      "Ġ14": 6978,
      "Ġ15": 6979,
      "Ġsonh": 6980,
      "Ġcapac": 6981,
      "Ġjuntar": 6982,
      "Ġligado": 6983,
      "Ġeasier": 6984,
      "Ġcostume": 6985,
      "Ġskirt": 6986,
      "Ġdelir": 6987,
      "Ġadmir": 6988,
      "Ġsigned": 6989,
      "Ġmachucado": 6990,
      "Ġgold": 6991,
      "Ġescritor": 6992,
      "ĠShut": 6993,
      "Ġcommit": 6994,
      "Ġsilence": 6995,
      "Ġaceit": 6996,
      "ĠAmericans": 6997,
      "Ġdeserves": 6998,
      "Ġpunido": 6999,
      "Ġcresceu": 7000,
      "Ġcomplained": 7001,
      "Ġfaleceu": 7002,
      "Ġdesejo": 7003,
      "Ġtranslated": 7004,
      "ĠbÃªb": 7005,
      "Ġdispon": 7006,
      "Ġpux": 7007,
      "Ġprogress": 7008,
      "Ġenganado": 7009,
      "Ġignored": 7010,
      "Ġclimbed": 7011,
      "Ġrecomend": 7012,
      "Ġvizinho": 7013,
      "Ġsortudo": 7014,
      "ĠSpain": 7015,
      "Ã©tico": 7016,
      "Ġrecognized": 7017,
      "Ġturma": 7018,
      "Ġlimpou": 7019,
      "Ġelevador": 7020,
      "Ġelevator": 7021,
      "ĠligaÃ§Ã£o": 7022,
      "Ġarguing": 7023,
      "Ġamericano": 7024,
      "ĠsÃ¡bado": 7025,
      "ĠDizem": 7026,
      "Ġdetermin": 7027,
      "Ġtrapace": 7028,
      "Ġreached": 7029,
      "ĠvÃŃde": 7030,
      "ĠcondiÃ§Ãµes": 7031,
      "Ġunlikely": 7032,
      "\".": 7033,
      "gel": 7034,
      "iest": 7035,
      "iosa": 7036,
      "oa": 7037,
      "ye": 7038,
      "Ġtor": 7039,
      "ĠtÃŃn": 7040,
      "Ġtantas": 7041,
      "Ġduty": 7042,
      "ouse": 7043,
      "esper": 7044,
      "ines": 7045,
      "inze": 7046,
      "Ġpess": 7047,
      "Ġpoker": 7048,
      "ques": 7049,
      "Ġquinze": 7050,
      "ases": 7051,
      "Ġtoalha": 7052,
      "Ġvan": 7053,
      "iada": 7054,
      "adora": 7055,
      "ĠWelcome": 7056,
      "ley": 7057,
      "ĠVale": 7058,
      "ĠAbra": 7059,
      "igam": 7060,
      "Ġbeard": 7061,
      "Ġkil": 7062,
      "ola": 7063,
      "gust": 7064,
      "ĠSol": 7065,
      "rido": 7066,
      "Ã³rias": 7067,
      "Ġheat": 7068,
      "ĠCor": 7069,
      "ĠCol": 7070,
      "ĠCons": 7071,
      "Ġprot": 7072,
      "Ġdiet": 7073,
      "ÃŃdio": 7074,
      "ursos": 7075,
      "Ġchances": 7076,
      "Ġexiste": 7077,
      "ache": 7078,
      "izou": 7079,
      "ĠPort": 7080,
      "pendo": 7081,
      "Ġserve": 7082,
      "ival": 7083,
      "Ġcheated": 7084,
      "Ġcheaper": 7085,
      "Ġboard": 7086,
      "Ġsentimentos": 7087,
      "Ġcampo": 7088,
      "Ġvisita": 7089,
      "Ġtentado": 7090,
      "Ġseguiu": 7091,
      "Ġ25": 7092,
      "Ġswear": 7093,
      "Ġcritic": 7094,
      "Ġcriativo": 7095,
      "Ġespelho": 7096,
      "Ġ16": 7097,
      "Ġtrein": 7098,
      "ĠEngland": 7099,
      "Ġquisesse": 7100,
      "Ġobject": 7101,
      "Ġbanana": 7102,
      "Ġinvolved": 7103,
      "Ġpago": 7104,
      "Ġconvite": 7105,
      "Ġzomb": 7106,
      "Ġbonitas": 7107,
      "Ġtrabalhava": 7108,
      "Ġinflu": 7109,
      "ĠPerm": 7110,
      "Ġdireto": 7111,
      "Ġsuspe": 7112,
      "Ġbeijo": 7113,
      "Ġinstead": 7114,
      "Ġdorme": 7115,
      "Ġferro": 7116,
      "Ġsofa": 7117,
      "Ġcurtain": 7118,
      "Ġcausou": 7119,
      "Ġpreferiria": 7120,
      "Ã¡ssemos": 7121,
      "ĠalmoÃ§ou": 7122,
      "ĠTrÃªs": 7123,
      "ĠsaÃŃda": 7124,
      "Ġtotal": 7125,
      "Ġtotally": 7126,
      "Ġvotar": 7127,
      "ĠEspanha": 7128,
      "Ġoptions": 7129,
      "Ġienes": 7130,
      "Ġalugar": 7131,
      "Ġsuicide": 7132,
      "Ġdenied": 7133,
      "ĠSuas": 7134,
      "ĠgraÃ§a": 7135,
      "ĠCuidado": 7136,
      "Ġarrepender": 7137,
      "Ġselfish": 7138,
      "Ġcumpr": 7139,
      "Ġmirror": 7140,
      "ĠAconteceu": 7141,
      "Ġjudge": 7142,
      "Ġvergonha": 7143,
      "ĠcrÃ©dito": 7144,
      "ex": 7145,
      "gs": 7146,
      "gamos": 7147,
      "gico": 7148,
      "val": 7149,
      "Ġava": 7150,
      "ĠcÃ³p": 7151,
      "inner": 7152,
      "Ġfle": 7153,
      "ories": 7154,
      "Ġtooth": 7155,
      "iture": 7156,
      "entas": 7157,
      "heira": 7158,
      "ĠÃ©ramos": 7159,
      "ots": 7160,
      "ĠAnd": 7161,
      "ĠAmo": 7162,
      "ĠOf": 7163,
      "abbed": 7164,
      "Ġnoon": 7165,
      "Ġmaj": 7166,
      "Ġactor": 7167,
      "Ã©is": 7168,
      "aive": 7169,
      "ĠdiÃ¡rio": 7170,
      "Ġdiary": 7171,
      "ĠFomos": 7172,
      "ustomed": 7173,
      "Ġfranc": 7174,
      "Ġexig": 7175,
      "Ġfalado": 7176,
      "Ġcasaram": 7177,
      "Ġcastle": 7178,
      "ump": 7179,
      "Ġdescer": 7180,
      "Ġterrem": 7181,
      "Ġcontente": 7182,
      "Ġbrava": 7183,
      "Ġentire": 7184,
      "Ġentrei": 7185,
      "Ġgrave": 7186,
      "Ġgritou": 7187,
      "ĠclÃ¡ss": 7188,
      "Ġpassage": 7189,
      "Ġpareceu": 7190,
      "Ġdeixando": 7191,
      "Ġoffered": 7192,
      "ĠQueres": 7193,
      "Ġconseguimos": 7194,
      "Ġmarket": 7195,
      "Ġrespostas": 7196,
      "ĠGostei": 7197,
      "Ġimportar": 7198,
      "Ġpensado": 7199,
      "Ġfarto": 7200,
      "Ġblank": 7201,
      "Ġchova": 7202,
      "ĠmudanÃ§a": 7203,
      "ĠmÃºsico": 7204,
      "Ġapprove": 7205,
      "Ġclassm": 7206,
      "Ġatrasados": 7207,
      "ĠpoderÃ¡": 7208,
      "Ġcorreio": 7209,
      "ĠInf": 7210,
      "Ġartist": 7211,
      "Ġinstr": 7212,
      "Ġcleaned": 7213,
      "Ġcleaning": 7214,
      "Ġaceitou": 7215,
      "Ġprision": 7216,
      "Ġauthor": 7217,
      "Ġignore": 7218,
      "Ġburro": 7219,
      "Ġantigo": 7220,
      "Ġsupper": 7221,
      "Ġfinger": 7222,
      "ĠridÃŃ": 7223,
      "Ġajudei": 7224,
      "Ġapologized": 7225,
      "ĠVoltar": 7226,
      "ĠeducaÃ§Ã£o": 7227,
      "shirt": 7228,
      "Ġdivorci": 7229,
      "Ġfresco": 7230,
      "Ġatravess": 7231,
      "Ġpulou": 7232,
      "ĠciÃº": 7233,
      "Ġdefinitivamente": 7234,
      "Ġcastelo": 7235,
      "ĠaparÃªncia": 7236,
      "Ġfurioso": 7237,
      "Ġscient": 7238,
      "Ġexausto": 7239,
      "Ġexercise": 7240,
      "Ġatropelado": 7241,
      "Ġbrilhante": 7242,
      "Ġexpulso": 7243,
      "Ġinvitation": 7244,
      "uctant": 7245,
      "Ġfurniture": 7246,
      "ĠKyoto": 7247,
      "Ġhorrible": 7248,
      "Ġavailable": 7249,
      "Sim": 7250,
      "cito": 7251,
      "hada": 7252,
      "pes": 7253,
      "rat": 7254,
      "zy": 7255,
      "Ġaus": 7256,
      "ero": 7257,
      "aros": 7258,
      "Ġcras": 7259,
      "Ġfest": 7260,
      "Ġfence": 7261,
      "Ã£e": 7262,
      "Ġtoile": 7263,
      "Ġben": 7264,
      "Ġobe": 7265,
      "Ġvento": 7266,
      "itÃ¡rio": 7267,
      "eding": 7268,
      "Ġdobr": 7269,
      "imamente": 7270,
      "Ġink": 7271,
      "ĠNone": 7272,
      "Ġanal": 7273,
      "ilha": 7274,
      "Ġalarm": 7275,
      "Ġmudei": 7276,
      "Ġonline": 7277,
      "Ġforced": 7278,
      "Ġaspir": 7279,
      "Ġembr": 7280,
      "Ġnevar": 7281,
      "Ġmac": 7282,
      "Ġmain": 7283,
      "utor": 7284,
      "endido": 7285,
      "Ġfraco": 7286,
      "Ġweigh": 7287,
      "Ġusual": 7288,
      "elled": 7289,
      "Ġfeita": 7290,
      "Ġterror": 7291,
      "Ġtenham": 7292,
      "Ġmanaged": 7293,
      "ĠLast": 7294,
      "Ġhelpful": 7295,
      "Ġcontando": 7296,
      "Ġhole": 7297,
      "Ġdizzy": 7298,
      "Ġmesmos": 7299,
      "Ġcompar": 7300,
      "Ġcompos": 7301,
      "Ġpassaram": 7302,
      "Ġasks": 7303,
      "Ġsenso": 7304,
      "Ġhouses": 7305,
      "Ġtomo": 7306,
      "Ġfila": 7307,
      "Ġsentia": 7308,
      "Ġunless": 7309,
      "Ġseguinte": 7310,
      "Ġapressar": 7311,
      "Ġesporte": 7312,
      "Ġhomes": 7313,
      "Ġprometo": 7314,
      "Ãªmio": 7315,
      "ĠmÃºsicas": 7316,
      "Ġbadly": 7317,
      "Ġmiles": 7318,
      "Ġbedroom": 7319,
      "grimas": 7320,
      "Ġsnoring": 7321,
      "Ġdescon": 7322,
      "Ġtallest": 7323,
      "ĠpÃ©ss": 7324,
      "ĠConsegu": 7325,
      "Ġrazo": 7326,
      "Ġsnowing": 7327,
      "Ġcommun": 7328,
      "Ġsilly": 7329,
      "Ġcavalos": 7330,
      "Ġdisappear": 7331,
      "Ġcoragem": 7332,
      "Ġsuponho": 7333,
      "Ġpassear": 7334,
      "ĠDeixem": 7335,
      "ĠEntre": 7336,
      "Ġadopted": 7337,
      "Ġ50": 7338,
      "Ġreconheceu": 7339,
      "Ġestrangeiro": 7340,
      "Ġestrangeira": 7341,
      "Ġabandoned": 7342,
      "Ġaparecer": 7343,
      "Ġsurvived": 7344,
      "Ġcousins": 7345,
      "Ġtalented": 7346,
      "Ġtalentoso": 7347,
      "Ġearthqu": 7348,
      "Ġchinesa": 7349,
      "Ġlutar": 7350,
      "Ġamericanos": 7351,
      "Ġenergia": 7352,
      "ĠEscreva": 7353,
      "Ġterceiro": 7354,
      "ĠquilÃ´met": 7355,
      "Ġeffort": 7356,
      "ĠegoÃŃsta": 7357,
      "Ġgroup": 7358,
      "Ġfelicidade": 7359,
      "Ġprofundamente": 7360,
      "Ġtoilet": 7361,
      "ax": 7362,
      "rando": 7363,
      "ts": 7364,
      "ule": 7365,
      "Ġteto": 7366,
      "Ġsize": 7367,
      "isy": 7368,
      "Ġnone": 7369,
      "enci": 7370,
      "Ġfan": 7371,
      "orou": 7372,
      "Ġlen": 7373,
      "Ġdeg": 7374,
      "Ġtheory": 7375,
      "iais": 7376,
      "Ġcomemos": 7377,
      "ĠMond": 7378,
      "ĠinÃº": 7379,
      "Ġante": 7380,
      "Ġbeat": 7381,
      "Ġlies": 7382,
      "Ġones": 7383,
      "ĠDay": 7384,
      "ĠSpe": 7385,
      "Ġstom": 7386,
      "Ġjail": 7387,
      "ceis": 7388,
      "Ġcares": 7389,
      "uda": 7390,
      "ÃŃcios": 7391,
      "urs": 7392,
      "Ġperda": 7393,
      "Ġabaix": 7394,
      "eiÃ§Ãµes": 7395,
      "Ġareia": 7396,
      "Ġteoria": 7397,
      "Ġenx": 7398,
      "ĠexÃ©r": 7399,
      "Ġexager": 7400,
      "Ġcoach": 7401,
      "Ġdesenh": 7402,
      "Ġoutono": 7403,
      "ĠLig": 7404,
      "Ġargue": 7405,
      "Ġgrama": 7406,
      "Ġcliente": 7407,
      "Ġadicion": 7408,
      "Ġcompart": 7409,
      "Ġsour": 7410,
      "Ġconhecido": 7411,
      "Ġvolume": 7412,
      "Ġescolh": 7413,
      "Ġtirei": 7414,
      "Ġmodo": 7415,
      "Ġfundo": 7416,
      "Ġfuneral": 7417,
      "ĠsalÃ¡rio": 7418,
      "Ãµe": 7419,
      "ption": 7420,
      "Ġtrezentos": 7421,
      "ĠEsperamos": 7422,
      "Ġsinal": 7423,
      "Ġpartiu": 7424,
      "Ġlugares": 7425,
      "Ġinteressa": 7426,
      "Ġvende": 7427,
      "ĠÃ³b": 7428,
      "Ġdurou": 7429,
      "ĠinfÃ¢ncia": 7430,
      "Ġbatatas": 7431,
      "Ġlimpo": 7432,
      "Ġdescu": 7433,
      "Ġartista": 7434,
      "Ġnearest": 7435,
      "Ġentendem": 7436,
      "Ġdistingu": 7437,
      "Ġdesculpe": 7438,
      "Ġdesculpa": 7439,
      "Ġcorrida": 7440,
      "ĠpÃ´r": 7441,
      "Ġodeiam": 7442,
      "Ġarmy": 7443,
      "ĠrazÃµes": 7444,
      "Ġmeaning": 7445,
      "Ġtraveled": 7446,
      "Ġautom": 7447,
      "Ġselos": 7448,
      "ĠProc": 7449,
      "Ġcresci": 7450,
      "Ġaccustomed": 7451,
      "Ġgentl": 7452,
      "ĠromÃ¢nt": 7453,
      "Ġromantic": 7454,
      "Ġigu": 7455,
      "Ġigual": 7456,
      "ĠApesar": 7457,
      "Ġvoted": 7458,
      "ĠAdoro": 7459,
      "ĠDeixa": 7460,
      "Ġconheceram": 7461,
      "Ġadmitiu": 7462,
      "ĠSometimes": 7463,
      "ĠsuicÃŃdio": 7464,
      "Ġpossibilidade": 7465,
      "Ġvolunt": 7466,
      "Ġastron": 7467,
      "ĠdÃºvida": 7468,
      "ĠFeche": 7469,
      "ĠinformaÃ§Ãµes": 7470,
      "Ġexperimentar": 7471,
      "levant": 7472,
      "Ġunlocked": 7473,
      "Ġbaked": 7474,
      "Ġrepeat": 7475,
      "Ġcomplaints": 7476,
      "Ġcorner": 7477,
      "Ġsexta": 7478,
      "ĠDecidi": 7479,
      "Ġchallenge": 7480,
      "ĠtÃŃnhamos": 7481,
      "ĠMondays": 7482,
      "ĠexÃ©rcito": 7483,
      "ded": 7484,
      "nic": 7485,
      "Ġtonto": 7486,
      "ĠTent": 7487,
      "Ġsight": 7488,
      "Ġsched": 7489,
      "ĠTomorrow": 7490,
      "Ġmist": 7491,
      "Ġmart": 7492,
      "Ġmosqu": 7493,
      "Ġnaive": 7494,
      "encial": 7495,
      "Ġhi": 7496,
      "Ġhated": 7497,
      "Ġbac": 7498,
      "Ġlow": 7499,
      "ĠlÃŃ": 7500,
      "Ġlinha": 7501,
      "Ġgri": 7502,
      "Ġestes": 7503,
      "idence": 7504,
      "Ġseas": 7505,
      "leta": 7506,
      "antos": 7507,
      "ĠOb": 7508,
      "ĠOh": 7509,
      "igas": 7510,
      "Ġrace": 7511,
      "Ġrei": 7512,
      "ĠDet": 7513,
      "ĠPap": 7514,
      "ĠPonha": 7515,
      "Ġfortes": 7516,
      "Ġemoc": 7517,
      "Ġnegou": 7518,
      "Ġquerendo": 7519,
      "ĠquerÃŃamos": 7520,
      "Ġqueriam": 7521,
      "Ġpratos": 7522,
      "Ġdieta": 7523,
      "Ġmyster": 7524,
      "ĠBom": 7525,
      "laud": 7526,
      "Ġprevent": 7527,
      "Ġteus": 7528,
      "Ġaqueles": 7529,
      "Ġusou": 7530,
      "Ġshout": 7531,
      "acy": 7532,
      "Ġelection": 7533,
      "Ġwore": 7534,
      "Ġresour": 7535,
      "Ġcontas": 7536,
      "Ġcontado": 7537,
      "Ġjoguei": 7538,
      "Ġappe": 7539,
      "Ġesperado": 7540,
      "Ġhouve": 7541,
      "anhos": 7542,
      "Ġmelhorando": 7543,
      "Ġcomprado": 7544,
      "caras": 7545,
      "Ġdrum": 7546,
      "ĠcaÃ§": 7547,
      "Ġpoucos": 7548,
      "Ġconsult": 7549,
      "Ġunre": 7550,
      "Ġunable": 7551,
      "Ġcalls": 7552,
      "Ġpolite": 7553,
      "Ġocor": 7554,
      "ĠespaÃ§o": 7555,
      "Ġ17": 7556,
      "Ġsinta": 7557,
      "cional": 7558,
      "Ġjunto": 7559,
      "ĠParem": 7560,
      "letas": 7561,
      "Ġinsp": 7562,
      "ĠcalÃ§as": 7563,
      "Ġinvent": 7564,
      "ĠmÃ©dicos": 7565,
      "ney": 7566,
      "Ġmilhas": 7567,
      "Ġconversamos": 7568,
      "ĠPerd": 7569,
      "Ġskin": 7570,
      "Ġacontecesse": 7571,
      "Ġnamorando": 7572,
      "Ġscare": 7573,
      "Ġcusto": 7574,
      "Ġquebrar": 7575,
      "ĠEmb": 7576,
      "Ġtransfer": 7577,
      "Ġcantou": 7578,
      "ĠExper": 7579,
      "Ġocupadas": 7580,
      "Ġwheel": 7581,
      "Ġemprestou": 7582,
      "Ġborbo": 7583,
      "Ġcomputadores": 7584,
      "Ġburaco": 7585,
      "Ġfluente": 7586,
      "Ġperfectly": 7587,
      "Ġconselhos": 7588,
      "ĠdiscussÃ£o": 7589,
      "Ġjaponeses": 7590,
      "Ġchegamos": 7591,
      "Ġthanks": 7592,
      "Ġfigured": 7593,
      "Ġ300": 7594,
      "Ġreclamou": 7595,
      "Ġtickets": 7596,
      "Ġpostp": 7597,
      "Ġabsur": 7598,
      "Ġviveu": 7599,
      "Ġcomplete": 7600,
      "ĠNeither": 7601,
      "Ġcontratar": 7602,
      "Ġringing": 7603,
      "Ġholiday": 7604,
      "Ġbanda": 7605,
      "Ġmisunder": 7606,
      "ĠSaia": 7607,
      "ĠinstruÃ§Ãµes": 7608,
      "Ġliter": 7609,
      "Ġdesapareceu": 7610,
      "Ġshape": 7611,
      "Ġmanteiga": 7612,
      "Ġhammer": 7613,
      "Ġgovernment": 7614,
      "Ġtowel": 7615,
      "ĠPassei": 7616,
      "Ġmaluco": 7617,
      "Ġhesit": 7618,
      "ĠAntes": 7619,
      "ĠMantenha": 7620,
      "Ġtarefa": 7621,
      "ĠvÃŃdeo": 7622,
      "Ġkilomet": 7623,
      "Ġstomach": 7624,
      "What": 7625,
      "bam": 7626,
      "form": 7627,
      "ging": 7628,
      "ium": 7629,
      "taram": 7630,
      "vando": 7631,
      "writ": 7632,
      "xious": 7633,
      "Ġtinto": 7634,
      "Ġdan": 7635,
      "Ġdigo": 7636,
      "Ġdimin": 7637,
      "Ġcorda": 7638,
      "ĠmÃŃn": 7639,
      "Ġnorte": 7640,
      "Ġnisto": 7641,
      "Ġfed": 7642,
      "Ġhamb": 7643,
      "Ġtoque": 7644,
      "ĠbraÃ§": 7645,
      "Ġovo": 7646,
      "Ġvais": 7647,
      "Ġlately": 7648,
      "itor": 7649,
      "avas": 7650,
      "ential": 7651,
      "het": 7652,
      "icer": 7653,
      "Ġinfe": 7654,
      "Ġann": 7655,
      "Ġras": 7656,
      "ĠHold": 7657,
      "ĠDr": 7658,
      "ĠPou": 7659,
      "Ġgoverno": 7660,
      "Ġnoisy": 7661,
      "Ġtrick": 7662,
      "Ġacer": 7663,
      "Ġacaso": 7664,
      "ĠCal": 7665,
      "ĠCook": 7666,
      "ĠQuÃ£o": 7667,
      "Ġporco": 7668,
      "law": 7669,
      "ĠFazer": 7670,
      "using": 7671,
      "Ġsobr": 7672,
      "Ġfria": 7673,
      "Ġamount": 7674,
      "Ġuseless": 7675,
      "Ġcopy": 7676,
      "Ġwhose": 7677,
      "Ġrealidade": 7678,
      "ivas": 7679,
      "Ġresign": 7680,
      "Ġjogue": 7681,
      "Ġpesado": 7682,
      "Ġpesada": 7683,
      "Ġcert": 7684,
      "Ġadul": 7685,
      "Ġcompare": 7686,
      "Ġdeveres": 7687,
      "anges": 7688,
      "Ġintern": 7689,
      "ĠlÃ¡grimas": 7690,
      "Ġwhenever": 7691,
      "Ġpouquinho": 7692,
      "Ġescolas": 7693,
      "Ġluvas": 7694,
      "Ġconseguem": 7695,
      "Ġsurr": 7696,
      "Ġverdadeira": 7697,
      "Ġswitch": 7698,
      "ĠfizÃ©ssemos": 7699,
      "Ġocc": 7700,
      "ĠgarÃ§": 7701,
      "Ġgarotos": 7702,
      "ĠRome": 7703,
      "Ġmudando": 7704,
      "Ġdrives": 7705,
      "ĠmanhÃ£s": 7706,
      "Ġreluctant": 7707,
      "ĠPodes": 7708,
      "Ġcansados": 7709,
      "Ġvendeu": 7710,
      "Ġregra": 7711,
      "Ġcorreta": 7712,
      "Ġperfeitamente": 7713,
      "Ġquiserem": 7714,
      "ĠPeguei": 7715,
      "Ġreduz": 7716,
      "Ġdeclar": 7717,
      "ĠrefeiÃ§Ã£o": 7718,
      "Ġfuncionou": 7719,
      "Ġcustar": 7720,
      "Ġculpar": 7721,
      "Ġfotograf": 7722,
      "Ġviolin": 7723,
      "Ġinstante": 7724,
      "resso": 7725,
      "Ġconsidered": 7726,
      "Ġhighly": 7727,
      "Ġcurto": 7728,
      "Ġconsert": 7729,
      "ĠPrices": 7730,
      "Ġfluent": 7731,
      "Ġcollect": 7732,
      "Ġdiscutindo": 7733,
      "Ġprize": 7734,
      "ortunately": 7735,
      "Ġfingir": 7736,
      "Ġpermitido": 7737,
      "Ġdepart": 7738,
      "Ġsegred": 7739,
      "Ġcandy": 7740,
      "Ġcreio": 7741,
      "Ġdessas": 7742,
      "Ġsoldados": 7743,
      "Ġestacionar": 7744,
      "Ġacreditam": 7745,
      "Ġoptimistic": 7746,
      "Ġbleeding": 7747,
      "Ġentrada": 7748,
      "Ġpilot": 7749,
      "Ġaproxim": 7750,
      "Ġattacked": 7751,
      "Ġalimentar": 7752,
      "ĠTermin": 7753,
      "Ġfurious": 7754,
      "Ġarrumar": 7755,
      "Ġscience": 7756,
      "Ġoriginal": 7757,
      "Ġdevolver": 7758,
      "Ġofereceu": 7759,
      "Ġocean": 7760,
      "Ġinterrupt": 7761,
      "Ġokay": 7762,
      "Ġdesmai": 7763,
      "Ġpoison": 7764,
      "Ġmicro": 7765,
      "Ġhaja": 7766,
      "ĠagradÃ¡vel": 7767,
      "Ġultimamente": 7768,
      "Ġthreatened": 7769,
      "Ġconclus": 7770,
      "Ġcaderno": 7771,
      "Ġproibido": 7772,
      "ĠInfelizmente": 7773,
      "Ġinstrum": 7774,
      "ĠVoltarei": 7775,
      "Ġcrash": 7776,
      "Ġemocion": 7777,
      "ĠbraÃ§os": 7778,
      "Are": 7779,
      "cr": 7780,
      "eiras": 7781,
      "gÃ£o": 7782,
      "gando": 7783,
      "gados": 7784,
      "ientes": 7785,
      "uem": 7786,
      "Ġtido": 7787,
      "omen": 7788,
      "Ġdou": 7789,
      "Ġdado": 7790,
      "Ġderam": 7791,
      "Ġdata": 7792,
      "ara": 7793,
      "Ġcento": 7794,
      "inou": 7795,
      "Ġpon": 7796,
      "Ġpne": 7797,
      "Ġpants": 7798,
      "Ġpushed": 7799,
      "ones": 7800,
      "Ġfab": 7801,
      "Ġfill": 7802,
      "Ġfile": 7803,
      "Ġthro": 7804,
      "aster": 7805,
      "Ġtool": 7806,
      "Ġow": 7807,
      "ematic": 7808,
      "Ġvaso": 7809,
      "Ġdeaf": 7810,
      "Ġgira": 7811,
      "idor": 7812,
      "ires": 7813,
      "ics": 7814,
      "icult": 7815,
      "holic": 7816,
      "ĠAct": 7817,
      "ĠNorm": 7818,
      "Ġking": 7819,
      "Ġros": 7820,
      "abe": 7821,
      "ĠDei": 7822,
      "Ã³t": 7823,
      "Ã³is": 7824,
      "Ġtru": 7825,
      "Ġkne": 7826,
      "Ġatirar": 7827,
      "ĠprÃªmio": 7828,
      "Ġdivers": 7829,
      "ĠEstive": 7830,
      "Ġcaras": 7831,
      "Ġport": 7832,
      "essas": 7833,
      "ulty": 7834,
      "Ġwealth": 7835,
      "Ġamong": 7836,
      "Ġnaked": 7837,
      "Ġleader": 7838,
      "umo": 7839,
      "ĠDoing": 7840,
      "iff": 7841,
      "asses": 7842,
      "Ġapont": 7843,
      "Ġaprove": 7844,
      "Ġgrato": 7845,
      "Ġesperamos": 7846,
      "iraÃ§Ã£o": 7847,
      "Ġimprov": 7848,
      "Ġestaremos": 7849,
      "ĠcomprÃ¡": 7850,
      "Ġencheu": 7851,
      "Ġdeixem": 7852,
      "Ġestejam": 7853,
      "ians": 7854,
      "Ġunus": 7855,
      "Ġsegura": 7856,
      "Ġreads": 7857,
      "Ġoldest": 7858,
      "Ġrecursos": 7859,
      "Ġfizeste": 7860,
      "Ġhorses": 7861,
      "ĠQualquer": 7862,
      "Ġthemselves": 7863,
      "Ġviria": 7864,
      "Ġvisitei": 7865,
      "Ġpausa": 7866,
      "Ġpossamos": 7867,
      "Ġingresso": 7868,
      "Ġwished": 7869,
      "Ġvelhas": 7870,
      "Ġdoces": 7871,
      "Ġcaptain": 7872,
      "Ġmetr": 7873,
      "Ġmetal": 7874,
      "Ġwalks": 7875,
      "Ġrelut": 7876,
      "Ġmisses": 7877,
      "Ġstrict": 7878,
      "Ġobede": 7879,
      "Ġcalma": 7880,
      "Ġremembered": 7881,
      "Ġbebi": 7882,
      "Ġsubir": 7883,
      "Ġempreste": 7884,
      "ĠhistÃ³rias": 7885,
      "Ġjogam": 7886,
      "Ġjogamos": 7887,
      "ulaÃ§Ã£o": 7888,
      "Ġsushi": 7889,
      "Ġpapers": 7890,
      "Ġcustou": 7891,
      "Ġdifficulty": 7892,
      "ĠDeslig": 7893,
      "ĠFiquem": 7894,
      "imenta": 7895,
      "Ġmatters": 7896,
      "Ã¢nico": 7897,
      "Ġencontrado": 7898,
      "Ġemplo": 7899,
      "Ġconvenceu": 7900,
      "Ġ198": 7901,
      "Ġbagagem": 7902,
      "Ġpercebi": 7903,
      "Ġcometi": 7904,
      "Ġconstruiu": 7905,
      "Ġvalu": 7906,
      "Ġvalue": 7907,
      "Ġfingiu": 7908,
      "Ġclearly": 7909,
      "Ġtempos": 7910,
      "Ġarrependo": 7911,
      "Ġprinc": 7912,
      "Ġprestando": 7913,
      "Ġestacionou": 7914,
      "Ġgeneroso": 7915,
      "Ġsuccessful": 7916,
      "Ġobviamente": 7917,
      "Ġfacilidade": 7918,
      "ĠSobre": 7919,
      "Ġcarregar": 7920,
      "Ġlaranjas": 7921,
      "Ġmonkey": 7922,
      "Ġestrela": 7923,
      "ĠchinÃªs": 7924,
      "Ġesquerdo": 7925,
      "Ġaconselhou": 7926,
      "Ġcoloque": 7927,
      "Ġscreaming": 7928,
      "Ġ40": 7929,
      "engers": 7930,
      "Ġbutterf": 7931,
      "Ġdiamond": 7932,
      "Ġhappiness": 7933,
      "Ġrobbed": 7934,
      "Ġfortun": 7935,
      "ĠClose": 7936,
      "Ġgloves": 7937,
      "Ġapagou": 7938,
      "Ġintroduce": 7939,
      "Ġcadeia": 7940,
      "Ġrepetir": 7941,
      "Ġpolitics": 7942,
      "Ġfrutas": 7943,
      "Ġbiscoitos": 7944,
      "Ġallergic": 7945,
      "Ġmaterial": 7946,
      "Ġtravesse": 7947,
      "Ġpillow": 7948,
      "ĠPortugal": 7949,
      "ĠclÃ¡ssica": 7950,
      "ĠciÃºmes": 7951,
      "Ġiguais": 7952,
      "ĠlÃŃder": 7953,
      "ĠimprovÃ¡vel": 7954,
      "lies": 7955,
      "ob": 7956,
      "pond": 7957,
      "Ġile": 7958,
      "Ġtar": 7959,
      "Ġtes": 7960,
      "Ġtight": 7961,
      "Ġtiro": 7962,
      "Ġterei": 7963,
      "Ġapo": 7964,
      "ĠTime": 7965,
      "ĠTerra": 7966,
      "Ġdre": 7967,
      "Ġsqu": 7968,
      "ĠmÃ³": 7969,
      "Ġpip": 7970,
      "Ġpsy": 7971,
      "iso": 7972,
      "anim": 7973,
      "orado": 7974,
      "Ġbow": 7975,
      "ĠvÃªm": 7976,
      "Ġlad": 7977,
      "itiz": 7978,
      "Ġdedo": 7979,
      "Ġdeitado": 7980,
      "edos": 7981,
      "elve": 7982,
      "Ġestudei": 7983,
      "Ġdozen": 7984,
      "ĠMes": 7985,
      "Ġanot": 7986,
      "Ġbear": 7987,
      "ĠalÃ©r": 7988,
      "Ġaltern": 7989,
      "Ġlift": 7990,
      "ĠDem": 7991,
      "guem": 7992,
      "ĠSay": 7993,
      "riv": 7994,
      "Ġstat": 7995,
      "Ġstories": 7996,
      "Ġacima": 7997,
      "Ã©rio": 7998,
      "Ã©xico": 7999,
      "Ġator": 8000,
      "Ġatirou": 8001,
      "Ġprimos": 8002,
      "Ġverificar": 8003,
      "Ġnotas": 8004,
      "Ġpred": 8005,
      "endemos": 8006,
      "Ġaborre": 8007,
      "Ġweb": 8008,
      "Ġandando": 8009,
      "Ġaquelas": 8010,
      "Ġagir": 8011,
      "acter": 8012,
      "Ġdesl": 8013,
      "Ġdescre": 8014,
      "ifique": 8015,
      "iving": 8016,
      "ĠÃīs": 8017,
      "Ġbrigar": 8018,
      "Ġshoulder": 8019,
      "Ġpassengers": 8020,
      "anged": 8021,
      "Ġimpac": 8022,
      "Ãºr": 8023,
      "Ġsentimos": 8024,
      "ĠcaÃŃ": 8025,
      "Ġcampa": 8026,
      "Ġtire": 8027,
      "Ġrope": 8028,
      "Ġbomb": 8029,
      "ĠOnly": 8030,
      "ĠUse": 8031,
      "Ġschools": 8032,
      "Ġtwelve": 8033,
      "irem": 8034,
      "icious": 8035,
      "ĠhorÃ¡rio": 8036,
      "Ġours": 8037,
      "ĠGostar": 8038,
      "Ġolhe": 8039,
      "Ġfarmer": 8040,
      "Ġpoet": 8041,
      "Ġpoema": 8042,
      "Ġ12": 8043,
      "ĠRem": 8044,
      "intos": 8045,
      "Ġacreditou": 8046,
      "Ġmudaram": 8047,
      "onsci": 8048,
      "Ġcapit": 8049,
      "Ġjuntas": 8050,
      "Ġfiquem": 8051,
      "Ġears": 8052,
      "Ġintrig": 8053,
      "ĠPoder": 8054,
      "Ġestranha": 8055,
      "Ġdiscouraged": 8056,
      "Ġchamp": 8057,
      "Ġbananas": 8058,
      "Ġclassical": 8059,
      "ĠfÃ¡br": 8060,
      "Ġvoar": 8061,
      "Ġreply": 8062,
      "Ġassistant": 8063,
      "Ġenjoys": 8064,
      "Ġsubway": 8065,
      "Ġexcit": 8066,
      "Ġlargest": 8067,
      "Ġperderam": 8068,
      "Ġpreparando": 8069,
      "Ġruins": 8070,
      "ĠdÃ³i": 8071,
      "Ġferram": 8072,
      "Ġdistur": 8073,
      "Ġsofreu": 8074,
      "Ġazuis": 8075,
      "ĠdanÃ§ando": 8076,
      "Ġresponsabil": 8077,
      "uÃŃdo": 8078,
      "Ġfluently": 8079,
      "Ġaviso": 8080,
      "Ġgasta": 8081,
      "Ġcoraj": 8082,
      "Ġscen": 8083,
      "Ġlesson": 8084,
      "Ġpression": 8085,
      "Ġpurse": 8086,
      "ĠAdiv": 8087,
      "Ġreclamando": 8088,
      "Ġgrowing": 8089,
      "Ġfamosa": 8090,
      "ĠVolte": 8091,
      "Ġreligion": 8092,
      "Ġeducado": 8093,
      "ship": 8094,
      "ĠpÃ¡ssaros": 8095,
      "Ġhorror": 8096,
      "Ġpossibility": 8097,
      "Ġpackage": 8098,
      "Ġholding": 8099,
      "ĠdÃºvidas": 8100,
      "Ġapertou": 8101,
      "Ġpiloto": 8102,
      "Ġtrocar": 8103,
      "Ġextraord": 8104,
      "Ġpersuade": 8105,
      "Ġinstructions": 8106,
      "ĠAchava": 8107,
      "Ġtapete": 8108,
      "Ġaumento": 8109,
      "Ġgraduated": 8110,
      "Ġmaravilhoso": 8111,
      "ĠGuess": 8112,
      "Ġtatu": 8113,
      "Ġtatto": 8114,
      "Ġpicnic": 8115,
      "Ġordem": 8116,
      "Ġadeus": 8117,
      "Ġclaim": 8118,
      "ĠFinalmente": 8119,
      "Ġbrinquedos": 8120,
      "Ġpontual": 8121,
      "ÃŃfico": 8122,
      "ĠfÃŃsica": 8123,
      "Ġsoldiers": 8124,
      "Ġuniform": 8125,
      "ĠingÃªnuo": 8126,
      "Ġexagger": 8127,
      "Ġbilhete": 8128,
      "ĠserviÃ§o": 8129,
      "ĠdisponÃŃvel": 8130,
      "Ġclassmates": 8131,
      "ĠquilÃ´metros": 8132,
      "Ġmartelo": 8133,
      "ĠPapai": 8134,
      "ĠCookie": 8135,
      "Ġsegredos": 8136,
      "ematics": 8137,
      "ĠNormalmente": 8138,
      "Ġileg": 8139,
      "Ġcampainha": 8140,
      "bage": 8141,
      "corn": 8142,
      "gio": 8143,
      "hal": 8144,
      "light": 8145,
      "Ġcave": 8146,
      "Ġciv": 8147,
      "Ġcitiz": 8148,
      "Ġpir": 8149,
      "Ġpian": 8150,
      "isa": 8151,
      "enÃ§as": 8152,
      "ĠIm": 8153,
      "ĠIgn": 8154,
      "onst": 8155,
      "Ġways": 8156,
      "orter": 8157,
      "organ": 8158,
      "asant": 8159,
      "remos": 8160,
      "ĠEis": 8161,
      "Ġobrig": 8162,
      "Ġvill": 8163,
      "Ġvivos": 8164,
      "Ġlab": 8165,
      "Ġlava": 8166,
      "itter": 8167,
      "Ġquebrei": 8168,
      "edy": 8169,
      "Ġgav": 8170,
      "Ġtheater": 8171,
      "avior": 8172,
      "ĠMt": 8173,
      "ĠMom": 8174,
      "ĠWater": 8175,
      "ĠinÃŃcio": 8176,
      "oted": 8177,
      "Ġbegun": 8178,
      "Ġalter": 8179,
      "Ġrot": 8180,
      "Ġfaint": 8181,
      "ĠPol": 8182,
      "ĠPres": 8183,
      "Ġasso": 8184,
      "Ġstam": 8185,
      "Ġtrunk": 8186,
      "Ġfazenda": 8187,
      "Ġnegar": 8188,
      "ÃŃp": 8189,
      "Ġpercent": 8190,
      "Ġabre": 8191,
      "Ġabil": 8192,
      "Ġfruta": 8193,
      "Ġteatro": 8194,
      "Ġusam": 8195,
      "ĠirÃ£o": 8196,
      "Ġshorter": 8197,
      "Ġwhis": 8198,
      "Ġplantas": 8199,
      "Ġdesast": 8200,
      "Ġescure": 8201,
      "ify": 8202,
      "ĠserÃ£o": 8203,
      "Ġficasse": 8204,
      "Ġprecisas": 8205,
      "ĠLo": 8206,
      "Ġgrass": 8207,
      "Ġadap": 8208,
      "ieved": 8209,
      "Ġfalaram": 8210,
      "Ġtells": 8211,
      "Ġafo": 8212,
      "Ġstudies": 8213,
      "Ġviesse": 8214,
      "Ġunhas": 8215,
      "Ġguests": 8216,
      "Ġfund": 8217,
      "Ġrecord": 8218,
      "Ġdemorar": 8219,
      "Ġtwins": 8220,
      "Ġsmiling": 8221,
      "Ġvirou": 8222,
      "ĠRoub": 8223,
      "Ġesquecido": 8224,
      "Ġletra": 8225,
      "Ġbarber": 8226,
      "Ġpromo": 8227,
      "Ġdecidiram": 8228,
      "Ġpaguei": 8229,
      "Ġpartido": 8230,
      "Ġescrev": 8231,
      "Ġswims": 8232,
      "Ġmetho": 8233,
      "Ġstrang": 8234,
      "Ġhearing": 8235,
      "Ġpale": 8236,
      "ĠAmbas": 8237,
      "Ġdirect": 8238,
      "Ġruns": 8239,
      "Ġdoctors": 8240,
      "Ġtornaram": 8241,
      "Ġcooked": 8242,
      "Ġarran": 8243,
      "Ġdecor": 8244,
      "Ġlarger": 8245,
      "Ġdeliver": 8246,
      "Ġrule": 8247,
      "ĠConf": 8248,
      "ĠExp": 8249,
      "ĠpÃ´quer": 8250,
      "Ġsilent": 8251,
      "Ġdissesse": 8252,
      "Ġairpl": 8253,
      "Ġcaminhando": 8254,
      "Ġsecrets": 8255,
      "Ġcega": 8256,
      "Ġbags": 8257,
      "Ġfluentemente": 8258,
      "Ġanti": 8259,
      "Ġreasonable": 8260,
      "Ġcentury": 8261,
      "Ġdesistiu": 8262,
      "Ġbald": 8263,
      "Ġorgulhosa": 8264,
      "Ġfallen": 8265,
      "Ġdocumento": 8266,
      "Ġgenerous": 8267,
      "ĠreligiÃ£o": 8268,
      "Ġrented": 8269,
      "Ġfactory": 8270,
      "ĠCheguei": 8271,
      "Ġstaring": 8272,
      "Ġpleasure": 8273,
      "Ġyellow": 8274,
      "Ġtrancar": 8275,
      "Ġquantidade": 8276,
      "ĠMuita": 8277,
      "Ġcondition": 8278,
      "ĠSenti": 8279,
      "Ġbrownies": 8280,
      "Ġprivate": 8281,
      "Ġenergy": 8282,
      "Ġcrowded": 8283,
      "Ġganhei": 8284,
      "Ġcigaret": 8285,
      "Ġfifteen": 8286,
      "Ġannoying": 8287,
      "ĠalcanÃ§ar": 8288,
      "Ġrumor": 8289,
      "Ġattractive": 8290,
      "ĠreclamaÃ§Ãµes": 8291,
      "Ġboneca": 8292,
      "Ġrabbit": 8293,
      "Ġdisagree": 8294,
      "Ġempolgado": 8295,
      "Ġsuspicious": 8296,
      "Ġbrief": 8297,
      "Ġotimista": 8298,
      "Ġadiantado": 8299,
      "Ġsonhando": 8300,
      "ĠPermita": 8301,
      "Ġterremoto": 8302,
      "Ġpassageiros": 8303,
      "Ġhomesick": 8304,
      "ĠrazoÃ¡vel": 8305,
      "Ġearthquake": 8306,
      "Ġgentleman": 8307,
      "Ġresources": 8308,
      "Ġthroat": 8309,
      "Ġunusual": 8310,
      "ĠmetrÃ´": 8311,
      "Ġtravesseiro": 8312,
      "Ġextraordin": 8313,
      ",\"": 8314,
      "On": 8315,
      "Where": 8316,
      "bles": 8317,
      "cente": 8318,
      "cerei": 8319,
      "een": 8320,
      "lido": 8321,
      "nam": 8322,
      "ners": 8323,
      "rom": 8324,
      "rada": 8325,
      "ubb": 8326,
      "vÃª": 8327,
      "xto": 8328,
      "year": 8329,
      "Ġtort": 8330,
      "Ġsaving": 8331,
      "esday": 8332,
      "Ġnur": 8333,
      "Ġnela": 8334,
      "Ġnomes": 8335,
      "encia": 8336,
      "Ġwol": 8337,
      "aninha": 8338,
      "Ġtolo": 8339,
      "Ġbite": 8340,
      "atient": 8341,
      "Ġvic": 8342,
      "Ġvet": 8343,
      "Ġlack": 8344,
      "itude": 8345,
      "itions": 8346,
      "Ġeffe": 8347,
      "Ġsev": 8348,
      "iculous": 8349,
      "ĠWomen": 8350,
      "Ġincre": 8351,
      "ĠVer": 8352,
      "ĠAgr": 8353,
      "Ġparada": 8354,
      "Ġalf": 8355,
      "ĠHallow": 8356,
      "Ġrepr": 8357,
      "Ġreliable": 8358,
      "ĠDiv": 8359,
      "ĠDorm": 8360,
      "ĠSimp": 8361,
      "Ġgoals": 8362,
      "Ġstubb": 8363,
      "Ġsuport": 8364,
      "Ã³l": 8365,
      "Ġtrack": 8366,
      "Ġtraga": 8367,
      "Ġnevando": 8368,
      "Ġmagn": 8369,
      "Ġital": 8370,
      "Ġatendeu": 8371,
      "ĠprÃ¡tica": 8372,
      "ĠBy": 8373,
      "ĠporÃ£o": 8374,
      "Ġwithin": 8375,
      "uses": 8376,
      "Ġpregn": 8377,
      "Ġperca": 8378,
      "Ġchem": 8379,
      "Ġamam": 8380,
      "Ġexch": 8381,
      "Ġmoramos": 8382,
      "Ġmordeu": 8383,
      "ĠusÃ¡": 8384,
      "Ġdesesper": 8385,
      "Ġescriv": 8386,
      "ĠPorque": 8387,
      "istem": 8388,
      "ards": 8389,
      "Ġbrave": 8390,
      "Ġpep": 8391,
      "Ġapesar": 8392,
      "Ġtrabalhei": 8393,
      "Ġchegado": 8394,
      "ĠgrÃ¡": 8395,
      "Ġground": 8396,
      "bled": 8397,
      "ĠComer": 8398,
      "Ġplanned": 8399,
      "Ġtuas": 8400,
      "Ġimpatient": 8401,
      "Ġcompraram": 8402,
      "Ġoranges": 8403,
      "Ġmover": 8404,
      "Ġbomba": 8405,
      "ibi": 8406,
      "Ġpedimos": 8407,
      "Ġpediram": 8408,
      "ĠQuerem": 8409,
      "Ġestudado": 8410,
      "Ġconfident": 8411,
      "ĠAlmost": 8412,
      "Ġspace": 8413,
      "Ġdemand": 8414,
      "Ġsalvou": 8415,
      "Ġawful": 8416,
      "Ġourselves": 8417,
      "ĠimportÃ¢ncia": 8418,
      "Ġesperei": 8419,
      "Ġgarg": 8420,
      "Ġgarbage": 8421,
      "Ġpovo": 8422,
      "Ã´le": 8423,
      "Ġvirar": 8424,
      "Ġdownstairs": 8425,
      "Ġ13": 8426,
      "ĠAlguma": 8427,
      "Ġescreva": 8428,
      "creen": 8429,
      "Ġliguei": 8430,
      "ĠrÃ¡p": 8431,
      "ĠmÃ©dica": 8432,
      "iedade": 8433,
      "Ġenjoying": 8434,
      "Ġtirando": 8435,
      "Ġclever": 8436,
      "Ġconversou": 8437,
      "cedido": 8438,
      "Ġbegins": 8439,
      "Ġmaiores": 8440,
      "Ġaconteceria": 8441,
      "Ġcontinua": 8442,
      "Ġganhando": 8443,
      "Ġcorretamente": 8444,
      "Ġjogos": 8445,
      "Ġensinando": 8446,
      "box": 8447,
      "Ġcaverna": 8448,
      "Ġbehavior": 8449,
      "Ġarms": 8450,
      "Ġsmaller": 8451,
      "Ġ199": 8452,
      "Ġsatisf": 8453,
      "Ġbasement": 8454,
      "Ġconvidar": 8455,
      "Ġdrop": 8456,
      "Ġmembros": 8457,
      "Ġcomputers": 8458,
      "Ġsells": 8459,
      "Ġselling": 8460,
      "ĠsÃ©culo": 8461,
      "Ġceiling": 8462,
      "Ġgeral": 8463,
      "Ġavisar": 8464,
      "Ġvalor": 8465,
      "Ġchegaria": 8466,
      "Ġridiculous": 8467,
      "Ġformul": 8468,
      "Ġmandar": 8469,
      "Ġprograma": 8470,
      "Ġmedicina": 8471,
      "fortÃ¡vel": 8472,
      "Ġmentiria": 8473,
      "Ġrelaxar": 8474,
      "ĠAprendi": 8475,
      "Ġsorrir": 8476,
      "Ġsorriso": 8477,
      "Ġvoltaria": 8478,
      "Ġilleg": 8479,
      "ĠNext": 8480,
      "Ġnovels": 8481,
      "Ã´nia": 8482,
      "Ġtrancada": 8483,
      "Ġaguard": 8484,
      "Ġblew": 8485,
      "Ġflying": 8486,
      "Ġassinar": 8487,
      "Ġpersuad": 8488,
      "Ġdepends": 8489,
      "ĠCDs": 8490,
      "Ġassassinato": 8491,
      "Ġmaravilhosa": 8492,
      "Ġoceano": 8493,
      "Ġprometi": 8494,
      "Ġcomportamento": 8495,
      "ĠemergÃªncia": 8496,
      "Ġemergency": 8497,
      "ĠChoveu": 8498,
      "Ġsignificado": 8499,
      "Ġenferme": 8500,
      "Ġengineer": 8501,
      "Ġbetrayed": 8502,
      "ĠPensava": 8503,
      "ĠWithout": 8504,
      "Ġprodut": 8505,
      "ĠRoma": 8506,
      "ÃŃssimo": 8507,
      "Ġsunscreen": 8508,
      "ĠestÃºpida": 8509,
      "Ġsearch": 8510,
      "ĠDesejo": 8511,
      "Ġdisease": 8512,
      "Ġfrancesa": 8513,
      "ĠpÃ©ssimo": 8514,
      "ĠinÃºtil": 8515,
      "ĠÃ³bvio": 8516,
      "Ġschedule": 8517,
      "Ġkilometers": 8518,
      "Ġrelutante": 8519,
      "Ġpipoca": 8520,
      "ĠMesmo": 8521,
      "ĠcapitÃ£o": 8522,
      "ĠfÃ¡brica": 8523,
      "Ġferramentas": 8524,
      "Ġmethod": 8525,
      "ĠHalloween": 8526,
      "Ġstubborn": 8527,
      "Ġescrivaninha": 8528,
      "BI": 8529,
      "Do": 8530,
      "It": 8531,
      "gica": 8532,
      "ioto": 8533,
      "met": 8534,
      "ments": 8535,
      "rican": 8536,
      "sue": 8537,
      "uary": 8538,
      "ĠZ": 8539,
      "Ġdumb": 8540,
      "ern": 8541,
      "Ġserei": 8542,
      "Ġcai": 8543,
      "incol": 8544,
      "Ġnational": 8545,
      "Ġtoy": 8546,
      "Ġtoward": 8547,
      "Ġbes": 8548,
      "Ġobrigada": 8549,
      "emun": 8550,
      "empo": 8551,
      "Ġvase": 8552,
      "Ġvitam": 8553,
      "Ġlam": 8554,
      "Ġlap": 8555,
      "Ġlindo": 8556,
      "Ġloss": 8557,
      "Ãªnt": 8558,
      "Ġgor": 8559,
      "Ġgorda": 8560,
      "elhas": 8561,
      "ĠestÃ³ria": 8562,
      "amentos": 8563,
      "Ġdoendo": 8564,
      "Ġdoze": 8565,
      "Ġeager": 8566,
      "ĠMor": 8567,
      "Ġsejam": 8568,
      "ĠWar": 8569,
      "imid": 8570,
      "ety": 8571,
      "ostos": 8572,
      "ĠHur": 8573,
      "ĠHello": 8574,
      "Ġwasted": 8575,
      "ĠPac": 8576,
      "ĠSente": 8577,
      "rie": 8578,
      "riz": 8579,
      "Ġsugest": 8580,
      "undo": 8581,
      "Ġatom": 8582,
      "Ġdiante": 8583,
      "Ġcarrot": 8584,
      "ĠFica": 8585,
      "ĠFather": 8586,
      "ĠFew": 8587,
      "ĠFBI": 8588,
      "Ġdisli": 8589,
      "Ġpreci": 8590,
      "Ġsoft": 8591,
      "Ġench": 8592,
      "Ġuses": 8593,
      "Ġirres": 8594,
      "Ġagit": 8595,
      "Ġcoins": 8596,
      "Ġdesceu": 8597,
      "Ġdesanim": 8598,
      "Ġescuta": 8599,
      "Ġrealiz": 8600,
      "Ġprecisando": 8601,
      "ĠLincol": 8602,
      "Ġarmas": 8603,
      "Ġbriga": 8604,
      "ĠJune": 8605,
      "idez": 8606,
      "bres": 8607,
      "Ġthanked": 8608,
      "Ġboi": 8609,
      "Ġbobo": 8610,
      "Ãºn": 8611,
      "Ġdrown": 8612,
      "Ġlasted": 8613,
      "Ġestudamos": 8614,
      "Ġspite": 8615,
      "Ġcrimin": 8616,
      "Ġchildhood": 8617,
      "though": 8618,
      "Ġbreat": 8619,
      "Ġ11": 8620,
      "ĠRuss": 8621,
      "Ġfriendship": 8622,
      "Ġvisiting": 8623,
      "enham": 8624,
      "Ġwishes": 8625,
      "Ġquarre": 8626,
      "Ġcaptur": 8627,
      "Ġjunho": 8628,
      "Ġlemon": 8629,
      "Ġchamada": 8630,
      "Ġinsur": 8631,
      "Ġinsetos": 8632,
      "Ġsaibam": 8633,
      "Ġcalar": 8634,
      "Ġincon": 8635,
      "Ġengen": 8636,
      "Ġdurmo": 8637,
      "Ġrepla": 8638,
      "Ġretire": 8639,
      "Ġfolhas": 8640,
      "Ġadmire": 8641,
      "ĠAtl": 8642,
      "Ġpopcorn": 8643,
      "Ġdreamed": 8644,
      "Ġdreaming": 8645,
      "ĠRec": 8646,
      "ĠLeia": 8647,
      "Ġconstant": 8648,
      "Ġ195": 8649,
      "Ġ196": 8650,
      "Ġadvantage": 8651,
      "Ġcurr": 8652,
      "Ġsocial": 8653,
      "Ġcommitted": 8654,
      "Ġtestemun": 8655,
      "ucky": 8656,
      "Ġhandsome": 8657,
      "Ġdestr": 8658,
      "Ġdefend": 8659,
      "ĠProm": 8660,
      "Ġresponsibil": 8661,
      "Ġcavalheiro": 8662,
      "ĠPenso": 8663,
      "ĠmantÃ©m": 8664,
      "Ġaccent": 8665,
      "Ġdeliciosa": 8666,
      "Ġperceber": 8667,
      "Ġprior": 8668,
      "Ġagrees": 8669,
      "Ġbranca": 8670,
      "Ġcandles": 8671,
      "Ġpronoun": 8672,
      "ĠprÃ³prios": 8673,
      "Ġcolecion": 8674,
      "Ġchecked": 8675,
      "Ġdocumentos": 8676,
      "Ġadmitir": 8677,
      "Ã´mica": 8678,
      "Ġdrawer": 8679,
      "Ġmagro": 8680,
      "Ġvegetariano": 8681,
      "Ġderrot": 8682,
      "Ġlevantei": 8683,
      "Ġbirds": 8684,
      "Ġgunsh": 8685,
      "Ġnaturais": 8686,
      "Ġcuidadosamente": 8687,
      "Ġcontratou": 8688,
      "Ġlimpando": 8689,
      "Ġincomodando": 8690,
      "Ġpacking": 8691,
      "Ġpotatoes": 8692,
      "Ġbothering": 8693,
      "Ġataque": 8694,
      "Ġdecepcionado": 8695,
      "Ġmercado": 8696,
      "Ġrequest": 8697,
      "Ġsincero": 8698,
      "Ġcobertor": 8699,
      "Ġescova": 8700,
      "Ġombro": 8701,
      "levante": 8702,
      "Ġatingido": 8703,
      "Ġurgente": 8704,
      "Ġenvolvido": 8705,
      "Ġuncom": 8706,
      "Ġearns": 8707,
      "Ġproperly": 8708,
      "ĠgÃªmeos": 8709,
      "Ġaccompan": 8710,
      "Ġacalmar": 8711,
      "Ġatraente": 8712,
      "Ġ2003": 8713,
      "Ġghosts": 8714,
      "Ġeletric": 8715,
      "ĠAcredito": 8716,
      "Ġresembles": 8717,
      "Ġobey": 8718,
      "Ġembria": 8719,
      "ĠdesconfortÃ¡vel": 8720,
      "Ġdisappeared": 8721,
      "ĠromÃ¢ntico": 8722,
      "ĠmÃ³veis": 8723,
      "Ġgaveta": 8724,
      "Ġstamps": 8725,
      "ĠLogo": 8726,
      "Ġairplane": 8727,
      "ĠAgrade": 8728,
      "ĠLincoln": 8729,
      "Est": 8730,
      "bal": 8731,
      "fando": 8732,
      "iped": 8733,
      "jou": 8734,
      "kn": 8735,
      "lhes": 8736,
      "moc": 8737,
      "rÃ£o": 8738,
      "ym": 8739,
      "zed": 8740,
      "ĠdÃŃ": 8741,
      "erve": 8742,
      "Ġsone": 8743,
      "Ġcrem": 8744,
      "esc": 8745,
      "ination": 8746,
      "Ġmouse": 8747,
      "enho": 8748,
      "Ġferia": 8749,
      "Ġwit": 8750,
      "ĠquÃŃm": 8751,
      "Ġod": 8752,
      "Ġoven": 8753,
      "Ġvict": 8754,
      "Ġlave": 8755,
      "Ġesfre": 8756,
      "Ġissue": 8757,
      "Ġestiv": 8758,
      "enti": 8759,
      "ides": 8760,
      "iring": 8761,
      "ĠMal": 8762,
      "ĠMother": 8763,
      "ĠVem": 8764,
      "ĠOi": 8765,
      "Ġparking": 8766,
      "Ġanxious": 8767,
      "Ġrepa": 8768,
      "ĠDigam": 8769,
      "ldades": 8770,
      "ĠSai": 8771,
      "Ġforno": 8772,
      "Ġsujo": 8773,
      "Ġknock": 8774,
      "ĠCut": 8775,
      "Ġprud": 8776,
      "Ġprato": 8777,
      "ĠelÃ©t": 8778,
      "ĠeleiÃ§Ã£o": 8779,
      "ĠBas": 8780,
      "Ġcareless": 8781,
      "Ġdish": 8782,
      "Ġpreench": 8783,
      "Ġprepare": 8784,
      "ÃŃl": 8785,
      "ĠThink": 8786,
      "Ġpers": 8787,
      "estes": 8788,
      "Ġfridge": 8789,
      "Ġnails": 8790,
      "Ġsaf": 8791,
      "rage": 8792,
      "Ġpoderei": 8793,
      "pera": 8794,
      "Ġfalante": 8795,
      "Ġanyway": 8796,
      "aca": 8797,
      "Ġelected": 8798,
      "ified": 8799,
      "Ġlivrar": 8800,
      "Ġcontaria": 8801,
      "Ġloan": 8802,
      "Ġclientes": 8803,
      "Ġpesqu": 8804,
      "Ġsomente": 8805,
      "Ġadiv": 8806,
      "ciam": 8807,
      "Ġimprove": 8808,
      "Ġcompraria": 8809,
      "Ġinterfer": 8810,
      "Ġvoltei": 8811,
      "Ġroll": 8812,
      "Ġmob": 8813,
      "cidents": 8814,
      "Ġseguindo": 8815,
      "Ġseguros": 8816,
      "Ġconseguido": 8817,
      "Ġsurf": 8818,
      "Ġcriado": 8819,
      "imaÃ§Ã£o": 8820,
      "Ġremar": 8821,
      "Ġpobres": 8822,
      "Ġsolved": 8823,
      "Ġlevanta": 8824,
      "ĠamigÃ¡vel": 8825,
      "Ġbluff": 8826,
      "Ġcourage": 8827,
      "Ġsleeps": 8828,
      "ileza": 8829,
      "Ġcapable": 8830,
      "Ġterminaram": 8831,
      "Ġinteressada": 8832,
      "Ġacaba": 8833,
      "Ġtrabalhadores": 8834,
      "Ġcounting": 8835,
      "Ġassistente": 8836,
      "Ġatrasou": 8837,
      "Ġatrasada": 8838,
      "rub": 8839,
      "ĠAqueles": 8840,
      "Ġgreatest": 8841,
      "Ġbuck": 8842,
      "Ġtorneira": 8843,
      "Ġsubiu": 8844,
      "Ġvestiu": 8845,
      "Ġowns": 8846,
      "Ġadoraria": 8847,
      "Ġdecent": 8848,
      "Ġmachuquei": 8849,
      "ĠUnf": 8850,
      "Ġentendendo": 8851,
      "Ġempur": 8852,
      "ĠExistem": 8853,
      "ologia": 8854,
      "Ġassustou": 8855,
      "Ġexplod": 8856,
      "Ġsofr": 8857,
      "Ġapaixonou": 8858,
      "Ġactive": 8859,
      "Ġwarning": 8860,
      "Ġdisser": 8861,
      "Ġrelacion": 8862,
      "Ġblackboard": 8863,
      "Ġgentileza": 8864,
      "Ġcancelar": 8865,
      "Ġdiscussed": 8866,
      "ĠengraÃ§ada": 8867,
      "ledge": 8868,
      "Ġdessert": 8869,
      "Ġclimate": 8870,
      "Ġhugged": 8871,
      "Ġperdoe": 8872,
      "Ġestrangeiras": 8873,
      "Ġvoltaram": 8874,
      "Ġexistem": 8875,
      "Ġamericana": 8876,
      "Ġdetail": 8877,
      "Ġprisoner": 8878,
      "Ġyelling": 8879,
      "Ġblefando": 8880,
      "ĠDeveria": 8881,
      "Ġexception": 8882,
      "Ġsangrando": 8883,
      "Ġhumanos": 8884,
      "Ġdeny": 8885,
      "Ġdetesta": 8886,
      "Ġtemperature": 8887,
      "Ġsurpreendeu": 8888,
      "Ġabandonou": 8889,
      "Ġjantando": 8890,
      "Ġdespedir": 8891,
      "Ġpasta": 8892,
      "Ġtrope": 8893,
      "Ġmathematics": 8894,
      "Ġloudly": 8895,
      "Ġannoyed": 8896,
      "Ġurgent": 8897,
      "Ġappeared": 8898,
      "Ġutiliz": 8899,
      "Ġcruel": 8900,
      "Ġcalendar": 8901,
      "ĠexceÃ§Ã£o": 8902,
      "Ġelefante": 8903,
      "Ġmoedas": 8904,
      "ĠhÃ¡bito": 8905,
      "graph": 8906,
      "Ġcozinheiro": 8907,
      "Ġelephant": 8908,
      "Ġmacaco": 8909,
      "Ġcommunic": 8910,
      "Ġescolhido": 8911,
      "ĠEmbora": 8912,
      "Ġdrew": 8913,
      "Ġnurse": 8914,
      "Ġrepres": 8915,
      "Ġpregnant": 8916,
      "Ġgarganta": 8917,
      "Ġinsurance": 8918,
      "mocei": 8919,
      "Ġbluffing": 8920,
      "How": 8921,
      "chei": 8922,
      "cycle": 8923,
      "fica": 8924,
      "gante": 8925,
      "jud": 8926,
      "look": 8927,
      "mesa": 8928,
      "pite": 8929,
      "pack": 8930,
      "roc": 8931,
      "sÃ£o": 8932,
      "tal": 8933,
      "xas": 8934,
      "Âł": 8935,
      "Ġ''": 8936,
      "Ġaleg": 8937,
      "Ġdil": 8938,
      "Ġdust": 8939,
      "Ġdaria": 8940,
      "Ġsne": 8941,
      "Ġsota": 8942,
      "Ġcid": 8943,
      "Ġcough": 8944,
      "Ġcoch": 8945,
      "ison": 8946,
      "Ġnick": 8947,
      "Ġfro": 8948,
      "anhe": 8949,
      "Ġthin": 8950,
      "Ġquint": 8951,
      "Ġquadr": 8952,
      "Ã£os": 8953,
      "Ġtoys": 8954,
      "Ġbell": 8955,
      "atis": 8956,
      "atempo": 8957,
      "Ġox": 8958,
      "Ġlay": 8959,
      "Ġqueda": 8960,
      "Ġdevel": 8961,
      "ĠestÃ´m": 8962,
      "ĠestimaÃ§Ã£o": 8963,
      "iders": 8964,
      "adays": 8965,
      "ĠMoro": 8966,
      "ĠMÃ©xico": 8967,
      "icar": 8968,
      "ĠWon": 8969,
      "lex": 8970,
      "ĠAvis": 8971,
      "Ġparasse": 8972,
      "stand": 8973,
      "Ġank": 8974,
      "ilhar": 8975,
      "Ġalbum": 8976,
      "Ġrug": 8977,
      "Ġrato": 8978,
      "Ġrosas": 8979,
      "Ġreci": 8980,
      "ĠSit": 8981,
      "ĠSend": 8982,
      "ĠSiga": 8983,
      "riate": 8984,
      "Ġforest": 8985,
      "Ġemot": 8986,
      "Ġjour": 8987,
      "Ġtric": 8988,
      "Ġtrata": 8989,
      "Ġacting": 8990,
      "ĠCle": 8991,
      "Ġatual": 8992,
      "Ġprendeu": 8993,
      "ĠQuioto": 8994,
      "Ġverd": 8995,
      "Ġpork": 8996,
      "uls": 8997,
      "estim": 8998,
      "Ġfronte": 8999,
      "Ġchame": 9000,
      "Ġtexto": 9001,
      "priado": 9002,
      "Ġenven": 9003,
      "Ġlean": 9004,
      "Ġleia": 9005,
      "ĠWhatever": 9006,
      "Ġseriamente": 9007,
      "Ġprecise": 9008,
      "ĠLear": 9009,
      "lesmente": 9010,
      "ophone": 9011,
      "Ġresg": 9012,
      "Ġapuros": 9013,
      "pread": 9014,
      "Ġworkers": 9015,
      "Ġcheating": 9016,
      "Ġgrades": 9017,
      "blado": 9018,
      "bram": 9019,
      "Ġadvert": 9020,
      "cient": 9021,
      "Ġpassatempo": 9022,
      "Ġparecido": 9023,
      "Ġaffe": 9024,
      "ĠMexico": 9025,
      "Ġsobremesa": 9026,
      "Ġfilm": 9027,
      "Ġfilhas": 9028,
      "Ġencom": 9029,
      "Ġinterro": 9030,
      "ĠcaÃ§ar": 9031,
      "Ġcamp": 9032,
      "Ġconsiga": 9033,
      "ibly": 9034,
      "ĠajudarÃ¡": 9035,
      "ĠUS": 9036,
      "ĠAlthough": 9037,
      "Ġspl": 9038,
      "igaÃ§Ã£o": 9039,
      "Ġapront": 9040,
      "Ġsalad": 9041,
      "Ġsalada": 9042,
      "Ġimportantes": 9043,
      "Ġpresos": 9044,
      "Ġfaremos": 9045,
      "Ġcareca": 9046,
      "ĠsolitÃ¡rio": 9047,
      "Ġpergunte": 9048,
      "riage": 9049,
      "Ġpossess": 9050,
      "Ġquarenta": 9051,
      "Ġerrados": 9052,
      "Ġjobs": 9053,
      "Ġphotos": 9054,
      "Ġcabelos": 9055,
      "ĠdifÃŃceis": 9056,
      "Ġligando": 9057,
      "Ġvenho": 9058,
      "Ġencontraremos": 9059,
      "Ġincred": 9060,
      "Ġhosped": 9061,
      "ĠprÃ³ximos": 9062,
      "Ġkinds": 9063,
      "Ġforgetting": 9064,
      "Ġbecoming": 9065,
      "Ġdura": 9066,
      "Ġdurar": 9067,
      "Ġreceb": 9068,
      "Ġreceive": 9069,
      "Ġatraso": 9070,
      "cedor": 9071,
      "Ġdivertiu": 9072,
      "Ġburied": 9073,
      "Ġtornoz": 9074,
      "Ġskill": 9075,
      "Ġsnakes": 9076,
      "Ġacontecem": 9077,
      "Ġexcuse": 9078,
      "Ġtongue": 9079,
      "Ġrefres": 9080,
      "Ġroubar": 9081,
      "Ġviolino": 9082,
      "Ġlaughs": 9083,
      "Ġentenda": 9084,
      "Ġdistance": 9085,
      "Ġassustador": 9086,
      "Ġconstr": 9087,
      "Ġ194": 9088,
      "Ġdaughters": 9089,
      "Ġsatisfe": 9090,
      "Ġsoci": 9091,
      "Ġchocado": 9092,
      "Ġcamiseta": 9093,
      "Ġazar": 9094,
      "Ġpacote": 9095,
      "Ġmembro": 9096,
      "ĠFaÃ§o": 9097,
      "Ġpunish": 9098,
      "Ġtradu": 9099,
      "Ġaccused": 9100,
      "Ġcancelado": 9101,
      "Ġmotorcycle": 9102,
      "Ġhoped": 9103,
      "ĠsaÃŃram": 9104,
[...]
