{
  "version": "1.0",
  "truncation": null,
  "padding": null,
  "added_tokens": [
    {
      "id": 0,
      "content": "[PAD]",
      "single_word": false,
      "lstrip": false,
      "rstrip": false,
      "normalized": false,
      "special": true
    },
    {
      "id": 1,
      "content": "[UNK]",
      "single_word": false,
      "lstrip": false,
      "rstrip": false,
      "normalized": false,
      "special": true
    },
    {
      "id": 2,
      "content": "[START]",
      "single_word": false,
      "lstrip": false,
      "rstrip": false,
      "normalized": false,
      "special": true
    },
    {
      "id": 3,
      "content": "[END]",
      "single_word": false,
      "lstrip": false,
      "rstrip": false,
      "normalized": false,
      "special": true
    }
  ],
  "normalizer": null,
  "pre_tokenizer": {
    "type": "ByteLevel",
    "add_prefix_space": true,
    "trim_offsets": true,
    "use_regex": true
  },
  "post_processor": {
    "type": "TemplateProcessing",
    "single": [
      {
        "SpecialToken": {
          "id": "[START]",
          "type_id": 0
        }
      },
      {
        "Sequence": {
          "id": "A",
          "type_id": 0
        }
      },
      {
        "SpecialToken": {
          "id": "[END]",
          "type_id": 0
        }
      }
    ],
    "pair": [
      {
        "SpecialToken": {
          "id": "[START]",
          "type_id": 0
        }
      },
      {
        "Sequence": {
          "id": "A",
          "type_id": 0
        }
      },
      {
        "SpecialToken": {
          "id": "[END]",
          "type_id": 0
        }
      },
      {
        "Sequence": {
          "id": "B",
          "type_id": 1
        }
      },
      {
        "SpecialToken": {
          "id": "[END]",
          "type_id": 1
        }
      }
    ],
    "special_tokens": {
      "[END]": {
        "id": "[END]",
        "ids": [
          3
        ],
        "tokens": [
          "[END]"
        ]
      },
      "[START]": {
        "id": "[START]",
        "ids": [
          2
        ],
        "tokens": [
          "[START]"
        ]
      }
    }
  },
  "decoder": {
    "type": "BPEDecoder",
    "suffix": "</w>"
  },
  "model": {
    "type": "BPE",
    "dropout": null,
    "unk_token": "[UNK]",
    "continuing_subword_prefix": null,
    "end_of_word_suffix": null,
    "fuse_unk": false,
    "byte_fallback": false,
    "ignore_merges": false,
    "vocab": {
      "[PAD]": 0,
      "[UNK]": 1,
      "[START]": 2,
      "[END]": 3,
      "!": 4,
      "\"": 5,
      "#": 6,
      "$": 7,
      "%": 8,
      "'": 9,
      "(": 10,
      ")": 11,
      ",": 12,
      "-": 13,
      ".": 14,
      "/": 15,
      "0": 16,
      "1": 17,
      "2": 18,
      "3": 19,
      "4": 20,
      "5": 21,
      "6": 22,
      "7": 23,
      "8": 24,
      "9": 25,
      ":": 26,
      ";": 27,
      "?": 28,
      "A": 29,
      "B": 30,
      "C": 31,
      "D": 32,
      "E": 33,
      "F": 34,
      "G": 35,
      "H": 36,
      "I": 37,
      "J": 38,
      "K": 39,
      "L": 40,
      "M": 41,
      "N": 42,
      "O": 43,
      "P": 44,
      "Q": 45,
      "R": 46,
      "S": 47,
      "T": 48,
      "U": 49,
      "V": 50,
      "W": 51,
      "X": 52,
      "Y": 53,
      "Z": 54,
      "[": 55,
      "a": 56,
      "b": 57,
      "c": 58,
      "d": 59,
      "e": 60,
      "f": 61,
      "g": 62,
      "h": 63,
      "i": 64,
      "j": 65,
      "k": 66,
      "l": 67,
      "m": 68,
      "n": 69,
      "o": 70,
      "p": 71,
      "q": 72,
      "r": 73,
      "s": 74,
      "t": 75,
      "u": 76,
      "v": 77,
      "w": 78,
      "x": 79,
      "y": 80,
      "z": 81,
      "¡": 82,
      "¢": 83,
      "£": 84,
      "§": 85,
      "¨": 86,
      "©": 87,
      "ª": 88,
      "°": 89,
      "³": 90,
      "´": 91,
      "µ": 92,
      "º": 93,
      "Â": 94,
      "Ã": 95,
      "Ð": 96,
      "â": 97,
      "Ġ": 98,
      "Ģ": 99,
      "ģ": 100,
      "Ĥ": 101,
      "ī": 102,
      "į": 103,
      "Ĳ": 104,
      "ĵ": 105,
      "Ķ": 106,
      "Ļ": 107,
      "ł": 108,
      "Ń": 109,
      "Ġt": 110,
      "Ġa": 111,
      "om": 112,
      "ĠT": 113,
      "Ġd": 114,
      "er": 115,
      "Ġs": 116,
      "ou": 117,
      "ar": 118,
      "ĠTom": 119,
      "Ġc": 120,
      "es": 121,
      "in": 122,
      "Ġm": 123,
      "Ġp": 124,
      "is": 125,
      "Ġn": 126,
      "en": 127,
      "on": 128,
      "ĠI": 129,
      "Ġf": 130,
      "qu": 131,
      "Ġw": 132,
      "Ġth": 133,
      "an": 134,
      "or": 135,
      "Ġh": 136,
      "os": 137,
      "Ġqu": 138,
      "as": 139,
      "re": 140,
      "Ã£": 141,
      "Ġto": 142,
      "ĠE": 143,
      "Ã£o": 144,
      "Ġb": 145,
      "at": 146,
      "Ġo": 147,
      "em": 148,
      "Ġv": 149,
      "Ġl": 150,
      "Ġy": 151,
      "it": 152,
      "Ġes": 153,
      "Ġque": 154,
      "Ġde": 155,
      "Ġyou": 156,
      "ed": 157,
      "Ãª": 158,
      "ing": 159,
      "do": 160,
      "el": 161,
      "Ġg": 162,
      "oc": 163,
      "Ġis": 164,
      "Ã¡": 165,
      "Ġu": 166,
      "Ġest": 167,
      "al": 168,
      "'t": 169,
      "ocÃª": 170,
      "Ġthe": 171,
      "ĠEu": 172,
      "av": 173,
      "ĠÃ": 174,
      "am": 175,
      "ĠnÃ£o": 176,
      "ent": 177,
      "Ġdo": 178,
      "id": 179,
      "Ġe": 180,
      "ia": 181,
      "Ġme": 182,
      "ad": 183,
      "Ġcom": 184,
      "ir": 185,
      "ĠM": 186,
      "he": 187,
      "Ġse": 188,
      "im": 189,
      "ic": 190,
      "ĠW": 191,
      "le": 192,
      "Ġum": 193,
      "ĠÃ©": 194,
      "ho": 195,
      "Ġin": 196,
      "so": 197,
      "ro": 198,
      "Ġno": 199,
      "ant": 200,
      "ĠA": 201,
      "ĠV": 202,
      "ĠN": 203,
      "ĠO": 204,
      "Ġthat": 205,
      "Ġan": 206,
      "Ġpar": 207,
      "st": 208,
      "il": 209,
      "et": 210,
      "ost": 211,
      "ĠMar": 212,
      "ĠVocÃª": 213,
      "ow": 214,
      "se": 215,
      "ig": 216,
      "ve": 217,
      "ay": 218,
      "'s": 219,
      "Ġbe": 220,
      "ĠvocÃª": 221,
      "ere": 222,
      "ver": 223,
      "Ġmu": 224,
      "Ġal": 225,
      "Ġr": 226,
      "ch": 227,
      "Ġgo": 228,
      "ĠMary": 229,
      "Ġk": 230,
      "Ġli": 231,
      "Ġwas": 232,
      "ĠH": 233,
      "ol": 234,
      "hat": 235,
      "ave": 236,
      "ĠestÃ¡": 237,
      "od": 238,
      "Ġcon": 239,
      "Ġre": 240,
      "Ġon": 241,
      "Ã§": 242,
      "Ġof": 243,
      "Ġpara": 244,
      "ĠD": 245,
      "Ġfa": 246,
      "ld": 247,
      "un": 248,
      "ab": 249,
      "ke": 250,
      "ĠS": 251,
      "ĠP": 252,
      "ri": 253,
      "te": 254,
      "Ġem": 255,
      "ado": 256,
      "Ġas": 257,
      "Ġfor": 258,
      "Ġj": 259,
      "Ġst": 260,
      "Ġisso": 261,
      "ce": 262,
      "Ã³": 263,
      "Ġtr": 264,
      "ando": 265,
      "Ġkn": 266,
      "ito": 267,
      "Ġfaz": 268,
      "Ġne": 269,
      "ente": 270,
      "ĠNÃ£o": 271,
      "ĠY": 272,
      "Ġsu": 273,
      "th": 274,
      "Ġma": 275,
      "ĠYou": 276,
      "Ġhave": 277,
      "ta": 278,
      "Ġwant": 279,
      "Ġdon": 280,
      "ĠThe": 281,
      "Ġac": 282,
      "ha": 283,
      "gu": 284,
      "Ġknow": 285,
      "to": 286,
      "'m": 287,
      "Ġit": 288,
      "Ġdid": 289,
      "Ã©": 290,
      "Ġhe": 291,
      "ould": 292,
      "ter": 293,
      "Ġuma": 294,
      "out": 295,
      "Ġquer": 296,
      "ava": 297,
      "Ġtem": 298,
      "ĠC": 299,
      "Ġat": 300,
      "Ġcan": 301,
      "ĠWe": 302,
      "Ġfazer": 303,
      "ly": 304,
      "ai": 305,
      "ĠB": 306,
      "de": 307,
      "ht": 308,
      "Ġdi": 309,
      "Ġel": 310,
      "Ġthis": 311,
      "Ġpr": 312,
      "Ġver": 313,
      "us": 314,
      "ap": 315,
      "Ġmy": 316,
      "Ġeu": 317,
      "la": 318,
      "ith": 319,
      "Ġmuito": 320,
      "Qu": 321,
      "Ġcar": 322,
      "ill": 323,
      "ĠQu": 324,
      "ĠEst": 325,
      "ink": 326,
      "Ġpre": 327,
      "Ġwith": 328,
      "amos": 329,
      "Ġlike": 330,
      "ĠF": 331,
      "Ġlo": 332,
      "ome": 333,
      "ion": 334,
      "ok": 335,
      "ĠTh": 336,
      "Ġyour": 337,
      "ud": 338,
      "Ġpor": 339,
      "ÃŃ": 340,
      "Ġdis": 341,
      "Ġso": 342,
      "ut": 343,
      "ess": 344,
      "ur": 345,
      "end": 346,
      "Ġab": 347,
      "Ġnot": 348,
      "Ġare": 349,
      "ul": 350,
      "Ġfr": 351,
      "Ġper": 352,
      "ĠHe": 353,
      "ĠIt": 354,
      "ei": 355,
      "one": 356,
      "Ġch": 357,
      "est": 358,
      "Ġthink": 359,
      "Ġmais": 360,
      "ĠEle": 361,
      "ĠBost": 362,
      "pe": 363,
      "ĠBoston": 364,
      "ust": 365,
      "Ġfo": 366,
      "ll": 367,
      "Ġsab": 368,
      "ada": 369,
      "Ġwe": 370,
      "'re": 371,
      "Ġte": 372,
      "Ġam": 373,
      "pr": 374,
      "inha": 375,
      "Ġna": 376,
      "Ġpro": 377,
      "Ġand": 378,
      "Ġestava": 379,
      "Ã³s": 380,
      "Ġhis": 381,
      "ĠWh": 382,
      "ind": 383,
      "Ãªs": 384,
      "Ġgost": 385,
      "ade": 386,
      "Ġen": 387,
      "Ġsa": 388,
      "Ġdidn": 389,
      "Ġda": 390,
      "Ġmor": 391,
      "Ġpod": 392,
      "Ġus": 393,
      "Ġaqu": 394,
      "Ġex": 395,
      "ra": 396,
      "Ġfal": 397,
      "um": 398,
      "Ġwhat": 399,
      "Ġir": 400,
      "per": 401,
      "ĠWhat": 402,
      "Ġle": 403,
      "ell": 404,
      "Ġag": 405,
      "Ġco": 406,
      "Ġcas": 407,
      "'ll": 408,
      "cis": 409,
      "ren": 410,
      "Ġdes": 411,
      "ĠDo": 412,
      "ight": 413,
      "Ġbo": 414,
      "Ġfe": 415,
      "Ġany": 416,
      "Ġpl": 417,
      "Ġwh": 418,
      "ac": 419,
      "ora": 420,
      "iz": 421,
      "ime": 422,
      "Ġele": 423,
      "Ġesc": 424,
      "'ve": 425,
      "ag": 426,
      "Ġwor": 427,
      "Ġhas": 428,
      "ĠIs": 429,
      "if": 430,
      "Ġout": 431,
      "Ġfoi": 432,
      "Ġsh": 433,
      "Ġter": 434,
      "Ġvery": 435,
      "po": 436,
      "Ã©m": 437,
      "pen": 438,
      "io": 439,
      "Ġhere": 440,
      "Ġvai": 441,
      "Ġneed": 442,
      "Ġgoing": 443,
      "Ġten": 444,
      "and": 445,
      "Ġser": 446,
      "ido": 447,
      "ĠNÃ³s": 448,
      "ĠPor": 449,
      "co": 450,
      "Ġdoes": 451,
      "ca": 452,
      "Ġho": 453,
      "Ġseu": 454,
      "Ġcome": 455,
      "ite": 456,
      "emos": 457,
      "Ġabout": 458,
      "Ġprecis": 459,
      "Ġaqui": 460,
      "very": 461,
      "ĠThis": 462,
      "ive": 463,
      "Ġwill": 464,
      "Ġtod": 465,
      "Ġget": 466,
      "ĠÃł": 467,
      "Ġim": 468,
      "Ġmeu": 469,
      "Ġdisse": 470,
      "ĠEla": 471,
      "Ġreal": 472,
      "Ġfic": 473,
      "ast": 474,
      "ass": 475,
      "endo": 476,
      "Ġhim": 477,
      "Ġer": 478,
      "ĠShe": 479,
      "ong": 480,
      "Ġall": 481,
      "Ġtime": 482,
      "thing": 483,
      "der": 484,
      "oug": 485,
      "ain": 486,
      "anc": 487,
      "go": 488,
      "ĠL": 489,
      "iro": 490,
      "ther": 491,
      "ĠThey": 492,
      "Ġos": 493,
      "Ġman": 494,
      "Ġone": 495,
      "Ġou": 496,
      "Ġcasa": 497,
      "les": 498,
      "Ġliv": 499,
      "ist": 500,
      "ak": 501,
      "aria": 502,
      "Ġhel": 503,
      "alk": 504,
      "Ã§a": 505,
      "ase": 506,
      "hor": 507,
      "ame": 508,
      "ry": 509,
      "op": 510,
      "iv": 511,
      "Ġjo": 512,
      "ĠÃī": 513,
      "iu": 514,
      "ĠHow": 515,
      "osso": 516,
      "Ġhelp": 517,
      "gun": 518,
      "ard": 519,
      "Ġsem": 520,
      "Ġun": 521,
      "Ġaj": 522,
      "Ġup": 523,
      "ach": 524,
      "Ġar": 525,
      "ĠThat": 526,
      "her": 527,
      "igo": 528,
      "ug": 529,
      "Ġhap": 530,
      "ish": 531,
      "Ġsua": 532,
      "Ġquero": 533,
      "rench": 534,
      "ort": 535,
      "Ġres": 536,
      "ĠFrench": 537,
      "Ã§Ã£o": 538,
      "avor": 539,
      "Ġap": 540,
      "inda": 541,
      "Ġcomp": 542,
      "ct": 543,
      "Ġcont": 544,
      "Ġdoesn": 545,
      "Ġfavor": 546,
      "Ġpe": 547,
      "all": 548,
      "Ġsei": 549,
      "Ġajud": 550,
      "ĠJ": 551,
      "Ġent": 552,
      "que": 553,
      "Ġao": 554,
      "ancÃªs": 555,
      "ont": 556,
      "Ġwould": 557,
      "Ġminha": 558,
      "Ġhad": 559,
      "Ġestou": 560,
      "Ġisn": 561,
      "Ġmo": 562,
      "Ġwere": 563,
      "up": 564,
      "Ġwon": 565,
      "oss": 566,
      "ĠEs": 567,
      "Ġche": 568,
      "Ġshould": 569,
      "fe": 570,
      "ate": 571,
      "Ġcl": 572,
      "ree": 573,
      "ante": 574,
      "red": 575,
      "Ġtenho": 576,
      "ĠWhy": 577,
      "onte": 578,
      "cer": 579,
      "ĠDon": 580,
      "Ġacho": 581,
      "'d": 582,
      "Ġalgu": 583,
      "abal": 584,
      "ais": 585,
      "Ġve": 586,
      "bre": 587,
      "ens": 588,
      "ake": 589,
      "indo": 590,
      "mente": 591,
      "Ġwork": 592,
      "ore": 593,
      "ays": 594,
      "bl": 595,
      "Ġsou": 596,
      "Ġtrabal": 597,
      "ĠEstou": 598,
      "ep": 599,
      "Ġpes": 600,
      "ice": 601,
      "ide": 602,
      "Ġass": 603,
      "ma": 604,
      "Ġtalk": 605,
      "amente": 606,
      "anto": 607,
      "Ġevery": 608,
      "Ġpode": 609,
      "Ġdiz": 610,
      "Ġfrom": 611,
      "ack": 612,
      "ĠMy": 613,
      "Ġsabe": 614,
      "ĠestÃ£o": 615,
      "Ġsaid": 616,
      "me": 617,
      "Ġesper": 618,
      "Ġnov": 619,
      "je": 620,
      "Ġbeen": 621,
      "Ġlook": 622,
      "Ġsom": 623,
      "Ġmes": 624,
      "mo": 625,
      "Ġgr": 626,
      "pre": 627,
      "Ġad": 628,
      "Ġher": 629,
      "ĠfrancÃªs": 630,
      "Ġcois": 631,
      "ought": 632,
      "ĠG": 633,
      "ĠsÃ£o": 634,
      "Ġbem": 635,
      "Ġthan": 636,
      "Ġthere": 637,
      "ĠVocÃªs": 638,
      "Ġtempo": 639,
      "Ġgood": 640,
      "Ġplan": 641,
      "unca": 642,
      "br": 643,
      "Ġcer": 644,
      "ĠjÃ¡": 645,
      "cia": 646,
      "cho": 647,
      "ie": 648,
      "ix": 649,
      "Ġeat": 650,
      "Ġsee": 651,
      "lo": 652,
      "ĠMaria": 653,
      "ja": 654,
      "ira": 655,
      "Ġnever": 656,
      "ĠCom": 657,
      "Ġpare": 658,
      "Ġcould": 659,
      "rio": 660,
      "ĠCan": 661,
      "Ġainda": 662,
      "Ġtu": 663,
      "ĠEles": 664,
      "ĠIsso": 665,
      "ĠAre": 666,
      "Ġimp": 667,
      "Ġgot": 668,
      "Ġfalar": 669,
      "ci": 670,
      "Ġspe": 671,
      "ang": 672,
      "Ġby": 673,
      "orro": 674,
      "Ġdever": 675,
      "Ġask": 676,
      "Ġpass": 677,
      "ĠvocÃªs": 678,
      "ico": 679,
      "oun": 680,
      "aram": 681,
      "Ġcomo": 682,
      "Ġnada": 683,
      "Ġsome": 684,
      "Ġnow": 685,
      "ica": 686,
      "Ġbr": 687,
      "ber": 688,
      "Ġsen": 689,
      "ingu": 690,
      "anh": 691,
      "ida": 692,
      "Ġjust": 693,
      "Ġaf": 694,
      "Ã§o": 695,
      "ĠMe": 696,
      "wn": 697,
      "Ġmel": 698,
      "Ġ\"": 699,
      "Ġhou": 700,
      "vel": 701,
      "Ġvou": 702,
      "ele": 703,
      "Ġera": 704,
      "Ġestar": 705,
      "ĠThere": 706,
      "hing": 707,
      "Ġfil": 708,
      "Ġstill": 709,
      "Ġwho": 710,
      "Ġbook": 711,
      "Ġreally": 712,
      "Ġaconte": 713,
      "inguÃ©m": 714,
      "Ġtom": 715,
      "ustr": 716,
      "Ġinter": 717,
      "Ġqueria": 718,
      "car": 719,
      "ried": 720,
      "sel": 721,
      "Ġsobre": 722,
      "Ġvez": 723,
      "ceu": 724,
      "ela": 725,
      "Ãº": 726,
      "Ġtell": 727,
      "Ġbus": 728,
      "Ġmuch": 729,
      "Ġpesso": 730,
      "Ġhappen": 731,
      "Ġspeak": 732,
      "Ġmelhor": 733,
      "Ġsent": 734,
      "art": 735,
      "ody": 736,
      "ĠtÃ£o": 737,
      "Ġhome": 738,
      "ose": 739,
      "Ġlot": 740,
      "Ġquando": 741,
      "ĠAustr": 742,
      "ty": 743,
      "lease": 744,
      "Ġtoo": 745,
      "ous": 746,
      "Ġeste": 747,
      "blem": 748,
      "Ġor": 749,
      "inho": 750,
      "Ġdif": 751,
      "Ġtold": 752,
      "Ġproblem": 753,
      "Ġdin": 754,
      "Ġach": 755,
      "body": 756,
      "Ġcarro": 757,
      "Ġmim": 758,
      "Ġback": 759,
      "ĠlÃ¡": 760,
      "ita": 761,
      "ady": 762,
      "ĠAs": 763,
      "riend": 764,
      "Ġenc": 765,
      "Ġagora": 766,
      "Ġplay": 767,
      "Ġcompr": 768,
      "Ġnunca": 769,
      "orm": 770,
      "gar": 771,
      "Ġconhe": 772,
      "Ġhow": 773,
      "day": 774,
      "Ġmin": 775,
      "Ġdoing": 776,
      "Ġif": 777,
      "Ġlong": 778,
      "Ġnos": 779,
      "Ġpergun": 780,
      "az": 781,
      "ear": 782,
      "ĠNo": 783,
      "Ġficar": 784,
      "Ġvol": 785,
      "Ġgu": 786,
      "Ãªn": 787,
      "Ġcam": 788,
      "Ġbu": 789,
      "etter": 790,
      "Ġescol": 791,
      "Ġsomet": 792,
      "ait": 793,
      "hos": 794,
      "Ġfez": 795,
      "Ġdeix": 796,
      "Ġmore": 797,
      "Ġsabia": 798,
      "ento": 799,
      "Ġoff": 800,
      "Ġcol": 801,
      "Ġlast": 802,
      "ĠSe": 803,
      "idade": 804,
      "ven": 805,
      "Ġro": 806,
      "eria": 807,
      "Ġcons": 808,
      "Ġwhen": 809,
      "Ġdeveria": 810,
      "Ġposso": 811,
      "Ġbut": 812,
      "heiro": 813,
      "Ġhoje": 814,
      "ĠDid": 815,
      "Ġencont": 816,
      "Ġdr": 817,
      "Ġcor": 818,
      "Ġstud": 819,
      "Ġanything": 820,
      "Ġdele": 821,
      "Ġgosta": 822,
      "Ġca": 823,
      "ista": 824,
      "Ġgosto": 825,
      "Ġsho": 826,
      "Ġyear": 827,
      "ados": 828,
      "ather": 829,
      "Ġpou": 830,
      "ĠOn": 831,
      "ild": 832,
      "Ġsomething": 833,
      "ng": 834,
      "Ġwasn": 835,
      "Ġdizer": 836,
      "Ġbom": 837,
      "ation": 838,
      "ib": 839,
      "vi": 840,
      "Ġwait": 841,
      "Ġquem": 842,
      "cid": 843,
      "sa": 844,
      "Ġcoisa": 845,
      "ĠComo": 846,
      "Ġtudo": 847,
      "lia": 848,
      "Ġsay": 849,
      "elo": 850,
      "Ġfel": 851,
      "Ġthree": 852,
      "Ġhav": 853,
      "itt": 854,
      "ople": 855,
      "ĠLet": 856,
      "Ġfriend": 857,
      "Ġtent": 858,
      "segu": 859,
      "self": 860,
      "ĠWho": 861,
      "Ġtinha": 862,
      "Ġdia": 863,
      "ĠtrÃªs": 864,
      "ian": 865,
      "ick": 866,
      "Ġvi": 867,
      "Ġmar": 868,
      "Ġagain": 869,
      "ros": 870,
      "ying": 871,
      "Ġday": 872,
      "Ġwr": 873,
      "Ġvis": 874,
      "Ġright": 875,
      "Ġped": 876,
      "tar": 877,
      "Ġmen": 878,
      "oney": 879,
      "ĠWhere": 880,
      "ning": 881,
      "Ġnoite": 882,
      "Ġconsegu": 883,
      "Ġmas": 884,
      "are": 885,
      "esse": 886,
      "Ġtoday": 887,
      "Ġti": 888,
      "ĠHave": 889,
      "Ġbro": 890,
      "cil": 891,
      "rar": 892,
      "Ġwanted": 893,
      "iss": 894,
      "Ġnew": 895,
      "edo": 896,
      "Ġstay": 897,
      "Ġprecisa": 898,
      "Ġdinheiro": 899,
      "Ġhouse": 900,
      "Ġesta": 901,
      "Ġanos": 902,
      "Ġlivro": 903,
      "Ġajudar": 904,
      "Ġmoney": 905,
      "ĠQuem": 906,
      "Ġirm": 907,
      "ese": 908,
      "Ġunder": 909,
      "jo": 910,
      "mer": 911,
      "ord": 912,
      "Ġparece": 913,
      "orrow": 914,
      "get": 915,
      "Ġwat": 916,
      "dade": 917,
      "Ġpeople": 918,
      "Ġnovo": 919,
      "Ġthing": 920,
      "Ġbetter": 921,
      "Ġtodos": 922,
      "ound": 923,
      "tes": 924,
      "za": 925,
      "ĠQuer": 926,
      "Ġtake": 927,
      "Ġthey": 928,
      "Ġpouco": 929,
      "Ġold": 930,
      "Ġela": 931,
      "Ġsoz": 932,
      "Ġsur": 933,
      "Ġpessoas": 934,
      "ĠhÃ¡": 935,
      "Ġverdade": 936,
      "Ġlove": 937,
      "be": 938,
      "va": 939,
      "Ã¡s": 940,
      "ine": 941,
      "Ġsempre": 942,
      "Ġestud": 943,
      "Ġonly": 944,
      "ers": 945,
      "Ġcr": 946,
      "enho": 947,
      "Ġmesmo": 948,
      "Ġfiz": 949,
      "Ġwhere": 950,
      "kes": 951,
      "Ġfl": 952,
      "Ġthought": 953,
      "ĠEste": 954,
      "ck": 955,
      "ready": 956,
      "Ġbel": 957,
      "Ġseem": 958,
      "Ġalready": 959,
      "ways": 960,
      "Ġ2": 961,
      "Ġpens": 962,
      "ima": 963,
      "ue": 964,
      "ĠÃº": 965,
      "ĠAl": 966,
      "ĠOs": 967,
      "ĠOnde": 968,
      "ĠnÃ³s": 969,
      "ĠDe": 970,
      "Ġtrabalho": 971,
      "anhÃ£": 972,
      "Ã¡rio": 973,
      "Ġalways": 974,
      "Ġrec": 975,
      "chool": 976,
      "Ġaw": 977,
      "Ġquanto": 978,
      "Ġmany": 979,
      "Ġshe": 980,
      "ely": 981,
      "Ġonde": 982,
      "Ġwell": 983,
      "ato": 984,
      "Ġsenhor": 985,
      "Ġbuy": 986,
      "ras": 987,
      "tem": 988,
      "Ġschool": 989,
      "Ġwent": 990,
      "Ġmake": 991,
      "Ġfeliz": 992,
      "ew": 993,
      "Ġide": 994,
      "ĠTod": 995,
      "Ġcall": 996,
      "Ġol": 997,
      "ĠPlease": 998,
      "ĠU": 999,
      "orn": 1000,
      "ender": 1001,
      "Ġfam": 1002,
      "Ġfun": 1003,
      "Ġano": 1004,
      "urn": 1005,
      "Ġchild": 1006,
      "Ġtw": 1007,
      "aix": 1008,
      "ten": 1009,
      "ure": 1010,
      "ĠEvery": 1011,
      "Ġtomorrow": 1012,
      "ĠTenho": 1013,
      "Ġsw": 1014,
      "Ġasked": 1015,
      "itar": 1016,
      "leep": 1017,
      "Ġalgo": 1018,
      "Ġhope": 1019,
      "Ġposs": 1020,
      "oso": 1021,
      "Ġdone": 1022,
      "ting": 1023,
      "ved": 1024,
      "Ġhor": 1025,
      "har": 1026,
      "py": 1027,
      "Ġmade": 1028,
      "Ġread": 1029,
      "Ġsure": 1030,
      "Ġdem": 1031,
      "ĠsÃ³": 1032,
      "ĠÃ¡": 1033,
      "Ġsm": 1034,
      "Ġsp": 1035,
      "Ġoc": 1036,
      "iga": 1037,
      "Ġever": 1038,
      "xt": 1039,
      "Ġfind": 1040,
      "ents": 1041,
      "ici": 1042,
      "Ġmat": 1043,
      "rem": 1044,
      "Ġcomer": 1045,
      "Ġconf": 1046,
      "Ġteach": 1047,
      "Ġour": 1048,
      "Ġimport": 1049,
      "Ġcri": 1050,
      "ĠamanhÃ£": 1051,
      "Ġdog": 1052,
      "Ġfu": 1053,
      "ĠPre": 1054,
      "Ġcare": 1055,
      "ĠQual": 1056,
      "ĠcomeÃ§": 1057,
      "ĠGost": 1058,
      "fore": 1059,
      "las": 1060,
      "Ãµ": 1061,
      "Ġseus": 1062,
      "rei": 1063,
      "ador": 1064,
      "ough": 1065,
      "ĠMeu": 1066,
      "Ġacha": 1067,
      "Ġdev": 1068,
      "ĠprÃ³": 1069,
      "Ġpoderia": 1070,
      "arn": 1071,
      "Ġpen": 1072,
      "Ġfin": 1073,
      "ĠNinguÃ©m": 1074,
      "vers": 1075,
      "Ġmun": 1076,
      "Ġontem": 1077,
      "Ġused": 1078,
      "Ġbelie": 1079,
      "Ġsor": 1080,
      "Ġcost": 1081,
      "Ġway": 1082,
      "Ġcomigo": 1083,
      "ĠAcho": 1084,
      "Ġbefore": 1085,
      "Ġfeel": 1086,
      "Ġapr": 1087,
      "Ġpo": 1088,
      "Ġfar": 1089,
      "ich": 1090,
      "Ġpres": 1091,
      "Ġunderst": 1092,
      "ance": 1093,
      "Ġknew": 1094,
      "ĠmÃ£": 1095,
      "Ġprof": 1096,
      "Ġpol": 1097,
      "anÃ§": 1098,
      "ict": 1099,
      "Ġlive": 1100,
      "Ġescola": 1101,
      "Ġroom": 1102,
      "Ġmundo": 1103,
      "Ġcho": 1104,
      "ilo": 1105,
      "ĠWhen": 1106,
      "upado": 1107,
      "Ġpai": 1108,
      "Ġesp": 1109,
      "Ġke": 1110,
      "Ġfazendo": 1111,
      "ult": 1112,
      "Ġbusy": 1113,
      "Ġsal": 1114,
      "Ġfi": 1115,
      "Ġvir": 1116,
      "Ã¡lia": 1117,
      "ĠHÃ¡": 1118,
      "Ġnext": 1119,
      "Ãµes": 1120,
      "mas": 1121,
      "Ġdar": 1122,
      "Ġantes": 1123,
      "da": 1124,
      "gou": 1125,
      "Ġdorm": 1126,
      "ina": 1127,
      "Ġgar": 1128,
      "Ġdown": 1129,
      "able": 1130,
      "teza": 1131,
      "Ġacred": 1132,
      "ittle": 1133,
      ".\"": 1134,
      "fer": 1135,
      "Ġname": 1136,
      "Ġlittle": 1137,
      "ĠQue": 1138,
      "Ġcerteza": 1139,
      "ual": 1140,
      "Ġsol": 1141,
      "Ġthem": 1142,
      "ana": 1143,
      "irst": 1144,
      "Ġexp": 1145,
      "ek": 1146,
      "Ġisto": 1147,
      "Ġpreciso": 1148,
      "Ġresp": 1149,
      "Ġsozinho": 1150,
      "ua": 1151,
      "Ġdecid": 1152,
      "Ġyears": 1153,
      "age": 1154,
      "Ġnight": 1155,
      "Ġstart": 1156,
      "Ġknows": 1157,
      "ĠEsta": 1158,
      "Ġwhy": 1159,
      "ft": 1160,
      "ĠR": 1161,
      "Ġmust": 1162,
      "deu": 1163,
      "no": 1164,
      "ĠninguÃ©m": 1165,
      "Ġgive": 1166,
      "alia": 1167,
      "Ġouv": 1168,
      "Ġalguma": 1169,
      "ior": 1170,
      "enh": 1171,
      "ated": 1172,
      "Ġla": 1173,
      "Ġesque": 1174,
      "ĠQuando": 1175,
      "Ġgostaria": 1176,
      "Ġhappy": 1177,
      "ĠAustrÃ¡lia": 1178,
      "Ġcach": 1179,
      "Ġquest": 1180,
      "ĠVou": 1181,
      "Ġrealmente": 1182,
      "Ġafter": 1183,
      "Ġhappened": 1184,
      "ĠAustralia": 1185,
      "tos": 1186,
      "Ġstop": 1187,
      "ful": 1188,
      "Ġson": 1189,
      "esta": 1190,
      "Ġnome": 1191,
      "ĠIf": 1192,
      "Ġfather": 1193,
      "Ġlet": 1194,
      "ĠVamos": 1195,
      "Ġweek": 1196,
      "ester": 1197,
      "Ġsegu": 1198,
      "Ġwants": 1199,
      "tor": 1200,
      "Ġ1": 1201,
      "ank": 1202,
      "Ġhom": 1203,
      "ĠQuero": 1204,
      "Ġmost": 1205,
      "Ġmeus": 1206,
      "Ġunderstand": 1207,
      "Ġcu": 1208,
      "amb": 1209,
      "Ġrem": 1210,
      "Ġtemos": 1211,
      "esterday": 1212,
      "par": 1213,
      "son": 1214,
      "ock": 1215,
      "Ġdesc": 1216,
      "Ġtwo": 1217,
      "ĠTu": 1218,
      "Ġtodo": 1219,
      "ign": 1220,
      "Ã©d": 1221,
      "Ġsaw": 1222,
      "Ġeverything": 1223,
      "ĠPrecis": 1224,
      "qui": 1225,
      "asse": 1226,
      "itos": 1227,
      "avam": 1228,
      "ÃŃvel": 1229,
      "Ġleft": 1230,
      "Ġaconteceu": 1231,
      "ngl": 1232,
      "pp": 1233,
      "Ã´": 1234,
      "Ġfirst": 1235,
      "ugar": 1236,
      "gry": 1237,
      "Ġsaber": 1238,
      "Ġsurpr": 1239,
      "air": 1240,
      "ge": 1241,
      "imo": 1242,
      "ĠEstÃ¡": 1243,
      "min": 1244,
      "Ġlhe": 1245,
      "Ġbelieve": 1246,
      "Ġbar": 1247,
      "Ġvel": 1248,
      "Ġleave": 1249,
      "Ġassim": 1250,
      "Ãªncia": 1251,
      "ĠTodos": 1252,
      "Ġprofess": 1253,
      "ria": 1254,
      "Ġquar": 1255,
      "Ġbought": 1256,
      "Ġother": 1257,
      "Ġalone": 1258,
      "Ġlev": 1259,
      "oub": 1260,
      "ity": 1261,
      "Ġeven": 1262,
      "sto": 1263,
      "Ġpreoc": 1264,
      "ves": 1265,
      "Ġdos": 1266,
      "ĠElas": 1267,
      "Ġvo": 1268,
      "Ġlist": 1269,
      "arde": 1270,
      "Ġdisso": 1271,
      "Ġcachorro": 1272,
      "pt": 1273,
      "Ġbl": 1274,
      "Ġopen": 1275,
      "Ġdoor": 1276,
      "Ġear": 1277,
      "Ġfriends": 1278,
      "Ġvisit": 1279,
      "Ġyet": 1280,
      "Ġyesterday": 1281,
      "Ġquestion": 1282,
      "Ġdu": 1283,
      "Ġput": 1284,
      "Ġnum": 1285,
      "Ġgir": 1286,
      "Ġmet": 1287,
      "Ġpart": 1288,
      "Ġdemais": 1289,
      "ambÃ©m": 1290,
      "Ġsleep": 1291,
      "Ġesse": 1292,
      "ĠatÃ©": 1293,
      "Ġprom": 1294,
      "Ġlearn": 1295,
      "Ġerr": 1296,
      "ĠEsper": 1297,
      "Ġchildren": 1298,
      "cion": 1299,
      "ence": 1300,
      "antar": 1301,
      "olo": 1302,
      "Ġamig": 1303,
      "Ġcoisas": 1304,
      "enhum": 1305,
      "ĠIsto": 1306,
      "Ġlugar": 1307,
      "Ġmeet": 1308,
      "Ġwatch": 1309,
      "Ġgirl": 1310,
      "Ġinto": 1311,
      "ĠJo": 1312,
      "Ġcomprar": 1313,
      "wer": 1314,
      "Ġing": 1315,
      "Ġbre": 1316,
      "ĠFr": 1317,
      "?\"": 1318,
      "ary": 1319,
      "Ġcab": 1320,
      "ans": 1321,
      "anÃ§a": 1322,
      "gua": 1323,
      "ĠÃłs": 1324,
      "Ġsemana": 1325,
      "ange": 1326,
      "Ġpergunt": 1327,
      "Ġtele": 1328,
      "Ã¡vel": 1329,
      "Ġestamos": 1330,
      "Ġporta": 1331,
      "Ġinterest": 1332,
      "ĠmÃ£e": 1333,
      "Ġcap": 1334,
      "Ġhard": 1335,
      "Ġessa": 1336,
      "Ġrain": 1337,
      "Ġbrother": 1338,
      "Ġcat": 1339,
      "Ġhora": 1340,
      "Ġans": 1341,
      "ĠPosso": 1342,
      "Ġwonder": 1343,
      "Ġsit": 1344,
      "Ġmedo": 1345,
      "Ġvida": 1346,
      "Ãªm": 1347,
      "let": 1348,
      "press": 1349,
      "has": 1350,
      "ise": 1351,
      "Ġeles": 1352,
      "Ġprime": 1353,
      "Ġpret": 1354,
      "Ġdrink": 1355,
      "ĠtambÃ©m": 1356,
      "Ġsin": 1357,
      "Ġwish": 1358,
      "Ġover": 1359,
      "Ġsoon": 1360,
      "ĠJap": 1361,
      "cre": 1362,
      "hÃ£": 1363,
      "int": 1364,
      "ember": 1365,
      "Ġvamos": 1366,
      "ital": 1367,
      "Ġprov": 1368,
      "Ġsair": 1369,
      "ĠmanhÃ£": 1370,
      "Ġwouldn": 1371,
      "Ġhaven": 1372,
      "Ġdri": 1373,
      "Ġhand": 1374,
      "ĠEngl": 1375,
      "ĠWould": 1376,
      "ĠCh": 1377,
      "Ġwear": 1378,
      "ife": 1379,
      "Ġjob": 1380,
      "ĠirmÃ£": 1381,
      "Ġtarde": 1382,
      "Ġqual": 1383,
      "Ġmud": 1384,
      "Ġhoras": 1385,
      "rou": 1386,
      "Ġnenhum": 1387,
      "almente": 1388,
      "Ġdois": 1389,
      "Ġint": 1390,
      "ĠPar": 1391,
      "Ġdias": 1392,
      "Ġable": 1393,
      "Ġplane": 1394,
      "ĠTo": 1395,
      "Ġsame": 1396,
      "Ġlost": 1397,
      "Ġanyone": 1398,
      "ugh": 1399,
      "Ġajuda": 1400,
      "Ġmother": 1401,
      "pa": 1402,
      "Ġhur": 1403,
      "Ġdeve": 1404,
      "Ġcouldn": 1405,
      "eram": 1406,
      "Ġplease": 1407,
      "quer": 1408,
      "ĠFo": 1409,
      "pect": 1410,
      "raid": 1411,
      "penas": 1412,
      "ĠEsse": 1413,
      "Ġtalking": 1414,
      "Ġafraid": 1415,
      "Ġproblema": 1416,
      "Ġwrong": 1417,
      "Ã¢": 1418,
      "Ġpa": 1419,
      "Ġquis": 1420,
      "avel": 1421,
      "Ġemb": 1422,
      "Ġstr": 1423,
      "Ġescre": 1424,
      "Ġficou": 1425,
      "ĠAlgu": 1426,
      "ĠprÃ³x": 1427,
      "30": 1428,
      "Ġpelo": 1429,
      "Ġbon": 1430,
      "Ġlem": 1431,
      "ĠPod": 1432,
      "Ġtry": 1433,
      "Ġheard": 1434,
      "Ġboy": 1435,
      "Ġinteress": 1436,
      "hone": 1437,
      "lt": 1438,
      "Ġdoc": 1439,
      "Ġfound": 1440,
      "Ġjun": 1441,
      "Ġhot": 1442,
      "Ġ20": 1443,
      "Ġaway": 1444,
      "use": 1445,
      "Ġdir": 1446,
      "ĠEnglish": 1447,
      "ĠFoi": 1448,
      "fÃ©": 1449,
      "Ġmal": 1450,
      "Ġwalk": 1451,
      "Ġnothing": 1452,
      "Ġlikes": 1453,
      "Ġtermin": 1454,
      "more": 1455,
      "Ġdas": 1456,
      "Ġhun": 1457,
      "Ġbic": 1458,
      "ĠSou": 1459,
      "eix": 1460,
      "Ġvoltar": 1461,
      "Ġbest": 1462,
      "Ġseen": 1463,
      "Ġencontrar": 1464,
      "anÃ§as": 1465,
      "Ġquarto": 1466,
      "Ġid": 1467,
      "ister": 1468,
      "reat": 1469,
      "Ġban": 1470,
      "Ġlate": 1471,
      "Ġyoung": 1472,
      "Ġuse": 1473,
      "Ġestr": 1474,
      "Ġestavam": 1475,
      "amento": 1476,
      "Ġanymore": 1477,
      "ĠalguÃ©m": 1478,
      "aut": 1479,
      "uz": 1480,
      "vis": 1481,
      "Ġquase": 1482,
      "Ġtook": 1483,
      "Ġswim": 1484,
      "Ġprofessor": 1485,
      "reu": 1486,
      "Ġgave": 1487,
      "Ġcans": 1488,
      "Ġperson": 1489,
      "Ġthings": 1490,
      "Ġteacher": 1491,
      "ĠGostaria": 1492,
      "iam": 1493,
      "lic": 1494,
      "ped": 1495,
      "Ġsim": 1496,
      "ond": 1497,
      "Ġrece": 1498,
      "Ġaquilo": 1499,
      "ivo": 1500,
      "ĠEspero": 1501,
      "Ġamigos": 1502,
      "most": 1503,
      "erv": 1504,
      "Ġsai": 1505,
      "ĠrÃ¡": 1506,
      "gue": 1507,
      "iful": 1508,
      "Ġjog": 1509,
      "Ġshow": 1510,
      "Ġtired": 1511,
      "Ġfui": 1512,
      "nib": 1513,
      "Ġsing": 1514,
      "Ġment": 1515,
      "Ġpela": 1516,
      "Ġwin": 1517,
      "Ġhon": 1518,
      "Ġob": 1519,
      "itas": 1520,
      "Ġeas": 1521,
      "ĠMay": 1522,
      "ily": 1523,
      "Ġatr": 1524,
      "Ġchegar": 1525,
      "ĠcafÃ©": 1526,
      "Ġmarried": 1527,
      "autiful": 1528,
      "ude": 1529,
      "ĠtÃªm": 1530,
      "Ġlig": 1531,
      "tei": 1532,
      "Ġcham": 1533,
      "Ġhomem": 1534,
      "Ġremember": 1535,
      "bo": 1536,
      "ande": 1537,
      "osa": 1538,
      "ĠvÃ¡": 1539,
      "sei": 1540,
      "Ġapp": 1541,
      "Ġcostum": 1542,
      "hn": 1543,
      "ile": 1544,
      "´nib": 1545,
      "Ġaren": 1546,
      "Ġcal": 1547,
      "ĠÃ´nib": 1548,
      "Ġbeautiful": 1549,
      "Ġfeito": 1550,
      "ĠdifÃŃ": 1551,
      "ĠÃ´nibus": 1552,
      "ner": 1553,
      "Ġtried": 1554,
      "Ġdeu": 1555,
      "igh": 1556,
      "Ġoften": 1557,
      "Ġtrying": 1558,
      "Ġdisc": 1559,
      "Ãºs": 1560,
      "ĠJohn": 1561,
      "Ġconc": 1562,
      "ually": 1563,
      "Ġpag": 1564,
      "Ġinv": 1565,
      "Ġhear": 1566,
      "ĠirmÃ£o": 1567,
      "bro": 1568,
      "ĠTV": 1569,
      "Ġmiss": 1570,
      "quei": 1571,
      "adas": 1572,
      "Ġalmost": 1573,
      "Ġrel": 1574,
      "Ġbooks": 1575,
      "Ġkeep": 1576,
      "ĠdifÃŃcil": 1577,
      "cess": 1578,
      "di": 1579,
      "lÃªs": 1580,
      "ot": 1581,
      "pido": 1582,
      "Ġcame": 1583,
      "Ġnem": 1584,
      "Ġinc": 1585,
      "Ġins": 1586,
      "Ġret": 1587,
      "Ġelse": 1588,
      "ÃŃamos": 1589,
      "Ġesperar": 1590,
      "Ġminut": 1591,
      "ible": 1592,
      "Ġocupado": 1593,
      "Ġsister": 1594,
      "Ġtru": 1595,
      "ĠYour": 1596,
      "Ġenough": 1597,
      "Ġconsigo": 1598,
      "ĠinglÃªs": 1599,
      "iÃ£o": 1600,
      "ĠmÃºs": 1601,
      "Ġnoss": 1602,
      "chu": 1603,
      "Ġanswer": 1604,
      "ys": 1605,
      "Ġsat": 1606,
      "Ġnad": 1607,
      "Ġbad": 1608,
      "Ġbig": 1609,
      "Ġven": 1610,
      "entes": 1611,
      "ĠAqu": 1612,
      "Ġconv": 1613,
      "Ġfora": 1614,
      "Ġfala": 1615,
      "brig": 1616,
      "Ġerrado": 1617,
      "atos": 1618,
      "Ġgente": 1619,
      "Ġinf": 1620,
      "Ġmul": 1621,
      "Ġlivros": 1622,
      "Ġarri": 1623,
      "Ġmov": 1624,
      "Ġgrande": 1625,
      "rit": 1626,
      "Ġpais": 1627,
      "Ġparents": 1628,
      "Ġkind": 1629,
      "ĠfaÃ§a": 1630,
      "Ġresta": 1631,
      "Ġstudy": 1632,
      "ĠcrianÃ§as": 1633,
      "Ġlisten": 1634,
      "Ġmulher": 1635,
      "rer": 1636,
      "Ġz": 1637,
      "Ġcidade": 1638,
      "ĠfÃ¡": 1639,
      "Ġparty": 1640,
      "ete": 1641,
      "Ġacord": 1642,
      "Ġmyself": 1643,
      "Ġeng": 1644,
      "Ġmorning": 1645,
      "Ġboa": 1646,
      "Ġestudar": 1647,
      "Ġseems": 1648,
      "ĠÃºn": 1649,
      "iver": 1650,
      "low": 1651,
      "til": 1652,
      "Ġturn": 1653,
      "Ġcedo": 1654,
      "Ã§Ãµes": 1655,
      "Ġforget": 1656,
      "Ġchor": 1657,
      "ĠEssa": 1658,
      "hora": 1659,
      "este": 1660,
      "Ġtheir": 1661,
      "Ġtrue": 1662,
      "eio": 1663,
      "Ġgetting": 1664,
      "Ġassist": 1665,
      "Ġtentando": 1666,
      "Ġta": 1667,
      "arei": 1668,
      "ised": 1669,
      "Ġhos": 1670,
      "osse": 1671,
      "ater": 1672,
      "ĠAll": 1673,
      "Ġlife": 1674,
      "Ġens": 1675,
      "Ġlooks": 1676,
      "Ġlooking": 1677,
      "Ġsenhora": 1678,
      "Ġfilhos": 1679,
      "Ġrestaur": 1680,
      "ied": 1681,
      "ons": 1682,
      "str": 1683,
      "Ġdied": 1684,
      "guns": 1685,
      "Ġtrabalhar": 1686,
      "ies": 1687,
      "ne": 1688,
      "Ġdur": 1689,
      "Ġnam": 1690,
      "Ġgl": 1691,
      "ĠMinha": 1692,
      "ount": 1693,
      "Ġfesta": 1694,
      "imos": 1695,
      "Ġbec": 1696,
      "ĠPare": 1697,
      "Ġfood": 1698,
      "Ġideia": 1699,
      "Ġfinish": 1700,
      "inc": 1701,
      "ino": 1702,
      "Ġmay": 1703,
      "Ġpron": 1704,
      "lace": 1705,
      "Ġwater": 1706,
      "ĠÃºlt": 1707,
      "ĠEveryone": 1708,
      "Ġcuid": 1709,
      "ĠTodo": 1710,
      "Ġhosp": 1711,
      "Ġcle": 1712,
      "Ġpay": 1713,
      "Ġpict": 1714,
      "Ġop": 1715,
      "Ġbeg": 1716,
      "vert": 1717,
      "Ġready": 1718,
      "ĠSome": 1719,
      "Ġperm": 1720,
      "Ġeating": 1721,
      "Ġvezes": 1722,
      "Ġwaiting": 1723,
      "Ġfol": 1724,
      "rias": 1725,
      "lain": 1726,
      "ĠQuant": 1727,
      "ÃŃn": 1728,
      "Ġpessoa": 1729,
      "Ġcomprou": 1730,
      "Ġmista": 1731,
      "Ġpal": 1732,
      "ĠvÃ£o": 1733,
      "alve": 1734,
      "Ġey": 1735,
      "Ġacab": 1736,
      "Ġfalando": 1737,
      "Ġhour": 1738,
      "ĠNobody": 1739,
      "Ġsorry": 1740,
      "Ġhospital": 1741,
      "Ġmon": 1742,
      "Ġnosso": 1743,
      "Ġviu": 1744,
      "Ġcomida": 1745,
      "ĠPer": 1746,
      "Ã³ria": 1747,
      "Ġmaior": 1748,
      "Ġproc": 1749,
      "essa": 1750,
      "agem": 1751,
      "ĠJÃ¡": 1752,
      "ĠUm": 1753,
      "Ġduas": 1754,
      "Ġhurt": 1755,
      "ip": 1756,
      "ĠTell": 1757,
      "Ġnas": 1758,
      "Ġfosse": 1759,
      "Ġdela": 1760,
      "Ġconta": 1761,
      "ĠQuanto": 1762,
      "Ġamigo": 1763,
      "Ġclass": 1764,
      "ĠCanad": 1765,
      "ĠÃ¡gua": 1766,
      "ĠPreciso": 1767,
      "ĠfÃ¡cil": 1768,
      "Ġtir": 1769,
      "Ġapenas": 1770,
      "ĠTem": 1771,
      "Ġfre": 1772,
      "Ġthese": 1773,
      "Ġrun": 1774,
      "Ġmorreu": 1775,
      "Ġboth": 1776,
      "Ġesperando": 1777,
      "Ġstarted": 1778,
      "Ġtak": 1779,
      "Ġsays": 1780,
      "Ġcin": 1781,
      "ĠmÃ©d": 1782,
      "angu": 1783,
      "ores": 1784,
      "ĠÃ³": 1785,
      "Ġbeb": 1786,
      "Ġwithout": 1787,
      "Ġenjo": 1788,
      "pois": 1789,
      "Ġneeds": 1790,
      "Ġparecia": 1791,
      "Ġidea": 1792,
      "Ġaprender": 1793,
      "Ã¢n": 1794,
      "ĠmÃºsica": 1795,
      "ger": 1796,
      "lar": 1797,
      "ses": 1798,
      "Ġmight": 1799,
      "Ġtoget": 1800,
      "Ġbed": 1801,
      "Ġown": 1802,
      "hei": 1803,
      "ĠAm": 1804,
      "ĠNunca": 1805,
      "Ġbeing": 1806,
      "Ġkid": 1807,
      "Ġtrain": 1808,
      "ular": 1809,
      "ĠDoes": 1810,
      "Ġfew": 1811,
      "ĠconheÃ§o": 1812,
      "Ġvelho": 1813,
      "avelmente": 1814,
      "alvez": 1815,
      "Ġtogether": 1816,
      "Ġmom": 1817,
      "Ġvest": 1818,
      "Ġganh": 1819,
      "ĠAinda": 1820,
      "Ġmuita": 1821,
      "Ġsuas": 1822,
      "Ġalgum": 1823,
      "ĠcomeÃ§ou": 1824,
      "Ġmil": 1825,
      "ory": 1826,
      "Ġseja": 1827,
      "imes": 1828,
      "ĠEstamos": 1829,
      "Ġmora": 1830,
      "Ġalgumas": 1831,
      "Ġtrabalh": 1832,
      "Ġmesa": 1833,
      "ĠJapan": 1834,
      "Ġeasy": 1835,
      "ars": 1836,
      "atamente": 1837,
      "ĠAc": 1838,
      "eta": 1839,
      "Ġalguns": 1840,
      "Ġreg": 1841,
      "Ġrep": 1842,
      "Ġcansado": 1843,
      "ĠrÃ¡pido": 1844,
      "cul": 1845,
      "ffe": 1846,
      "ivers": 1847,
      "ood": 1848,
      "Ġdez": 1849,
      "Ġsegun": 1850,
      "Ġsuf": 1851,
      "Ġtoda": 1852,
      "Ġtelef": 1853,
      "eixe": 1854,
      "cle": 1855,
      "fic": 1856,
      "vo": 1857,
      "Ġlangu": 1858,
      "irt": 1859,
      "iram": 1860,
      "ura": 1861,
      "act": 1862,
      "Ġcontar": 1863,
      "Ġfilme": 1864,
      "Ġacontecer": 1865,
      "Ġdeixar": 1866,
      "Ġcoloc": 1867,
      "Ġearly": 1868,
      "ĠAlguÃ©m": 1869,
      "Ġton": 1870,
      "Ġscar": 1871,
      "esa": 1872,
      "Ġplace": 1873,
      "Ġbir": 1874,
      "edi": 1875,
      "ider": 1876,
      "Ġconvers": 1877,
      "guei": 1878,
      "Ġatras": 1879,
      "Ġoutro": 1880,
      "ĠserÃ¡": 1881,
      "Ġlooked": 1882,
      "Ġsomos": 1883,
      "Ġcold": 1884,
      "Ġsn": 1885,
      "Ġpian": 1886,
      "ath": 1887,
      "Ġlim": 1888,
      "Ġmuitos": 1889,
      "Ġexper": 1890,
      "Ġexpect": 1891,
      "Ġoutra": 1892,
      "Ġpediu": 1893,
      "Ġtruth": 1894,
      "Ġnadar": 1895,
      "oth": 1896,
      "Ġtrem": 1897,
      "Ġcount": 1898,
      "Ġphone": 1899,
      "Ġwom": 1900,
      "Ġbast": 1901,
      "Ġvia": 1902,
      "Ġler": 1903,
      "Ġlun": 1904,
      "Ġparte": 1905,
      "Ġdire": 1906,
      "ÃŃlia": 1907,
      "Ġexc": 1908,
      "Ġworried": 1909,
      "Ġimpress": 1910,
      "Ġmesma": 1911,
      "Ġacontec": 1912,
      "Ġmenos": 1913,
      "ked": 1914,
      "ted": 1915,
      "ĠK": 1916,
      "Ġend": 1917,
      "Ġtre": 1918,
      "ĠIn": 1919,
      "Ġvem": 1920,
      "ited": 1921,
      "Ġdec": 1922,
      "ĠWill": 1923,
      "ably": 1924,
      "got": 1925,
      "Ġcomplet": 1926,
      "Ġador": 1927,
      "Ġdinner": 1928,
      "Ġwearing": 1929,
      "ĠatrÃ¡s": 1930,
      "uck": 1931,
      "vem": 1932,
      "Ġthir": 1933,
      "any": 1934,
      "anho": 1935,
      "icle": 1936,
      "Ġanim": 1937,
      "Ġkill": 1938,
      "rios": 1939,
      "Ġpodemos": 1940,
      "ught": 1941,
      "Ġplaying": 1942,
      "Ġfamily": 1943,
      "Ġjuntos": 1944,
      "ds": 1945,
      "gr": 1946,
      "vamos": 1947,
      "Ġcha": 1948,
      "Ġfome": 1949,
      "ream": 1950,
      "Ġcoming": 1951,
      "Ġangry": 1952,
      "Ġquerem": 1953,
      "Ġanother": 1954,
      "Ġpretty": 1955,
      "Ġprovavelmente": 1956,
      "Ġmovie": 1957,
      "Ġfrequ": 1958,
      "ffee": 1959,
      "Ġbastante": 1960,
      "gg": 1961,
      "Ġtorn": 1962,
      "Ġcry": 1963,
      "Ġdepois": 1964,
      "Ġgreat": 1965,
      "Ġref": 1966,
      "ĠPe": 1967,
      "Ġdivert": 1968,
      "Ġyourself": 1969,
      "Ġpoder": 1970,
      "Ġarr": 1971,
      "Ġfilho": 1972,
      "Ġesteja": 1973,
      "Ġconhece": 1974,
      "Ġdecided": 1975,
      "Ġensin": 1976,
      "ĠCanadian": 1977,
      "osed": 1978,
      "idos": 1979,
      "antes": 1980,
      "Ġtrust": 1981,
      "Ġatt": 1982,
      "Ġcanad": 1983,
      "Ġsabem": 1984,
      "Ġprob": 1985,
      "Ġago": 1986,
      "Ġhimself": 1987,
      "Ġviol": 1988,
      "Ġolh": 1989,
      "ĠfamÃŃlia": 1990,
      "Ġdormir": 1991,
      "ĠFrancÃªs": 1992,
      "Ġhungry": 1993,
      "brigado": 1994,
      "ious": 1995,
      "Ġate": 1996,
      "Ġcust": 1997,
      "ĠEn": 1998,
      "row": 1999,
      "ĠSt": 2000,
      "Ġforgot": 2001,
      "Ġchance": 2002,
      "Ġaquele": 2003,
      "Ġcoffee": 2004,
      "Ġfica": 2005,
      "ivesse": 2006,
      "Ġcerto": 2007,
      "Ġpassado": 2008,
      "Ġlaugh": 2009,
      "Ġdoctor": 2010,
      "Ġdirig": 2011,
      "Ġprobably": 2012,
      "bol": 2013,
      "Ġsk": 2014,
      "Ġwife": 2015,
      "Ġgato": 2016,
      "idente": 2017,
      "Ġforam": 2018,
      "Ġje": 2019,
      "tain": 2020,
      "ĠFi": 2021,
      "Ġhist": 2022,
      "Ġjogar": 2023,
      "Ġfuncion": 2024,
      "Ġprocur": 2025,
      "cio": 2026,
      "ga": 2027,
      "ias": 2028,
      "mos": 2029,
      "Ġpain": 2030,
      "Ġhair": 2031,
      "emente": 2032,
      "Ġalmo": 2033,
      "ĠThank": 2034,
      "Ġperfe": 2035,
      "Ġdaqui": 2036,
      "Ġtodas": 2037,
      "Ġconsider": 2038,
      "Ġsala": 2039,
      "Ġgaro": 2040,
      "Ġquiser": 2041,
      "Ġenjoy": 2042,
      "Ġlunch": 2043,
      "here": 2044,
      "tou": 2045,
      "ata": 2046,
      "ates": 2047,
      "Ġveio": 2048,
      "Ġbei": 2049,
      "ĠCould": 2050,
      "Ġteve": 2051,
      "Ġcontin": 2052,
      "Ġmine": 2053,
      "Ġtentou": 2054,
      "Ġhonest": 2055,
      "Ġpalav": 2056,
      "Ġmonth": 2057,
      "sic": 2058,
      "Ġdays": 2059,
      "ense": 2060,
      "icion": 2061,
      "ĠAt": 2062,
      "Ġmuitas": 2063,
      "Ġkiss": 2064,
      "Ġempr": 2065,
      "Ġstand": 2066,
      "Ġprepar": 2067,
      "Ġcook": 2068,
      "Ġcorre": 2069,
      "ĠTalvez": 2070,
      "inh": 2071,
      "Ġfish": 2072,
      "riu": 2073,
      "Ġjan": 2074,
      "Ġsuper": 2075,
      "ĠmaÃ§": 2076,
      "Ġperder": 2077,
      "Ġpodem": 2078,
      "Ġcoz": 2079,
      "Ġlives": 2080,
      "indow": 2081,
      "Ġworking": 2082,
      "Ġgrand": 2083,
      "Ġimpor": 2084,
      "Ġpassada": 2085,
      "Ġguard": 2086,
      "Ġmeeting": 2087,
      "Ġsimp": 2088,
      "gado": 2089,
      "Ġnice": 2090,
      "Ġletter": 2091,
      "Ġred": 2092,
      "ĠSÃ³": 2093,
      "Ġsus": 2094,
      "Ġdie": 2095,
      "Ġpra": 2096,
      "ize": 2097,
      "Ġfavorite": 2098,
      "Ġimportant": 2099,
      "Ġimportante": 2100,
      "Ġpreocupado": 2101,
      "Ġprimeiro": 2102,
      "Ġnossa": 2103,
      "Ġtonight": 2104,
      "cado": 2105,
      "Ġtable": 2106,
      "iste": 2107,
      "Ġnerv": 2108,
      "endeu": 2109,
      "Ġwindow": 2110,
      "Ġhate": 2111,
      "reet": 2112,
      "entemente": 2113,
      "erei": 2114,
      "Ġru": 2115,
      "Ġwhile": 2116,
      "Ġjovem": 2117,
      "Ġentre": 2118,
      "ĠEverybody": 2119,
      "ĠÃ¡r": 2120,
      "Ġocup": 2121,
      "Ġarrived": 2122,
      "Ġpiano": 2123,
      "ever": 2124,
      "iar": 2125,
      "Ġev": 2126,
      "osto": 2127,
      "veu": 2128,
      "Ġonce": 2129,
      "Ġemp": 2130,
      "Ġsub": 2131,
      "Ġperto": 2132,
      "cause": 2133,
      "ĠLo": 2134,
      "Ġespero": 2135,
      "Ġcama": 2136,
      "Ġpensei": 2137,
      "Ġbreak": 2138,
      "ĠhistÃ³ria": 2139,
      "ula": 2140,
      "ĠtÃªn": 2141,
      "our": 2142,
      "arÃ¡": 2143,
      "ork": 2144,
      "Ġval": 2145,
      "Ġquebr": 2146,
      "ades": 2147,
      "ĠMon": 2148,
      "Ġroub": 2149,
      "ĠSei": 2150,
      "Ġjantar": 2151,
      "Ġsuc": 2152,
      "ÃŃs": 2153,
      "Ġchang": 2154,
      "Ġfoto": 2155,
      "Ġtenha": 2156,
      "Ġnova": 2157,
      "anger": 2158,
      "Ġconsegue": 2159,
      "Ġcalled": 2160,
      "Ġouvir": 2161,
      "Ġquestions": 2162,
      "Ġembora": 2163,
      "Ġnamor": 2164,
      "Ġsufici": 2165,
      "ĠmaÃ§Ã£": 2166,
      "ace": 2167,
      "pas": 2168,
      "Ġdro": 2169,
      "Ġcul": 2170,
      "into": 2171,
      "Ġbi": 2172,
      "Ġeach": 2173,
      "ĠDiga": 2174,
      "teira": 2175,
      "Ã³rio": 2176,
      "Ġsupp": 2177,
      "Ġporque": 2178,
      "ull": 2179,
      "Ġchange": 2180,
      "Ġagree": 2181,
      "Ġvolta": 2182,
      "Ġstudying": 2183,
      "Ġbicicle": 2184,
      "Ġfinished": 2185,
      "ĠtÃªnis": 2186,
      "Ġbicicleta": 2187,
      "iente": 2188,
      "nis": 2189,
      "uÃŃ": 2190,
      "Ġtanto": 2191,
      "eren": 2192,
      "Ġsign": 2193,
      "Ġpap": 2194,
      "Ġnis": 2195,
      "anha": 2196,
      "Ġbit": 2197,
      "Ġbol": 2198,
      "Ġlar": 2199,
      "Ġindo": 2200,
      "ĠAn": 2201,
      "eto": 2202,
      "Ġmusic": 2203,
      "Ġalto": 2204,
      "ĠHis": 2205,
      "ĠDes": 2206,
      "Ġmachu": 2207,
      "ĠBe": 2208,
      "ÃŃcia": 2209,
      "Ġprop": 2210,
      "Ġusually": 2211,
      "Ġliving": 2212,
      "Ġaround": 2213,
      "Ġeveryone": 2214,
      "Ġnovamente": 2215,
      "Ġdiffer": 2216,
      "Ġdeixou": 2217,
      "Ġolhos": 2218,
      "Ġcareful": 2219,
      "ment": 2220,
      "Ġsick": 2221,
      "Ġfer": 2222,
      "Ġtocar": 2223,
      "Ġdel": 2224,
      "ĠMu": 2225,
      "osta": 2226,
      "Ġrich": 2227,
      "Ġreun": 2228,
      "Ġnecess": 2229,
      "ĠWhich": 2230,
      "Ġext": 2231,
      "Ġfech": 2232,
      "Ġescrit": 2233,
      "Ġtennis": 2234,
      "Ġadm": 2235,
      "Ġsomeone": 2236,
      "olog": 2237,
      "Ġinterested": 2238,
      "Ġdrive": 2239,
      "Ġtelefone": 2240,
      "ĠÃ¡rv": 2241,
      "ba": 2242,
      "ball": 2243,
      "Ġx": 2244,
      "quen": 2245,
      "ordo": 2246,
      "ally": 2247,
      "Ġconcer": 2248,
      "Ġconven": 2249,
      "Ġdesco": 2250,
      "Ġdiffic": 2251,
      "Ġcamis": 2252,
      "cident": 2253,
      "Ġmatter": 2254,
      "ĠcrianÃ§a": 2255,
      "Ġsurprised": 2256,
      "Ġpreocup": 2257,
      "ĠÃºltima": 2258,
      "Ġtall": 2259,
      "ĠTemos": 2260,
      "Ġdent": 2261,
      "Ġdream": 2262,
      "Ġcav": 2263,
      "inta": 2264,
      "Ġmind": 2265,
      "Ġfast": 2266,
      "Ġfaria": 2267,
      "Ġthose": 2268,
      "Ġquite": 2269,
      "Ġlav": 2270,
      "Ġbecause": 2271,
      "Ã³g": 2272,
      "ĠThese": 2273,
      "Ġseria": 2274,
      "Ġcaus": 2275,
      "Ġtentar": 2276,
      "Ġtipo": 2277,
      "Ġolder": 2278,
      "ĠcomeÃ§ar": 2279,
      "Ġrespon": 2280,
      "Ġafterno": 2281,
      "Ġpicture": 2282,
      "Ġeyes": 2283,
      "Ġsuficiente": 2284,
      "ble": 2285,
      "ze": 2286,
      "Ġnat": 2287,
      "Ġfum": 2288,
      "Ġbolo": 2289,
      "ĠlÃŃn": 2290,
      "Ã¡t": 2291,
      "idas": 2292,
      "Ġleg": 2293,
      "Ġouvi": 2294,
      "Ġentend": 2295,
      "Ãºmer": 2296,
      "Ġminhas": 2297,
      "Ġpedir": 2298,
      "Ġnews": 2299,
      "Ġcabelo": 2300,
      "Ġqualquer": 2301,
      "ĠprÃ³ximo": 2302,
      "Ġafternoon": 2303,
      "ced": 2304,
      "where": 2305,
      "omos": 2306,
      "Ġdanger": 2307,
      "Ġbet": 2308,
      "iment": 2309,
      "Ġrou": 2310,
      "Ġris": 2311,
      "Ġempre": 2312,
      "Ġperd": 2313,
      "Ġcontou": 2314,
      "Ġshouldn": 2315,
      "Ġpergunto": 2316,
      "ĠÃºnico": 2317,
      "Ġopin": 2318,
      "ĠMonday": 2319,
      "ĠreuniÃ£o": 2320,
      "cido": 2321,
      "ĠdÃ³": 2322,
      "Ġcake": 2323,
      "ors": 2324,
      "ĠvÃª": 2325,
      "Ġparar": 2326,
      "ĠHo": 2327,
      "Ġacidente": 2328,
      "ĠCome": 2329,
      "Ġcarta": 2330,
      "ions": 2331,
      "Ġanybody": 2332,
      "Ġchegou": 2333,
      "Ġpergunta": 2334,
      "Ġoffice": 2335,
      "ĠSeu": 2336,
      "Ġhaving": 2337,
      "aixo": 2338,
      "Ġspend": 2339,
      "Ġfeeling": 2340,
      "Ġdormindo": 2341,
      "ĠTudo": 2342,
      "Ġprimeira": 2343,
      "ĠprÃ³xima": 2344,
      "Ġsegunda": 2345,
      "Ġscared": 2346,
      "Ġtive": 2347,
      "Ġsap": 2348,
      "Ġsido": 2349,
      "Ġcut": 2350,
      "ĠmÃ¡": 2351,
      "Ġhum": 2352,
      "osco": 2353,
      "Ġlou": 2354,
      "anta": 2355,
      "Ġtrans": 2356,
      "Ġmakes": 2357,
      "Ġaccident": 2358,
      "Ġabr": 2359,
      "peito": 2360,
      "Ġgostam": 2361,
      "Ġcasar": 2362,
      "aco": 2363,
      "Ġjogo": 2364,
      "Ġart": 2365,
      "Ġapart": 2366,
      "Ġpequen": 2367,
      "cial": 2368,
      "beu": 2369,
      "Ġpensar": 2370,
      "ĠUn": 2371,
      "Ġdescul": 2372,
      "Ġnumber": 2373,
      "Ġbonita": 2374,
      "Ġconcord": 2375,
      "Ġsatis": 2376,
      "Ġpronto": 2377,
      "Ġprocurando": 2378,
      "che": 2379,
      "jar": 2380,
      "xi": 2381,
      "Ġdor": 2382,
      "era": 2383,
      "erta": 2384,
      "onhe": 2385,
      "Ġgone": 2386,
      "ĠAg": 2387,
      "ĠOl": 2388,
      "Ġbeh": 2389,
      "Ġconosco": 2390,
      "Ġcarne": 2391,
      "Ġchoc": 2392,
      "Ġusar": 2393,
      "Ġprecisava": 2394,
      "Ġimag": 2395,
      "Ġpegar": 2396,
      "Ġcheg": 2397,
      "Ġplanning": 2398,
      "Ġlonger": 2399,
      "Ġencontr": 2400,
      "Ġesposa": 2401,
      "Ġperguntas": 2402,
      "ĠParece": 2403,
      "Ġfollow": 2404,
      "ĠHoje": 2405,
      "dio": 2406,
      "ff": 2407,
      "port": 2408,
      "Ġi": 2409,
      "Ġtree": 2410,
      "Ġsand": 2411,
      "Ġsong": 2412,
      "Ġcaix": 2413,
      "ĠnÃºmer": 2414,
      "Ġdoll": 2415,
      "Ġsum": 2416,
      "Ġbot": 2417,
      "pens": 2418,
      "Ġuntil": 2419,
      "Ġarm": 2420,
      "Ġshoes": 2421,
      "ĠRe": 2422,
      "Ġinteresting": 2423,
      "ĠPara": 2424,
      "Ġpagar": 2425,
      "Ġbirth": 2426,
      "Ġsnow": 2427,
      "Ġimporta": 2428,
      "ĠLook": 2429,
      "ĠAgora": 2430,
      "hes": 2431,
      "ire": 2432,
      "Ġia": 2433,
      "Ġav": 2434,
      "ĠmÃ£o": 2435,
      "Ġmed": 2436,
      "Ġfrio": 2437,
      "Ġstory": 2438,
      "Ġmorrer": 2439,
      "ific": 2440,
      "Ġadd": 2441,
      "Ġplano": 2442,
      "Ġescolha": 2443,
      "Ġfelt": 2444,
      "Ġbroke": 2445,
      "Ġchoice": 2446,
      "Ġplanej": 2447,
      "Ġinteressante": 2448,
      "Ġhotel": 2449,
      "Ġreturn": 2450,
      "Ġhours": 2451,
      "ĠmÃ©dico": 2452,
      "Ġdifficult": 2453,
      "Ġsapatos": 2454,
      "00": 2455,
      "friend": 2456,
      "uro": 2457,
      "we": 2458,
      "Ġtri": 2459,
      "Ġair": 2460,
      "Ġcur": 2461,
      "ĠpÃ©": 2462,
      "Ġpop": 2463,
      "Ġquente": 2464,
      "ĠEm": 2465,
      "ĠEx": 2466,
      "Ġborn": 2467,
      "ede": 2468,
      "ican": 2469,
      "Ġraz": 2470,
      "ĠDeixe": 2471,
      "und": 2472,
      "unk": 2473,
      "Ġasleep": 2474,
      "Ġstation": 2475,
      "Ġnear": 2476,
      "top": 2477,
      "Ġlogo": 2478,
      "Ġsof": 2479,
      "Ġteu": 2480,
      "Ġamb": 2481,
      "raz": 2482,
      "ized": 2483,
      "ages": 2484,
      "Ġhasn": 2485,
      "Ġallow": 2486,
      "Ġworks": 2487,
      "Ġassust": 2488,
      "Ġtomar": 2489,
      "Ġminu": 2490,
      "Ġsenhores": 2491,
      "Ġmudar": 2492,
      "Ġnenhuma": 2493,
      "ĠMaybe": 2494,
      "ĠnÃºmero": 2495,
      "cou": 2496,
      "res": 2497,
      "ress": 2498,
      "Ġaos": 2499,
      "Ġsoc": 2500,
      "Ġpat": 2501,
      "Ġpun": 2502,
      "Ġfell": 2503,
      "Ġlight": 2504,
      "ĠOK": 2505,
      "Ġanivers": 2506,
      "Ġcara": 2507,
      "Ġloves": 2508,
      "Ġshirt": 2509,
      "Ġentrar": 2510,
      "Ġhavia": 2511,
      "Ġwrite": 2512,
      "ĠestaÃ§Ã£o": 2513,
      "aixon": 2514,
      "ĠPrecisamos": 2515,
      "ughter": 2516,
      "Ġpaid": 2517,
      "Ġ201": 2518,
      "Ġminutes": 2519,
      "Ġminutos": 2520,
      "Ġglass": 2521,
      "Ġjanela": 2522,
      "eira": 2523,
      "gem": 2524,
      "king": 2525,
      "uter": 2526,
      "ycle": 2527,
      "Ġtimes": 2528,
      "Ġcity": 2529,
      "ĠmÃªs": 2530,
      "Ġlose": 2531,
      "Ġlater": 2532,
      "Ġgen": 2533,
      "Ġestiver": 2534,
      "ostum": 2535,
      "adeira": 2536,
      "Ġagr": 2537,
      "Ġworld": 2538,
      "Ġcomeu": 2539,
      "ivemos": 2540,
      "Ġapaixon": 2541,
      "Ġsoun": 2542,
      "Ġencontrou": 2543,
      "Ġmenino": 2544,
      "Ġexperi": 2545,
      "ĠaniversÃ¡rio": 2546,
      "bra": 2547,
      "ient": 2548,
      "ken": 2549,
      "ket": 2550,
      "los": 2551,
      "ps": 2552,
      "tas": 2553,
      "Ġmant": 2554,
      "Ġmess": 2555,
      "ende": 2556,
      "Ġwine": 2557,
      "Ġdecis": 2558,
      "ention": 2559,
      "Ġsecre": 2560,
      "Ġrico": 2561,
      "Ġreas": 2562,
      "Ġneigh": 2563,
      "ĠverÃ£o": 2564,
      "Ġprefer": 2565,
      "utador": 2566,
      "Ġaquela": 2567,
      "Ġneeded": 2568,
      "Ġhelped": 2569,
      "Ġadv": 2570,
      "Ġproblemas": 2571,
      "Ġflow": 2572,
      "ĠGosto": 2573,
      "Ġacreditar": 2574,
      "Ġ19": 2575,
      "ĠQuantos": 2576,
      "Ġacontecendo": 2577,
      "Ġcontinu": 2578,
      "ĠdÃ³lar": 2579,
      "Ġneighb": 2580,
      "gn": 2581,
      "ui": 2582,
      "erÃ¡": 2583,
      "ĠpÃ´": 2584,
      "Ġwhe": 2585,
      "ating": 2586,
      "Ġlado": 2587,
      "Ġrest": 2588,
      "Ġforte": 2589,
      "cept": 2590,
      "Ġsuch": 2591,
      "Ã©u": 2592,
      "used": 2593,
      "Ġperdeu": 2594,
      "Ġchave": 2595,
      "Ġthinking": 2596,
      "Ġusando": 2597,
      "ject": 2598,
      "Ġimposs": 2599,
      "Ġconhec": 2600,
      "Ġdeixe": 2601,
      "Ġsmall": 2602,
      "Ġpresente": 2603,
      "Ġfire": 2604,
      "Ġperguntou": 2605,
      "Ġsince": 2606,
      "Ġnisso": 2607,
      "ĠÃ¡rvore": 2608,
      "Ġsummer": 2609,
      "ĠdÃ³lares": 2610,
      "ier": 2611,
      "Ġaz": 2612,
      "Ġdict": 2613,
      "ĠsÃ©": 2614,
      "Ġbas": 2615,
      "ema": 2616,
      "Ġvinho": 2617,
      "elas": 2618,
      "iado": 2619,
      "ĠAren": 2620,
      "Ġelas": 2621,
      "Ġdaughter": 2622,
      "Ġescap": 2623,
      "Ġprecisamos": 2624,
      "Ġerro": 2625,
      "Ġlived": 2626,
      "Ġcomputer": 2627,
      "Ġcomputador": 2628,
      "ĠJust": 2629,
      "Ġentender": 2630,
      "upid": 2631,
      "Ġclar": 2632,
      "Ġvejo": 2633,
      "Ġtua": 2634,
      "Ġpassar": 2635,
      "Ġorder": 2636,
      "Ġcaminho": 2637,
      "ĠpossÃŃvel": 2638,
      "Ġexplain": 2639,
      "Ġtelevis": 2640,
      "Ġcostumava": 2641,
      "Ġcanadense": 2642,
      "ĠalmoÃ§": 2643,
      "Ġguarda": 2644,
      "Ġcaixa": 2645,
      "Ġ2013": 2646,
      "ming": 2647,
      "Ġste": 2648,
      "Ġfix": 2649,
      "Ġgame": 2650,
      "imento": 2651,
      "antas": 2652,
      "ĠAmer": 2653,
      "ĠOur": 2654,
      "Ġran": 2655,
      "Ġstupid": 2656,
      "ush": 2657,
      "oking": 2658,
      "Ġchu": 2659,
      "Ġnaqu": 2660,
      "Ġpodia": 2661,
      "raÃ§": 2662,
      "Ġbox": 2663,
      "ĠLe": 2664,
      "Ġresult": 2665,
      "Ġcomprei": 2666,
      "ĠajudÃ¡": 2667,
      "ĠestarÃ¡": 2668,
      "Ġguitar": 2669,
      "Ġsenhoras": 2670,
      "Ġpolice": 2671,
      "Ġacredito": 2672,
      "Ġsurpres": 2673,
      "Ġstrong": 2674,
      "Ġlembr": 2675,
      "Ġrestaurant": 2676,
      "Ġwoman": 2677,
      "Ġbirthday": 2678,
      "ial": 2679,
      "ny": 2680,
      "work": 2681,
      "Ġed": 2682,
      "Ġtal": 2683,
      "Ġcantar": 2684,
      "Ġpick": 2685,
      "Ġneste": 2686,
      "Ġfree": 2687,
      "Ġflo": 2688,
      "Ġwar": 2689,
      "Ġlying": 2690,
      "Ġluck": 2691,
      "ĠObrigado": 2692,
      "Ġrua": 2693,
      "Ġwash": 2694,
      "Ġpris": 2695,
      "Ġdist": 2696,
      "Ġamo": 2697,
      "Ġprote": 2698,
      "Ġdesde": 2699,
      "Ġbuild": 2700,
      "Ġdress": 2701,
      "ĠPode": 2702,
      "Ġbecome": 2703,
      "Ġmistake": 2704,
      "Ġcamisa": 2705,
      "Ġdollars": 2706,
      "Ġidade": 2707,
      "Ġcant": 2708,
      "Ġcort": 2709,
      "Ġbab": 2710,
      "Ġmeio": 2711,
      "Ġcomes": 2712,
      "ical": 2713,
      "iled": 2714,
      "Ġrom": 2715,
      "ĠSinto": 2716,
      "ĠStop": 2717,
      "gul": 2718,
      "uss": 2719,
      "Ġfrente": 2720,
      "Ġexatamente": 2721,
      "Ġmaneira": 2722,
      "Ġcontr": 2723,
      "Ġfilha": 2724,
      "Ġspeaks": 2725,
      "Ġlonge": 2726,
      "Ġguys": 2727,
      "Ġchover": 2728,
      "Ġdurante": 2729,
      "Ġtaking": 2730,
      "Ġcinco": 2731,
      "Ġmomento": 2732,
      "Ġchanged": 2733,
      "ĠescritÃ³rio": 2734,
      "Ġdentro": 2735,
      "Ġemprego": 2736,
      "ple": 2737,
      "tle": 2738,
      "Ġace": 2739,
      "Ġmad": 2740,
      "Ġpud": 2741,
      "Ġnorm": 2742,
      "Ġthr": 2743,
      "Ġquick": 2744,
      "rew": 2745,
      "Ġdet": 2746,
      "Ġpark": 2747,
      "tebol": 2748,
      "Ġdiv": 2749,
      "ĠFa": 2750,
      "Ġloja": 2751,
      "Ġthinks": 2752,
      "Ġexact": 2753,
      "Ġdese": 2754,
      "Ġescut": 2755,
      "Ġcontigo": 2756,
      "feira": 2757,
      "ĠdeverÃŃamos": 2758,
      "Ġesteve": 2759,
      "Ġdrunk": 2760,
      "Ã¡ss": 2761,
      "ĠpolÃŃcia": 2762,
      "Ġdark": 2763,
      "Ġstopped": 2764,
      "Ġcapaz": 2765,
      "ĠJapÃ£o": 2766,
      "Ġbicycle": 2767,
      "Ġsaiu": 2768,
      "Ġconvid": 2769,
      "Ġacordado": 2770,
      "Ġemprest": 2771,
      "Ġdiction": 2772,
      "af": 2773,
      "pl": 2774,
      "rist": 2775,
      "rÃŃvel": 2776,
      "Ġign": 2777,
      "Ġdicion": 2778,
      "ins": 2779,
      "enha": 2780,
      "ĠfÃ©": 2781,
      "Ġbag": 2782,
      "Ġode": 2783,
      "ĠWas": 2784,
      "igente": 2785,
      "veja": 2786,
      "Ġrela": 2787,
      "Ġstreet": 2788,
      "Ġacc": 2789,
      "Ġact": 2790,
      "ended": 2791,
      "Ġandar": 2792,
      "Ġsaud": 2793,
      "Ġword": 2794,
      "Ġpegou": 2795,
      "Ġeaten": 2796,
      "Ġconseguiu": 2797,
      "Ġsozinha": 2798,
      "Ġfutebol": 2799,
      "Ġkey": 2800,
      "Ġcabe": 2801,
      "Ġclean": 2802,
      "bed": 2803,
      "lig": 2804,
      "Ġtest": 2805,
      "oming": 2806,
      "omet": 2807,
      "Ġdest": 2808,
      "Ġsel": 2809,
      "Ġsil": 2810,
      "Ġsun": 2811,
      "Ġspo": 2812,
      "Ġmem": 2813,
      "enÃ§Ã£o": 2814,
      "Ġtown": 2815,
      "Ġbur": 2816,
      "itch": 2817,
      "Ġdef": 2818,
      "Ġdeles": 2819,
      "oca": 2820,
      "als": 2821,
      "enta": 2822,
      "Ġdoente": 2823,
      "Ġbeer": 2824,
      "olate": 2825,
      "ĠSab": 2826,
      "teen": 2827,
      "Ġtrad": 2828,
      "lack": 2829,
      "ÃŃm": 2830,
      "Ġteam": 2831,
      "Ġsafe": 2832,
      "Ġcontro": 2833,
      "Ġclose": 2834,
      "Ġbrinc": 2835,
      "Ġconser": 2836,
      "vies": 2837,
      "Ġvisto": 2838,
      "Ġstayed": 2839,
      "Ġfizeram": 2840,
      "ĠUma": 2841,
      "Ġdevo": 2842,
      "Ġresposta": 2843,
      "Ġidio": 2844,
      "Ġapple": 2845,
      "Ġlistening": 2846,
      "Ġzo": 2847,
      "Ġrestaurante": 2848,
      "Ġconversar": 2849,
      "Ġcaval": 2850,
      "Ġchocolate": 2851,
      "ding": 2852,
      "lla": 2853,
      "side": 2854,
      "Ġtel": 2855,
      "Ġavi": 2856,
      "erg": 2857,
      "Ġsell": 2858,
      "Ġsendo": 2859,
      "esso": 2860,
      "onde": 2861,
      "Ġfive": 2862,
      "ama": 2863,
      "Ġumbre": 2864,
      "rote": 2865,
      "Ġant": 2866,
      "Ġbeber": 2867,
      "Ġalso": 2868,
      "Ġgoes": 2869,
      "ĠSua": 2870,
      "ĠatenÃ§Ã£o": 2871,
      "raf": 2872,
      "Ġteria": 2873,
      "Ġmovies": 2874,
      "Ġcerveja": 2875,
      "Ġstudents": 2876,
      "Ġcres": 2877,
      "Ġreading": 2878,
      "ĠmÃ£os": 2879,
      "Ġdecidiu": 2880,
      "Ã©dio": 2881,
      "Ġlearned": 2882,
      "Ġhands": 2883,
      "Ġintel": 2884,
      "Ġlanguage": 2885,
      "Ġatrasado": 2886,
      "Ġkilled": 2887,
      "Ġcrying": 2888,
      "Ġjeito": 2889,
      "Ġsecret": 2890,
      "Ġwhether": 2891,
      "Ġsurpreso": 2892,
      "Ġbuilding": 2893,
      "Ġdictionary": 2894,
      "ĠdicionÃ¡rio": 2895,
      "Ġumbrella": 2896,
      "fast": 2897,
      "hado": 2898,
      "oud": 2899,
      "Ġce": 2900,
      "Ġfut": 2901,
      "orto": 2902,
      "Ġhat": 2903,
      "Ġbat": 2904,
      "ately": 2905,
      "Ġluz": 2906,
      "Ġmean": 2907,
      "Ġneg": 2908,
      "Ġdiss": 2909,
      "Ġdeste": 2910,
      "ĠentÃ£o": 2911,
      "Ġtrabalha": 2912,
      "ĠGet": 2913,
      "Ġplayed": 2914,
      "Ġcaminh": 2915,
      "Ġcaught": 2916,
      "Ġwrit": 2917,
      "Ġflores": 2918,
      "Ġpensando": 2919,
      "Ġpossa": 2920,
      "Ġpossible": 2921,
      "Ġspent": 2922,
      "Ġfiquei": 2923,
      "Ġexplic": 2924,
      "Ġsinto": 2925,
      "Ġligar": 2926,
      "Ġkids": 2927,
      "Ġcolocou": 2928,
      "Ġcountry": 2929,
      "Ġdirigir": 2930,
      "Ġabrir": 2931,
      "pensive": 2932,
      "mel": 2933,
      "nos": 2934,
      "Ġaut": 2935,
      "ĠTake": 2936,
      "ĠdanÃ§": 2937,
      "Ġdoub": 2938,
      "Ġhid": 2939,
      "alth": 2940,
      "Ġmeat": 2941,
      "Ġgol": 2942,
      "Ġliked": 2943,
      "Ġqueremos": 2944,
      "apon": 2945,
      "Ġyours": 2946,
      "Ġgostava": 2947,
      "ĠsaÃŃ": 2948,
      "Ġexam": 2949,
      "Ġleite": 2950,
      "Ġserious": 2951,
      "Ġeverybody": 2952,
      "Ġsentar": 2953,
      "Ġsaying": 2954,
      "itting": 2955,
      "Ġflu": 2956,
      "Ġlaw": 2957,
      "Ġblue": 2958,
      "ĠAquele": 2959,
      "stru": 2960,
      "ĠQuantas": 2961,
      "Ġpalavra": 2962,
      "Ġextrem": 2963,
      "Ġbehind": 2964,
      "Ġtrip": 2965,
      "Ġexactly": 2966,
      "ĠaviÃ£o": 2967,
      "bado": 2968,
      "cto": 2969,
      "eep": 2970,
      "iet": 2971,
      "uld": 2972,
      "vos": 2973,
      "Ġaula": 2974,
      "ĠTe": 2975,
      "ouch": 2976,
      "Ġfight": 2977,
      "quanto": 2978,
      "Ġwrote": 2979,
      "Ġviv": 2980,
      "Ġger": 2981,
      "Ġsever": 2982,
      "rop": 2983,
      "Ġrap": 2984,
      "ĠPen": 2985,
      "Ġform": 2986,
      "Ġforma": 2987,
      "Ġstore": 2988,
      "ĠQueria": 2989,
      "Ġperce": 2990,
      "Ġexpensive": 2991,
      "Ġfale": 2992,
      "Ġfalta": 2993,
      "Ġiria": 2994,
      "Ġoutros": 2995,
      "point": 2996,
      "Ġcloth": 2997,
      "Ġtalked": 2998,
      "ĠGive": 2999,
      "Ġbrin": 3000,
      "Ġbrav": 3001,
      "Ġhomework": 3002,
      "Ġorgul": 3003,
      "Ġachava": 3004,
      "Ġstudent": 3005,
      "Ġfizesse": 3006,
      "Ġseemed": 3007,
      "Ġouviu": 3008,
      "Ġwatching": 3009,
      "Ġinside": 3010,
      "chuva": 3011,
      "Ġbecame": 3012,
      "Ġbegan": 3013,
      "Ġmilk": 3014,
      "ĠJapanese": 3015,
      "Ġbreakfast": 3016,
      "Ġimagin": 3017,
      "Ġbaby": 3018,
      "Ġinteligente": 3019,
      "das": 3020,
      "ured": 3021,
      "Ġ30": 3022,
      "ĠTr": 3023,
      "Ġcup": 3024,
      "orte": 3025,
      "Ġblack": 3026,
      "Ġvac": 3027,
      "Ġess": 3028,
      "iros": 3029,
      "Ġparque": 3030,
      "Ġalun": 3031,
      "ĠHer": 3032,
      "ĠSh": 3033,
      "ĠPr": 3034,
      "entei": 3035,
      "Ġdisp": 3036,
      "ested": 3037,
      "Ġmorar": 3038,
      "Ġdeser": 3039,
      "ago": 3040,
      "Ġoutside": 3041,
      "Ġprecisam": 3042,
      "Ġimedi": 3043,
      "ction": 3044,
      "Ġcontra": 3045,
      "Ġpassou": 3046,
      "Ġexpl": 3047,
      "Ġturned": 3048,
      "Ġglad": 3049,
      "Ġcuidado": 3050,
      "Ġclear": 3051,
      "Ġacabou": 3052,
      "Ġlanguages": 3053,
      "Ġattention": 3054,
      "Ġdelici": 3055,
      "ĠlÃŃngua": 3056,
      "Ġtransl": 3057,
      "Ġthrough": 3058,
      "Ġclothes": 3059,
      "band": 3060,
      "cl": 3061,
      "tÃ£o": 3062,
      "ubro": 3063,
      "vendo": 3064,
      "Ġig": 3065,
      "Ġchat": 3066,
      "Ġcai": 3067,
      "Ġcraz": 3068,
      "iness": 3069,
      "Ġmens": 3070,
      "Ġpu": 3071,
      "Ġnesta": 3072,
      "Ġfas": 3073,
      "Ġbor": 3074,
      "Ġvaz": 3075,
      "Ġlista": 3076,
      "aves": 3077,
      "amais": 3078,
      "ently": 3079,
      "ĠMany": 3080,
      "ĠOcto": 3081,
      "Ġlibr": 3082,
      "unto": 3083,
      "Ġtrinta": 3084,
      "ĠEstava": 3085,
      "ures": 3086,
      "Ġenquanto": 3087,
      "Ġdesse": 3088,
      "Ġrespeito": 3089,
      "Ġcolle": 3090,
      "Ġwaited": 3091,
      "Ġrecl": 3092,
      "Ġawake": 3093,
      "Ġsorte": 3094,
      "ĠesqueÃ§a": 3095,
      "Ġseguro": 3096,
      "Ġescrever": 3097,
      "Ġswimming": 3098,
      "Ġganhar": 3099,
      "ĠThanks": 3100,
      "Ġroupas": 3101,
      "Ġplanejando": 3102,
      "Ġflowers": 3103,
      "Ġfloor": 3104,
      "ĠfÃ©rias": 3105,
      "ĠOctober": 3106,
      "ces": 3107,
      "cel": 3108,
      "mar": 3109,
      "ton": 3110,
      "uta": 3111,
      "vido": 3112,
      "Ġdiga": 3113,
      "Ġpac": 3114,
      "Ġpior": 3115,
      "Ġfim": 3116,
      "Ġhigh": 3117,
      "Ġdep": 3118,
      "Ġgent": 3119,
      "Ġestivesse": 3120,
      "Ġcomm": 3121,
      "iras": 3122,
      "room": 3123,
      "Ġrid": 3124,
      "Ġrather": 3125,
      "Ġjard": 3126,
      "Ġjapon": 3127,
      "Ġsup": 3128,
      "Ġpref": 3129,
      "ĠFal": 3130,
      "Ġdisap": 3131,
      "enda": 3132,
      "Ġweather": 3133,
      "Ġfalou": 3134,
      "Ġprecisar": 3135,
      "Ġfavorito": 3136,
      "Ġentendo": 3137,
      "Ġveget": 3138,
      "Ġbring": 3139,
      "Ġsentindo": 3140,
      "Ġdifer": 3141,
      "azer": 3142,
      "Ġencontrei": 3143,
      "Ġvisitar": 3144,
      "Ġconsegui": 3145,
      "Ġfunny": 3146,
      "Ġfique": 3147,
      "Ġsitu": 3148,
      "ĠChrist": 3149,
      "Ġestranho": 3150,
      "Ġbegin": 3151,
      "Ã¢ncia": 3152,
      "culos": 3153,
      "Ġthirty": 3154,
      "Ġchap": 3155,
      "ĠfrequÃªncia": 3156,
      "Ġneighbor": 3157,
      "Ġchuva": 3158,
      "Ġquickly": 3159,
      "Ġseveral": 3160,
      "Ġimediatamente": 3161,
      "less": 3162,
      "yed": 3163,
      "Ġtivesse": 3164,
      "Ġdess": 3165,
      "Ġsix": 3166,
      "Ġpia": 3167,
      "Ġfig": 3168,
      "Ġfine": 3169,
      "ane": 3170,
      "Ġbal": 3171,
      "atic": 3172,
      "Ġgiv": 3173,
      "ĠApenas": 3174,
      "ĠNat": 3175,
      "ĠSerÃ¡": 3176,
      "Ġacostum": 3177,
      "Ġproud": 3178,
      "Ġcarteira": 3179,
      "Ġloved": 3180,
      "Ġaberta": 3181,
      "ĠchÃ¡": 3182,
      "Ġtea": 3183,
      "Ġgostar": 3184,
      "Ġoutubro": 3185,
      "Ġapro": 3186,
      "Ġcomplain": 3187,
      "Ġentrou": 3188,
      "ept": 3189,
      "Ġespera": 3190,
      "ĠCompre": 3191,
      "Ġproblems": 3192,
      "Ġcorrer": 3193,
      "Ġpensa": 3194,
      "uaÃ§Ã£o": 3195,
      "Ġbarul": 3196,
      "Ġlevar": 3197,
      "Ġopened": 3198,
      "Ġbanco": 3199,
      "ĠÃºnica": 3200,
      "Ġpermit": 3201,
      "Ġcompletamente": 3202,
      "Ġcompletely": 3203,
      "Ġlaughed": 3204,
      "Ġbeij": 3205,
      "Ġpraia": 3206,
      "Ġreason": 3207,
      "ĠcabeÃ§a": 3208,
      "ĠPensei": 3209,
      "aÃ§Ã£o": 3210,
      "bos": 3211,
      "ĠdÃª": 3212,
      "ered": 3213,
      "Ġfing": 3214,
      "Ġhus": 3215,
      "ĠbÃª": 3216,
      "ition": 3217,
      "Ġgif": 3218,
      "Ġcomet": 3219,
      "hood": 3220,
      "veis": 3221,
      "Ġbeach": 3222,
      "Ġrar": 3223,
      "Ġkept": 3224,
      "ĠestÃ¡s": 3225,
      "Ã§as": 3226,
      "ĠfaÃ§o": 3227,
      "ĠSem": 3228,
      "Ġtravel": 3229,
      "ĠCon": 3230,
      "ĠBoth": 3231,
      "Ġama": 3232,
      "Ġfall": 3233,
      "ĠirÃ¡": 3234,
      "Ġterri": 3235,
      "Ġficando": 3236,
      "Ġajudou": 3237,
      "cias": 3238,
      "Ġinteressado": 3239,
      "Ġbanho": 3240,
      "Ġvencer": 3241,
      "Ġtaught": 3242,
      "Ġpermiss": 3243,
      "ĠPergun": 3244,
      "Ġtirou": 3245,
      "ĠÃ³t": 3246,
      "Ġvestido": 3247,
      "Ġviagem": 3248,
      "ĠKeep": 3249,
      "Ġperfect": 3250,
      "Ġcozinha": 3251,
      "Ġsupposed": 3252,
      "Ġresponder": 3253,
      "Ġpopular": 3254,
      "uldade": 3255,
      "ĠchapÃ©u": 3256,
      "Ġhusband": 3257,
      "con": 3258,
      "ward": 3259,
      "yo": 3260,
      "ĠtÃ¡": 3261,
      "Ġtick": 3262,
      "Ġdessa": 3263,
      "inhos": 3264,
      "Ġpiz": 3265,
      "Ġblo": 3266,
      "Ġespe": 3267,
      "Ġdeb": 3268,
      "Ġgas": 3269,
      "Ġestive": 3270,
      "entos": 3271,
      "ĠNem": 3272,
      "ets": 3273,
      "Ġface": 3274,
      "Ġtrou": 3275,
      "Ġvermel": 3276,
      "ĠEstes": 3277,
      "ĠchÃ£o": 3278,
      "Ġage": 3279,
      "ived": 3280,
      "ortun": 3281,
      "Ġcompet": 3282,
      "cara": 3283,
      "Ġhappening": 3284,
      "Ġperguntar": 3285,
      "Ġguess": 3286,
      "Ġconseguir": 3287,
      "Ġhomens": 3288,
      "Ġblind": 3289,
      "Ġcapital": 3290,
      "ĠpaÃŃs": 3291,
      "ĠAlgumas": 3292,
      "Ġinform": 3293,
      "ĠengraÃ§": 3294,
      "Ġchorar": 3295,
      "Ġadoro": 3296,
      "Ġgarota": 3297,
      "Ġempty": 3298,
      "Ġdifferent": 3299,
      "Ġdescobr": 3300,
      "Ġsound": 3301,
      "ĠtelevisÃ£o": 3302,
      "Ġdoubt": 3303,
      "Ġbravo": 3304,
      "Ġcrazy": 3305,
      "ĠChristmas": 3306,
      "ĠNatal": 3307,
      "den": 3308,
      "for": 3309,
      "gon": 3310,
      "ged": 3311,
      "na": 3312,
      "uff": 3313,
      "ĠaÃ§": 3314,
      "Ġavis": 3315,
      "Ġdoming": 3316,
      "Ġcada": 3317,
      "inhar": 3318,
      "Ġpon": 3319,
      "aste": 3320,
      "icas": 3321,
      "Ġconsel": 3322,
      "Ġtroub": 3323,
      "Ġmaking": 3324,
      "Ġpress": 3325,
      "ither": 3326,
      "Ġperig": 3327,
      "Ġleu": 3328,
      "Ġdesk": 3329,
      "iote": 3330,
      "Ġerros": 3331,
      "Ġentende": 3332,
      "Ġmot": 3333,
      "Ġmotor": 3334,
      "feito": 3335,
      "Ġclim": 3336,
      "Ġclosed": 3337,
      "bliote": 3338,
      "Ġassunto": 3339,
      "Ġinterr": 3340,
      "Ġfelizes": 3341,
      "Ġaprend": 3342,
      "Ġesquecer": 3343,
      "Ġvelha": 3344,
      "Ġnuma": 3345,
      "Ġraining": 3346,
      "ĠsituaÃ§Ã£o": 3347,
      "Ġescreveu": 3348,
      "Ġlembro": 3349,
      "Ġyounger": 3350,
      "Ġdiscuss": 3351,
      "ĠrelÃ³g": 3352,
      "Ġmistakes": 3353,
      "Ġimpression": 3354,
      "Ġchair": 3355,
      "ĠPeople": 3356,
      "Ġsimples": 3357,
      "Ġruim": 3358,
      "Ġocupada": 3359,
      "Ġbibliote": 3360,
      "Ġagrade": 3361,
      "Ġazul": 3362,
      "Ġlibrary": 3363,
      "Ġsituation": 3364,
      "ĠComprei": 3365,
      "gas": 3366,
      "iom": 3367,
      "set": 3368,
      "xe": 3369,
      "ĠaÃŃ": 3370,
      "Ġsitting": 3371,
      "Ġmod": 3372,
      "Ġfull": 3373,
      "Ġweren": 3374,
      "Ġhit": 3375,
      "Ġhol": 3376,
      "Ġbath": 3377,
      "Ġdead": 3378,
      "Ġgun": 3379,
      "idge": 3380,
      "Ġegg": 3381,
      "Ġmeia": 3382,
      "ĠWere": 3383,
      "ĠestÃ¡vamos": 3384,
      "Ġreco": 3385,
      "Ġjamais": 3386,
      "Ġsuit": 3387,
      "Ġaccept": 3388,
      "Ġcancel": 3389,
      "Ġgostou": 3390,
      "Ġdesap": 3391,
      "Ġdesist": 3392,
      "Ġworth": 3393,
      "Ġgets": 3394,
      "istic": 3395,
      "ĠJack": 3396,
      "Ġdizendo": 3397,
      "Ġachou": 3398,
      "Ġguy": 3399,
      "Ġviver": 3400,
      "Ġbroken": 3401,
      "Ġsmoking": 3402,
      "Ġpena": 3403,
      "Ġacredita": 3404,
      "Ġsold": 3405,
      "ocked": 3406,
      "Ġpromised": 3407,
      "ĠParis": 3408,
      "ĠvÃ¡rias": 3409,
      "Ġmulheres": 3410,
      "ĠbebÃª": 3411,
      "Ġlembrar": 3412,
      "Ġgift": 3413,
      "Ġtrouble": 3414,
      "ĠrelÃ³gio": 3415,
      "by": 3416,
      "rica": 3417,
      "ĠdÃ¡": 3418,
      "Ġmere": 3419,
      "Ã¡rios": 3420,
      "Ġestaria": 3421,
      "Ġcomendo": 3422,
      "ĠAd": 3423,
      "Ġparou": 3424,
      "Ġali": 3425,
      "Ġrio": 3426,
      "Ġforg": 3427,
      "Ġabriu": 3428,
      "Ġperdo": 3429,
      "Ġfoot": 3430,
      "rendo": 3431,
      "ager": 3432,
      "Ġworry": 3433,
      "Ġimm": 3434,
      "iva": 3435,
      "Ġwhole": 3436,
      "Ãºcar": 3437,
      "itten": 3438,
      "remos": 3439,
      "Ġrespons": 3440,
      "Ġesqueci": 3441,
      "Ġsono": 3442,
      "Ġmostrar": 3443,
      "pped": 3444,
      "pping": 3445,
      "ĠPodemos": 3446,
      "Ġidiom": 3447,
      "Ġshowed": 3448,
      "Ġinvited": 3449,
      "Ġincom": 3450,
      "Ġpictures": 3451,
      "Ġquebrou": 3452,
      "ĠxÃŃ": 3453,
      "Ġfumar": 3454,
      "Ã¡tica": 3455,
      "Ġdangerous": 3456,
      "ĠrazÃ£o": 3457,
      "Ġmessage": 3458,
      "Ġadvice": 3459,
      "Ġtraduz": 3460,
      "Ġbrincando": 3461,
      "Ġcaiu": 3462,
      "Ġmensagem": 3463,
      "Ġjardim": 3464,
      "Ġpizza": 3465,
      "Ġbiblioteca": 3466,
      "bi": 3467,
      "ving": 3468,
      "Ġ5": 3469,
      "Ġsente": 3470,
      "aremos": 3471,
      "ĠTomÃ¡s": 3472,
      "ince": 3473,
      "Ġmand": 3474,
      "Ġmont": 3475,
      "Ġpie": 3476,
      "enÃ§a": 3477,
      "anas": 3478,
      "atro": 3479,
      "Ã¡vamos": 3480,
      "ĠestÃº": 3481,
      "alf": 3482,
      "icos": 3483,
      "ants": 3484,
      "Ã§am": 3485,
      "ĠfazÃª": 3486,
      "Ġquerer": 3487,
      "Ġprest": 3488,
      "ÃŃcio": 3489,
      "Ġfront": 3490,
      "Ġfool": 3491,
      "Ġfotos": 3492,
      "Ġdaqu": 3493,
      "Ġcole": 3494,
      "Ġdeslig": 3495,
      "ughing": 3496,
      "Ġcomplic": 3497,
      "ĠGo": 3498,
      "Ġcerta": 3499,
      "Ġbran": 3500,
      "Ġspeaking": 3501,
      "Ġsentir": 3502,
      "ĠDidn": 3503,
      "Ġestudando": 3504,
      "Ġreconhe": 3505,
      "Ġswe": 3506,
      "Ġdogs": 3507,
      "ĠprÃ³p": 3508,
      "Ġpresent": 3509,
      "Ġacredit": 3510,
      "Ġlaughing": 3511,
      "Ġweekend": 3512,
      "Ġgirls": 3513,
      "Ġgirlfriend": 3514,
      "Ġdocum": 3515,
      "Ġsaiba": 3516,
      "eteu": 3517,
      "Ġtirar": 3518,
      "Ġwomen": 3519,
      "ĠFique": 3520,
      "ĠFiquei": 3521,
      "Ġgaroto": 3522,
      "ĠAtÃ©": 3523,
      "Ġnervoso": 3524,
      "Ġnamorada": 3525,
      "Ġlucky": 3526,
      "Ġignor": 3527,
      "ĠaÃ§Ãºcar": 3528,
      "ĠJackson": 3529,
      "ail": 3530,
      "ef": 3531,
      "hou": 3532,
      "jam": 3533,
      "ned": 3534,
      "pis": 3535,
      "rig": 3536,
      "ĠtÃŃm": 3537,
      "Ġdig": 3538,
      "Ġdance": 3539,
      "Ġslow": 3540,
      "Ġcele": 3541,
      "inte": 3542,
      "Ġmid": 3543,
      "Ġthen": 3544,
      "Ġlic": 3545,
      "Ġdeta": 3546,
      "ĠEuro": 3547,
      "idades": 3548,
      "Ġind": 3549,
      "sol": 3550,
      "ĠNa": 3551,
      "ĠNow": 3552,
      "Ġrai": 3553,
      "Ġfaca": 3554,
      "ĠPut": 3555,
      "Ġknife": 3556,
      "Ġneve": 3557,
      "Ġsugar": 3558,
      "Ġhealth": 3559,
      "Ġtemp": 3560,
      "ĠFui": 3561,
      "pria": 3562,
      "Ġworse": 3563,
      "Ġhop": 3564,
      "enses": 3565,
      "Ġesperava": 3566,
      "Ġadora": 3567,
      "Ġthank": 3568,
      "Ġsense": 3569,
      "Ġsentado": 3570,
      "Ġconheci": 3571,
      "Ġvoltou": 3572,
      "ĠOne": 3573,
      "Ġmarido": 3574,
      "Ġpedi": 3575,
      "Ġmenina": 3576,
      "Ġrecus": 3577,
      "Ġesqueceu": 3578,
      "Ġlembra": 3579,
      "Ġwalked": 3580,
      "Ġterminou": 3581,
      "Ġterminar": 3582,
      "ĠSomeone": 3583,
      "Ġlavar": 3584,
      "Ġgener": 3585,
      "Ġrelax": 3586,
      "Ġbarulho": 3587,
      "father": 3588,
      "fied": 3589,
      "man": 3590,
      "ole": 3591,
      "tico": 3592,
      "udo": 3593,
      "vol": 3594,
      "Ġsi": 3595,
      "Ġsmo": 3596,
      "Ġcent": 3597,
      "esto": 3598,
      "Ġpis": 3599,
      "Ġpri": 3600,
      "Ġpeixe": 3601,
      "Ġhar": 3602,
      "Ġquant": 3603,
      "Ġquiet": 3604,
      "Ġbank": 3605,
      "Ġless": 3606,
      "Ġyell": 3607,
      "Ġesses": 3608,
      "aving": 3609,
      "Ġseg": 3610,
      "Ġsequer": 3611,
      "Ġrul": 3612,
      "Ġride": 3613,
      "Ġriver": 3614,
      "Ġlied": 3615,
      "ĠHav": 3616,
      "Ġfact": 3617,
      "Ġjorn": 3618,
      "Ġsugg": 3619,
      "Ã©s": 3620,
      "Ġcand": 3621,
      "ĠThose": 3622,
      "Ġperdi": 3623,
      "Ġchar": 3624,
      "Ġfalei": 3625,
      "Ġcoat": 3626,
      "Ġlivre": 3627,
      "Ġplans": 3628,
      "Ġbusiness": 3629,
      "Ġcolor": 3630,
      "Ġstudied": 3631,
      "Ġconfi": 3632,
      "Ġdevemos": 3633,
      "ĠprÃ³pria": 3634,
      "Ġpoint": 3635,
      "Ġprofessora": 3636,
      "Ġevening": 3637,
      "Ġpromise": 3638,
      "Ġcatch": 3639,
      "Ġstrange": 3640,
      "Ġmentindo": 3641,
      "Ġassistir": 3642,
      "Ġcinema": 3643,
      "ĠÃ³culos": 3644,
      "Ġtrabalhando": 3645,
      "Ġfrequentemente": 3646,
      "Ġfishing": 3647,
      "Ġcausa": 3648,
      "Ġdetal": 3649,
      "ĠFaÃ§a": 3650,
      "Ġorgulhos": 3651,
      "Ġdisappoint": 3652,
      "dos": 3653,
      "ech": 3654,
      "mes": 3655,
      "ram": 3656,
      "Ġ3": 3657,
      "Ġaer": 3658,
      "Ġcel": 3659,
      "Ġcora": 3660,
      "Ġpost": 3661,
      "oned": 3662,
      "Ġquad": 3663,
      "Ġtoc": 3664,
      "ĠEra": 3665,
      "Ġbase": 3666,
      "Ġgard": 3667,
      "Ġgrow": 3668,
      "entar": 3669,
      "adre": 3670,
      "iria": 3671,
      "lept": 3672,
      "Ġlie": 3673,
      "ĠHere": 3674,
      "ĠSomos": 3675,
      "Ġtroc": 3676,
      "Ġachei": 3677,
      "Ġheart": 3678,
      "Ġweight": 3679,
      "Ġamor": 3680,
      "Ġprova": 3681,
      "Ġenvi": 3682,
      "Ġmorte": 3683,
      "ume": 3684,
      "Ġleast": 3685,
      "Ġagre": 3686,
      "acion": 3687,
      "oporto": 3688,
      "Ġajude": 3689,
      "Ġupset": 3690,
      "Ġapolog": 3691,
      "Ġmove": 3692,
      "Ġmoved": 3693,
      "Ġasking": 3694,
      "ĠMeus": 3695,
      "ĠAss": 3696,
      "Ġconhecer": 3697,
      "Ġfamous": 3698,
      "Ġhorse": 3699,
      "Ġsmart": 3700,
      "Ġconfiar": 3701,
      "Ġdevia": 3702,
      "Ġdriver": 3703,
      "Ġplaneja": 3704,
      "Ġobs": 3705,
      "Ġligou": 3706,
      "Ġcalor": 3707,
      "Ġdiscut": 3708,
      "ĠAquela": 3709,
      "Ġeye": 3710,
      "Ġkissed": 3711,
      "Ġnervous": 3712,
      "Ġconcert": 3713,
      "Ġpequeno": 3714,
      "Ġairport": 3715,
      "Ġminuto": 3716,
      "Ġsoccer": 3717,
      "Ġglasses": 3718,
      "Ġcavalo": 3719,
      "ĠdanÃ§ar": 3720,
      "Ġvacation": 3721,
      "Ġreclam": 3722,
      "Ġtrouxe": 3723,
      "Ġdescobrir": 3724,
      "ĠxÃŃcara": 3725,
      "Ġrules": 3726,
      "Ġaeroporto": 3727,
      "Ġcelular": 3728,
      "Ġgarden": 3729,
      "aÃ§o": 3730,
      "cos": 3731,
      "ios": 3732,
      "Ġty": 3733,
      "Ġagu": 3734,
      "arr": 3735,
      "Ġcima": 3736,
      "Ġcadeira": 3737,
      "inas": 3738,
      "Ġmoun": 3739,
      "Ġnav": 3740,
      "redo": 3741,
      "ĠEven": 3742,
      "Ġble": 3743,
      "Ġdeath": 3744,
      "ĠÃ©s": 3745,
      "road": 3746,
      "ĠDÃª": 3747,
      "ĠSp": 3748,
      "Ġtriste": 3749,
      "ĠChe": 3750,
      "dei": 3751,
      "Ġabs": 3752,
      "Ġamiga": 3753,
      "Ġcasaco": 3754,
      "Ġwhite": 3755,
      "Ġwhich": 3756,
      "Ġescon": 3757,
      "ifica": 3758,
      "Ġeram": 3759,
      "cted": 3760,
      "Ġcheck": 3761,
      "Ġclasse": 3762,
      "Ġpescar": 3763,
      "Ġadvo": 3764,
      "selves": 3765,
      "Ġdrank": 3766,
      "Ġshopping": 3767,
      "Ġmarry": 3768,
      "Ġwritten": 3769,
      "Ġconseguia": 3770,
      "Ġaware": 3771,
      "adores": 3772,
      "Ġfinalmente": 3773,
      "Ã´m": 3774,
      "Ġsleeping": 3775,
      "ĠirmÃ£os": 3776,
      "Ġmudou": 3777,
      "Ġhurry": 3778,
      "Ġbonito": 3779,
      "Ġjogando": 3780,
      "Ġapples": 3781,
      "Ġmissed": 3782,
      "Ġrelig": 3783,
      "Ġzang": 3784,
      "Ġpalavras": 3785,
      "Ġsuccess": 3786,
      "Ġlegal": 3787,
      "Ġaddress": 3788,
      "Ġnormal": 3789,
      "Ã¡ssar": 3790,
      "Ġspoke": 3791,
      "Ġidiota": 3792,
      "clock": 3793,
      "Ġrecogn": 3794,
      "led": 3795,
      "lhe": 3796,
      "of": 3797,
      "ph": 3798,
      "rg": 3799,
      "ub": 3800,
      "Ġtouch": 3801,
      "omp": 3802,
      "ĠTer": 3803,
      "Ġsend": 3804,
      "arian": 3805,
      "arning": 3806,
      "inal": 3807,
      "Ġpho": 3808,
      "Ġponte": 3809,
      "Ġpasse": 3810,
      "Ġpude": 3811,
      "Ġfat": 3812,
      "Ġfamos": 3813,
      "Ġwarn": 3814,
      "Ġquit": 3815,
      "ator": 3816,
      "Ġovos": 3817,
      "Ġviz": 3818,
      "Ġdepress": 3819,
      "enty": 3820,
      "adio": 3821,
      "heu": 3822,
      "Ġinst": 3823,
      "ĠVai": 3824,
      "ils": 3825,
      "Ġmuse": 3826,
      "Ġring": 3827,
      "Ġrir": 3828,
      "Ġrindo": 3829,
      "Ã§os": 3830,
      "ĠDeix": 3831,
      "Ġfazem": 3832,
      "Ġheav": 3833,
      "Ġhead": 3834,
      "Ġprim": 3835,
      "Ġcaro": 3836,
      "Ġcarre": 3837,
      "oken": 3838,
      "Ġabsol": 3839,
      "Ġsabemos": 3840,
      "Ġmoro": 3841,
      "Ġlearning": 3842,
      "Ġcasado": 3843,
      "Ġdesta": 3844,
      "ĠterÃ¡": 3845,
      "ivos": 3846,
      "ished": 3847,
      "Ġworked": 3848,
      "Ġpeso": 3849,
      "Ġgrit": 3850,
      "ĠGer": 3851,
      "Ġbrought": 3852,
      "Ġbridge": 3853,
      "Ġorig": 3854,
      "Ġdific": 3855,
      "ĠlÃ¡pis": 3856,
      "Ġpencil": 3857,
      "Ġaprendeu": 3858,
      "Ġpreso": 3859,
      "ĠvirÃ¡": 3860,
      "Ġgarraf": 3861,
      "Ġothers": 3862,
      "Ġvoo": 3863,
      "Ġpartir": 3864,
      "Ġbreve": 3865,
      "Ġbrothers": 3866,
      "book": 3867,
      "Ġconvinc": 3868,
      "Ġnasceu": 3869,
      "ĠAcab": 3870,
      "Ġregras": 3871,
      "Ġdecide": 3872,
      "Ġensinar": 3873,
      "Ġolhou": 3874,
      "Ġcusta": 3875,
      "ĠEnc": 3876,
      "Ġgrandfather": 3877,
      "Ġroubou": 3878,
      "Ġculp": 3879,
      "Ġculpa": 3880,
      "Ġpaper": 3881,
      "ĠopiniÃ£o": 3882,
      "Ġhuman": 3883,
      "ĠavÃ´": 3884,
      "Ġmanter": 3885,
      "Ġlawy": 3886,
      "Ġneighborhood": 3887,
      "Ġterrible": 3888,
      "ĠtÃ¡xi": 3889,
      "Ġperigoso": 3890,
      "Ġeggs": 3891,
      "Ġcelebr": 3892,
      "Ġmountain": 3893,
      "cas": 3894,
      "fort": 3895,
      "iÃ§Ã£o": 3896,
      "ioso": 3897,
      "kely": 3898,
      "land": 3899,
      "ror": 3900,
      "Ġtio": 3901,
      "Ġsc": 3902,
      "Ġsad": 3903,
      "ĠpÃ¡": 3904,
      "ĠpÃ¡ssar": 3905,
      "Ġnessa": 3906,
      "ench": 3907,
      "Ġfug": 3908,
      "ĠquÃª": 3909,
      "Ġbra": 3910,
      "Ġopt": 3911,
      "Ġvont": 3912,
      "Ġdei": 3913,
      "elos": 3914,
      "ĠMost": 3915,
      "ĠApr": 3916,
      "ĠOu": 3917,
      "ilha": 3918,
      "Ġalive": 3919,
      "Ġalong": 3920,
      "Ġconte": 3921,
      "ĠSÃ£o": 3922,
      "teiro": 3923,
      "Ġstuff": 3924,
      "Ġstole": 3925,
      "ĠEstados": 3926,
      "urch": 3927,
      "Ġperigo": 3928,
      "Ġchess": 3929,
      "Ġamer": 3930,
      "ĠWhose": 3931,
      "Ġcast": 3932,
      "Ġdesper": 3933,
      "agar": 3934,
      "Ġship": 3935,
      "Ġwilling": 3936,
      "ances": 3937,
      "Ġuncle": 3938,
      "Ġapare": 3939,
      "Ġcertain": 3940,
      "Ġsomewhere": 3941,
      "Ġhappens": 3942,
      "Ġsenti": 3943,
      "Ġdiferen": 3944,
      "Ġvolt": 3945,
      "Ġagainst": 3946,
      "Ġcross": 3947,
      "Ġflight": 3948,
      "Ġbelong": 3949,
      "ĠAlice": 3950,
      "ĠTodas": 3951,
      "ĠToday": 3952,
      "Ġchoose": 3953,
      "Ġseguir": 3954,
      "Ġ10": 3955,
      "Ġcuri": 3956,
      "Ġearth": 3957,
      "ĠÃºltimo": 3958,
      "ĠAmbos": 3959,
      "Ġvestindo": 3960,
      "Ġexpected": 3961,
      "Ġdireito": 3962,
      "Ġdivertido": 3963,
      "Ġcanadenses": 3964,
      "ĠmaÃ§Ã£s": 3965,
      "Ġadmit": 3966,
      "Ġxadre": 3967,
      "Ġrisk": 3968,
      "Ġapartamento": 3969,
      "Ġapartment": 3970,
      "ĠUnidos": 3971,
      "Ġsatisfeito": 3972,
      "Ġmedic": 3973,
      "Ġallowed": 3974,
      "Ġminute": 3975,
      "ĠexperiÃªncia": 3976,
      "Ġnaquela": 3977,
      "Ġedu": 3978,
      "Ġdisseram": 3979,
      "Ġexplicar": 3980,
      "ĠbÃªbado": 3981,
      "Ġponto": 3982,
      "Ġforgive": 3983,
      "Ġsmoke": 3984,
      "Ġsegredo": 3985,
      "Ġbaseball": 3986,
      "ĠEncont": 3987,
      "Ġvontade": 3988,
      "Ġxadrez": 3989,
      "ired": 3990,
      "wich": 3991,
      "Ġpack": 3992,
      "ona": 3993,
      "Ġfit": 3994,
      "quina": 3995,
      "angue": 3996,
      "Ġhug": 3997,
      "Ġhalf": 3998,
      "aso": 3999,
      "ased": 4000,
      "ret": 4001,
      "Ġowe": 4002,
      "Ġvend": 4003,
      "Ġvindo": 4004,
      "Ġvista": 4005,
      "eliz": 4006,
      "lev": 4007,
      "Ġnoise": 4008,
      "ĠAqui": 4009,
      "ĠVi": 4010,
      "ĠVÃ¡": 4011,
      "ĠVenha": 4012,
      "ereÃ§o": 4013,
      "Ġrent": 4014,
      "Ġradio": 4015,
      "ĠHas": 4016,
      "olver": 4017,
      "Ġfair": 4018,
      "ĠSo": 4019,
      "ries": 4020,
      "Ġfore": 4021,
      "Ġjum": 4022,
      "Ġmag": 4023,
      "Ġsob": 4024,
      "Ġaband": 4025,
      "Ġenvel": 4026,
      "Ġusa": 4027,
      "Ġcopo": 4028,
      "Ġcasamento": 4029,
      "Ġescuro": 4030,
      "Ġshy": 4031,
      "Ġshort": 4032,
      "Ġarma": 4033,
      "Ġcompany": 4034,
      "Ġgrav": 4035,
      "cios": 4036,
      "Ġsomebody": 4037,
      "Ġtelling": 4038,
      "Ġescolher": 4039,
      "ibil": 4040,
      "ĠEverything": 4041,
      "Ġdemit": 4042,
      "Ġfinally": 4043,
      "Ġfired": 4044,
      "airs": 4045,
      "Ġlevou": 4046,
      "Ġduro": 4047,
      "Ġwatched": 4048,
      "Ġbread": 4049,
      "Ġhardly": 4050,
      "ĠPoderia": 4051,
      "Ġestrange": 4052,
      "ĠrÃ¡dio": 4053,
      "Ġchamar": 4054,
      "Ġcalm": 4055,
      "Ġchorando": 4056,
      "Ġtaxi": 4057,
      "Ġpapel": 4058,
      "Ã³gico": 4059,
      "Ġnatur": 4060,
      "Ġopinion": 4061,
      "ĠOlhe": 4062,
      "Ġsandwich": 4063,
      "ĠimpossÃŃvel": 4064,
      "Ġimpossible": 4065,
      "Ġessas": 4066,
      "Ġvegetarian": 4067,
      "Ġacostumado": 4068,
      "Ġconselho": 4069,
      "Ġnavio": 4070,
      "ric": 4071,
      "Ġice": 4072,
      "ĠTry": 4073,
      "Ġdito": 4074,
      "Ġdra": 4075,
      "Ġsang": 4076,
      "Ġslept": 4077,
      "inhas": 4078,
      "Ġpint": 4079,
      "Ġpull": 4080,
      "Ġboss": 4081,
      "Ġobrigado": 4082,
      "emp": 4083,
      "Ġlit": 4084,
      "elc": 4085,
      "elho": 4086,
      "eless": 4087,
      "Ġestre": 4088,
      "entou": 4089,
      "Ġseis": 4090,
      "Ġseat": 4091,
      "iced": 4092,
      "Ġinten": 4093,
      "ĠAf": 4094,
      "ĠVe": 4095,
      "ĠNe": 4096,
      "igar": 4097,
      "Ġkitch": 4098,
      "olÃ³gico": 4099,
      "Ġfault": 4100,
      "unday": 4101,
      "ĠSomet": 4102,
      "ĠSunday": 4103,
      "cep": 4104,
      "Ã³p": 4105,
      "ĠCont": 4106,
      "ĠBr": 4107,
      "aper": 4108,
      "ÃŃt": 4109,
      "Ġabroad": 4110,
      "Ġprogr": 4111,
      "Ġexter": 4112,
      "Ġexpress": 4113,
      "pende": 4114,
      "ĠLond": 4115,
      "Ġjoke": 4116,
      "Ġchefe": 4117,
      "Ġspeech": 4118,
      "Ġsentou": 4119,
      "Ġdeixei": 4120,
      "Ġroad": 4121,
      "Ġverdadeiro": 4122,
      "Ġestudante": 4123,
      "Ġfizemos": 4124,
      "Ġspoken": 4125,
      "ĠfarÃ¡": 4126,
      "Ġunderstood": 4127,
      "Ġkeys": 4128,
      "Ġsegur": 4129,
      "Ġlevantar": 4130,
      "Ġdrinking": 4131,
      "Ġreceber": 4132,
      "Ġobvi": 4133,
      "Ġatrav": 4134,
      "Ġvenha": 4135,
      "Ġarrive": 4136,
      "Ġrunning": 4137,
      "ĠendereÃ§o": 4138,
      "Ġtreze": 4139,
      "Ġthirteen": 4140,
      "Ġarrested": 4141,
      "Ġensinou": 4142,
      "ĠviolÃ£o": 4143,
      "Ġsucesso": 4144,
      "ĠMuitos": 4145,
      "Ġbetwe": 4146,
      "Ġlouco": 4147,
      "Ġsatisfied": 4148,
      "Ġapaixonado": 4149,
      "ĠsÃ©rio": 4150,
      "ĠAmerican": 4151,
      "Ġdefin": 4152,
      "ĠnegÃ³": 4153,
      "Ġtranslate": 4154,
      "ĠSempre": 4155,
      "Ġespecial": 4156,
      "ĠHavia": 4157,
      "Ġadvogado": 4158,
      "Ġlawyer": 4159,
      "Ġkitchen": 4160,
      "Ġbetween": 4161,
      "col": 4162,
      "du": 4163,
      "gan": 4164,
      "ham": 4165,
      "Ġtie": 4166,
      "Ġci": 4167,
      "ĠcÃ¢": 4168,
      "ĠpÃ£o": 4169,
      "orre": 4170,
      "Ġquatro": 4171,
      "reja": 4172,
      "Ġborrow": 4173,
      "Ġbair": 4174,
      "Ġliga": 4175,
      "Ġdeter": 4176,
      "eles": 4177,
      "Ġmeans": 4178,
      "Ġcomi": 4179,
      "Ġcomem": 4180,
      "ĠMake": 4181,
      "Ġsec": 4182,
      "ĠAp": 4183,
      "ĠVol": 4184,
      "ilty": 4185,
      "vered": 4186,
      "Ġrude": 4187,
      "Ġlikely": 4188,
      "Ġfac": 4189,
      "ĠSent": 4190,
      "cei": 4191,
      "guas": 4192,
      "Ġknown": 4193,
      "ĠConte": 4194,
      "Ġprin": 4195,
      "ĠprÃ©dio": 4196,
      "ĠEstas": 4197,
      "ĠpreÃ§o": 4198,
      "ĠFic": 4199,
      "ĠFaz": 4200,
      "Ġnoticed": 4201,
      "Ġfres": 4202,
      "Ġchurch": 4203,
      "Ġfogo": 4204,
      "Ġamar": 4205,
      "Ġexer": 4206,
      "Ġfalam": 4207,
      "Ġescond": 4208,
      "Ġwords": 4209,
      "Ġoutras": 4210,
      "Ġsemanas": 4211,
      "Ġarre": 4212,
      "Ġcheguei": 4213,
      "Ġsoube": 4214,
      "Ġnovel": 4215,
      "Ġcerca": 4216,
      "Ãºde": 4217,
      "Ġguilty": 4218,
      "Ġescolheu": 4219,
      "Ġdeixa": 4220,
      "Ġcrime": 4221,
      "Ġrecom": 4222,
      "Ġsmell": 4223,
      "Ġteaching": 4224,
      "Ġweeks": 4225,
      "Ã´n": 4226,
      "Ġvisited": 4227,
      "Ġrains": 4228,
      "Ġcats": 4229,
      "ĠChina": 4230,
      "ĠAquilo": 4231,
      "Ġengan": 4232,
      "Ġmoment": 4233,
      "Ġganhou": 4234,
      "Ġregret": 4235,
      "Ġviajar": 4236,
      "Ġanimais": 4237,
      "Ġtornou": 4238,
      "Ġrefused": 4239,
      "Ġforgotten": 4240,
      "Ġocupados": 4241,
      "Ġdifference": 4242,
      "ĠnecessÃ¡rio": 4243,
      "Ġdescob": 4244,
      "Ġtaller": 4245,
      "Ġentendi": 4246,
      "ĠsanduÃŃ": 4247,
      "Ġclaro": 4248,
      "ĠalmoÃ§ar": 4249,
      "Ġcego": 4250,
      "Ġpercebeu": 4251,
      "Ġalunos": 4252,
      "Ġigreja": 4253,
      "Ġdepend": 4254,
      "Ġidiomas": 4255,
      "Ġabsolut": 4256,
      "Ġbairro": 4257,
      "cin": 4258,
      "cem": 4259,
      "jet": 4260,
      "Ġido": 4261,
      "Ġder": 4262,
      "Ġspr": 4263,
      "Ġsort": 4264,
      "oura": 4265,
      "Ġmer": 4266,
      "ĠIngl": 4267,
      "Ġwall": 4268,
      "Ġwake": 4269,
      "Ġball": 4270,
      "Ġdeal": 4271,
      "Ġestacion": 4272,
      "Ġequi": 4273,
      "Ġinteira": 4274,
      "ilh": 4275,
      "ilt": 4276,
      "ilar": 4277,
      "Ġbeise": 4278,
      "Ġcanno": 4279,
      "Ġcaneta": 4280,
      "illed": 4281,
      "Ġchin": 4282,
      "Ġgostei": 4283,
      "ĠsaÃºde": 4284,
      "Ġmorando": 4285,
      "Ġcaso": 4286,
      "Ġescr": 4287,
      "aged": 4288,
      "ĠIsn": 4289,
      "Ġcomple": 4290,
      "Ġfavorita": 4291,
      "Ġclos": 4292,
      "Ġnovas": 4293,
      "Ġpassa": 4294,
      "ĠficarÃ¡": 4295,
      "Ġvolun": 4296,
      "Ġbuilt": 4297,
      "Ġshower": 4298,
      "ations": 4299,
      "mercado": 4300,
      "icip": 4301,
      "Ġmatar": 4302,
      "Ġouvindo": 4303,
      "Ġsonho": 4304,
      "Ġlevant": 4305,
      "Ġdriving": 4306,
      "Ġintend": 4307,
      "Ġembarr": 4308,
      "Ġjoga": 4309,
      "Ġappro": 4310,
      "Ġsisters": 4311,
      "Ġassistindo": 4312,
      "Ġcolocar": 4313,
      "Ġenjoyed": 4314,
      "Ġsupermar": 4315,
      "Ġsupermercado": 4316,
      "Ġperdido": 4317,
      "Ġpequena": 4318,
      "Ġassustado": 4319,
      "ĠdecisÃ£o": 4320,
      "Ġpicked": 4321,
      "Ġodeio": 4322,
      "Ġzoo": 4323,
      "ĠzoolÃ³gico": 4324,
      "Ġbrincar": 4325,
      "Ġpubl": 4326,
      "Ġgentil": 4327,
      "Ġraramente": 4328,
      "Ġticket": 4329,
      "ĠengraÃ§ado": 4330,
      "Ġmontanha": 4331,
      "ĠtÃŃmido": 4332,
      "Ġrecusou": 4333,
      "Ġjornal": 4334,
      "Ġdetalhes": 4335,
      "Ġphoto": 4336,
      "Ġconvinced": 4337,
      "Ġculpado": 4338,
      "ĠdiferenÃ§a": 4339,
      "elcome": 4340,
      "cepcion": 4341,
      "Ġbeisebol": 4342,
      "Ġcannot": 4343,
      "Ġembarrass": 4344,
      "Ġsupermarket": 4345,
      "ience": 4346,
      "ope": 4347,
      "rÃ£o": 4348,
      "sos": 4349,
      "semos": 4350,
      "uit": 4351,
      "vou": 4352,
      "var": 4353,
      "xo": 4354,
      "Ġtivemos": 4355,
      "Ġado": 4356,
      "ĠTurn": 4357,
      "ared": 4358,
      "Ġcried": 4359,
      "Ġmente": 4360,
      "Ġmonte": 4361,
      "Ġph": 4362,
      "Ġple": 4363,
      "Ġpast": 4364,
      "Ġfly": 4365,
      "quio": 4366,
      "Ġwed": 4367,
      "orar": 4368,
      "Ġhab": 4369,
      "Ġtot": 4370,
      "Ġbill": 4371,
      "ativo": 4372,
      "Ġvim": 4373,
      "Ġvendo": 4374,
      "Ġlendo": 4375,
      "Ġgatos": 4376,
      "aved": 4377,
      "idamente": 4378,
      "Ġinj": 4379,
      "ĠNos": 4380,
      "ĠNada": 4381,
      "own": 4382,
      "ĠHel": 4383,
      "Ġcond": 4384,
      "Ġconstru": 4385,
      "Ġstra": 4386,
      "tern": 4387,
      "Ġdipl": 4388,
      "ional": 4389,
      "ÃŃcias": 4390,
      "essar": 4391,
      "Ġfran": 4392,
      "ĠItal": 4393,
      "prim": 4394,
      "Ġmorto": 4395,
      "Ġfalo": 4396,
      "Ġficaram": 4397,
      "istas": 4398,
      "Ġuns": 4399,
      "Ġunivers": 4400,
      "Ġcompre": 4401,
      "ctive": 4402,
      "Ġentered": 4403,
      "ĠEsp": 4404,
      "Ġeats": 4405,
      "Ġcamera": 4406,
      "itted": 4407,
      "Ġsurv": 4408,
      "Ġflor": 4409,
      "Ġpensou": 4410,
      "Ġolhar": 4411,
      "Ġmatou": 4412,
      "Ġfarei": 4413,
      "Ġdormiu": 4414,
      "Ġdecidi": 4415,
      "Ġvoz": 4416,
      "Ġdirty": 4417,
      "Ġhonesto": 4418,
      "Ġinfor": 4419,
      "Ġmaioria": 4420,
      "Ġtaken": 4421,
      "ĠAmanhÃ£": 4422,
      "Ġlimp": 4423,
      "Ġdivertindo": 4424,
      "Ġarrum": 4425,
      "Ġolhando": 4426,
      "Ġski": 4427,
      "Ġfunciona": 4428,
      "ĠalmoÃ§o": 4429,
      "Ġsignifica": 4430,
      "Ġlaran": 4431,
      "ĠMuitas": 4432,
      "Ġnecessary": 4433,
      "ĠlÃŃnguas": 4434,
      "Ġnewsp": 4435,
      "Ġexperience": 4436,
      "Ġdecision": 4437,
      "Ġprison": 4438,
      "Ġcontrol": 4439,
      "Ġfuture": 4440,
      "Ġgolf": 4441,
      "Ġextremely": 4442,
      "Ġdisposto": 4443,
      "Ġdesses": 4444,
      "Ġgiven": 4445,
      "Ġincomod": 4446,
      "Ġraiva": 4447,
      "Ġgarrafa": 4448,
      "ĠOuvi": 4449,
      "emplo": 4450,
      "Ġdefinit": 4451,
      "Ġwedding": 4452,
      "Ġdiplom": 4453,
      "cendo": 4454,
      "dia": 4455,
      "ique": 4456,
      "jas": 4457,
      "ness": 4458,
      "ramos": 4459,
      "Ġill": 4460,
      "ĠTÃ³": 4461,
      "Ġsl": 4462,
      "Ġscre": 4463,
      "Ġcla": 4464,
      "Ġcous": 4465,
      "Ġcrow": 4466,
      "Ġciente": 4467,
      "ined": 4468,
      "Ġpul": 4469,
      "Ġnu": 4470,
      "ened": 4471,
      "Ġfour": 4472,
      "Ġband": 4473,
      "Ġbela": 4474,
      "Ġvive": 4475,
      "itic": 4476,
      "Ġgrew": 4477,
      "idar": 4478,
      "head": 4479,
      "Ġinim": 4480,
      "ĠAonde": 4481,
      "ĠNosso": 4482,
      "ster": 4483,
      "verno": 4484,
      "Ġalta": 4485,
      "Ġrosto": 4486,
      "cha": 4487,
      "ĠSa": 4488,
      "ĠPelo": 4489,
      "ĠtrÃ¡s": 4490,
      "Ġsuic": 4491,
      "Ġcartas": 4492,
      "ĠQuase": 4493,
      "ĠFor": 4494,
      "ĠnotÃŃcias": 4495,
      "Ġchaves": 4496,
      "Ġhistor": 4497,
      "Ġcase": 4498,
      "Ġshut": 4499,
      "Ġesperou": 4500,
      "Ġmeses": 4501,
      "Ġgrad": 4502,
      "Ġimpro": 4503,
      "Ġpassed": 4504,
      "Ġacontece": 4505,
      "Ġsentido": 4506,
      "Ġcompras": 4507,
      "Ġestudantes": 4508,
      "Ġolho": 4509,
      "Ġsmiled": 4510,
      "icial": 4511,
      "Ġfuri": 4512,
      "Ġsorr": 4513,
      "Ġpobre": 4514,
      "Ġchovendo": 4515,
      "Ġsurpresa": 4516,
      "ĠFranÃ§a": 4517,
      "ĠirmÃ£s": 4518,
      "Ġbanheiro": 4519,
      "Ġpersonal": 4520,
      "Ġreceived": 4521,
      "Ġsinging": 4522,
      "Ġmentiu": 4523,
      "brigada": 4524,
      "Ġtakes": 4525,
      "Ġanimal": 4526,
      "Ġanimals": 4527,
      "Ġmonths": 4528,
      "Ġcorrect": 4529,
      "Ġsubject": 4530,
      "ĠDescul": 4531,
      "Ġconvencer": 4532,
      "Ã¡tico": 4533,
      "Ġbottle": 4534,
      "Ġreturned": 4535,
      "Ġpatient": 4536,
      "ĠpÃ´s": 4537,
      "Ġordered": 4538,
      "Ġactually": 4539,
      "Ġconsertar": 4540,
      "Ġfuturo": 4541,
      "Ġgeralmente": 4542,
      "Ġdelicious": 4543,
      "Ġfascin": 4544,
      "Ġdiferentes": 4545,
      "ĠpermissÃ£o": 4546,
      "ĠÃ³timo": 4547,
      "Ġdebaixo": 4548,
      "Ġdomingo": 4549,
      "Ġbranco": 4550,
      "ĠcoraÃ§Ã£o": 4551,
      "Ġforeign": 4552,
      "Ġenvelope": 4553,
      "Ġgravata": 4554,
      "Ġexterior": 4555,
      "ĠcÃ¢mer": 4556,
      "ĠTÃ³quio": 4557,
      "ded": 4558,
      "eado": 4559,
      "firo": 4560,
      "hamos": 4561,
      "su": 4562,
      "ts": 4563,
      "xim": 4564,
      "Ġtor": 4565,
      "ĠTente": 4566,
      "ĠTok": 4567,
      "ĠdÃº": 4568,
      "Ġcell": 4569,
      "isse": 4570,
      "onho": 4571,
      "Ġfomos": 4572,
      "Ġbaixo": 4573,
      "Ġopp": 4574,
      "Ġesqui": 4575,
      "ale": 4576,
      "avera": 4577,
      "entually": 4578,
      "Ġset": 4579,
      "Ġsete": 4580,
      "imas": 4581,
      "ĠWait": 4582,
      "iling": 4583,
      "Ġron": 4584,
      "ched": 4585,
      "olen": 4586,
      "Ġfacil": 4587,
      "Ġstood": 4588,
      "Ġstolen": 4589,
      "Ġtrap": 4590,
      "Ġacon": 4591,
      "Ġtemper": 4592,
      "Ġprice": 4593,
      "Ġcars": 4594,
      "Ġcarros": 4595,
      "Ġpreto": 4596,
      "okes": 4597,
      "uts": 4598,
      "urso": 4599,
      "Ġenem": 4600,
      "Ġmorr": 4601,
      "Ġmoram": 4602,
      "Ġexist": 4603,
      "Ġlead": 4604,
      "Ġcober": 4605,
      "Ġdesped": 4606,
      "Ġfeet": 4607,
      "Ġplays": 4608,
      "izar": 4609,
      "Ġjogou": 4610,
      "Ġhelping": 4611,
      "Ġappre": 4612,
      "Ġcheia": 4613,
      "ephone": 4614,
      "Ġadult": 4615,
      "Ġmelhores": 4616,
      "ĠAsk": 4617,
      "Ġguer": 4618,
      "Ġpensava": 4619,
      "Ġpossibil": 4620,
      "ĠPrefiro": 4621,
      "Ġfinal": 4622,
      "Ġcostas": 4623,
      "Ġpoor": 4624,
      "Ġpool": 4625,
      "Ġsurprise": 4626,
      "Ġmetal": 4627,
      "Ġamigas": 4628,
      "ĠFrance": 4629,
      "Ġdrinks": 4630,
      "ĠChin": 4631,
      "ĠPark": 4632,
      "Ġcuidados": 4633,
      "ediately": 4634,
      "Ġexcited": 4635,
      "Ġsimple": 4636,
      "Ġlarge": 4637,
      "Ġcarefully": 4638,
      "Ġrespondeu": 4639,
      "ĠsofÃ¡": 4640,
      "Ġconhecem": 4641,
      "Ġbasket": 4642,
      "Ġcortou": 4643,
      "Ġcontrat": 4644,
      "Ġsaudades": 4645,
      "Ġtelephone": 4646,
      "Ġwriting": 4647,
      "Ġextremamente": 4648,
      "ĠShould": 4649,
      "Ġcollege": 4650,
      "Ġinformation": 4651,
      "Ġmotorista": 4652,
      "Ġinterrup": 4653,
      "Ġagradecer": 4654,
      "Ġimmediately": 4655,
      "Ġpiece": 4656,
      "ĠestÃºpido": 4657,
      "Ġslowly": 4658,
      "Ġpisc": 4659,
      "Ġdisappointed": 4660,
      "Ġquadro": 4661,
      "Ġagreed": 4662,
      "Ġobserv": 4663,
      "Ġprimavera": 4664,
      "ĠbraÃ§o": 4665,
      "Ġinforma": 4666,
      "ĠTokyo": 4667,
      "bs": 4668,
      "cuse": 4669,
      "dle": 4670,
      "poca": 4671,
      "Ġought": 4672,
      "Ġtur": 4673,
      "Ġata": 4674,
      "ĠTivemos": 4675,
      "Ġcre": 4676,
      "Ġcreat": 4677,
      "inar": 4678,
      "Ġpin": 4679,
      "Ġpos": 4680,
      "Ġfato": 4681,
      "quete": 4682,
      "Ġwal": 4683,
      "Ġtop": 4684,
      "ative": 4685,
      "ature": 4686,
      "Ġoito": 4687,
      "Ġvivo": 4688,
      "Ġesfor": 4689,
      "Ġdecepcion": 4690,
      "Ġdeprim": 4691,
      "eday": 4692,
      "Ġestado": 4693,
      "avil": 4694,
      "Ġeight": 4695,
      "Ġeither": 4696,
      "Ġmex": 4697,
      "Ġcomb": 4698,
      "ices": 4699,
      "ĠÃ©poca": 4700,
      "Ġinstr": 4701,
      "Ġinstru": 4702,
      "Ġnobody": 4703,
      "ĠAj": 4704,
      "ĠNew": 4705,
      "Ġros": 4706,
      "Ġconstr": 4707,
      "Ġjant": 4708,
      "Ġjaz": 4709,
      "Ġstar": 4710,
      "Ġtrazer": 4711,
      "Ġfazemos": 4712,
      "tack": 4713,
      "Ġacordo": 4714,
      "Ã©t": 4715,
      "ĠConhe": 4716,
      "Ġattack": 4717,
      "Ġdiam": 4718,
      "ĠFe": 4719,
      "Ġsopa": 4720,
      "umento": 4721,
      "Ġwhatever": 4722,
      "Ġirre": 4723,
      "Ġbother": 4724,
      "izado": 4725,
      "Ġficaria": 4726,
      "Ġargu": 4727,
      "cts": 4728,
      "Ġmoon": 4729,
      "ateu": 4730,
      "Ġsoub": 4731,
      "Ġsoup": 4732,
      "Ġassass": 4733,
      "Ġplanos": 4734,
      "cip": 4735,
      "Ġachar": 4736,
      "Ġconhecia": 4737,
      "ĠNothing": 4738,
      "Ãªnio": 4739,
      "Ġsometimes": 4740,
      "Ġoffer": 4741,
      "Ġdrug": 4742,
      "Ġcorrendo": 4743,
      "Ġsurpre": 4744,
      "Ġcru": 4745,
      "ĠDever": 4746,
      "Ġdevagar": 4747,
      "Ġpenso": 4748,
      "Ġviram": 4749,
      "ĠquestÃ£o": 4750,
      "Ġdescans": 4751,
      "Ġvoice": 4752,
      "Ġblame": 4753,
      "Ġsleepy": 4754,
      "Ġpretend": 4755,
      "Ġboyfriend": 4756,
      "Ġwalking": 4757,
      "Ġsimilar": 4758,
      "Ġcostuma": 4759,
      "Ġretorn": 4760,
      "Ġnossas": 4761,
      "Ġconvince": 4762,
      "ĠPerdi": 4763,
      "Ġbebida": 4764,
      "Ġtrees": 4765,
      "anhol": 4766,
      "ĠCanadians": 4767,
      "ĠStreet": 4768,
      "Ġprepared": 4769,
      "Ġcozinhar": 4770,
      "Ġsuspect": 4771,
      "Ġvale": 4772,
      "Ġnamorado": 4773,
      "Ġbola": 4774,
      "Ġbolsa": 4775,
      "ĠmÃ¡quina": 4776,
      "Ġirei": 4777,
      "Ġiremos": 4778,
      "ĠpÃ©s": 4779,
      "ĠExcuse": 4780,
      "ĠAmerica": 4781,
      "Ġnaquele": 4782,
      "Ġtalent": 4783,
      "Ġprotect": 4784,
      "Ġaceit": 4785,
      "Ġaceitar": 4786,
      "Ġpudesse": 4787,
      "Ġrapidamente": 4788,
      "Ġpaciente": 4789,
      "Ġbeijou": 4790,
      "Ġdesistir": 4791,
      "Ġmiddle": 4792,
      "Ġquantos": 4793,
      "Ġtocando": 4794,
      "ĠAssim": 4795,
      "ĠSpan": 4796,
      "Ġheavy": 4797,
      "Ġamerican": 4798,
      "Ġmedicine": 4799,
      "ĠseguranÃ§a": 4800,
      "Ġfaculdade": 4801,
      "Ġspring": 4802,
      "Ġhistory": 4803,
      "ĠcÃ¢mera": 4804,
      "Ġaconsel": 4805,
      "Ġappreci": 4806,
      "ĠChinese": 4807,
      "Ġwallet": 4808,
      "case": 4809,
      "fo": 4810,
      "gada": 4811,
      "pare": 4812,
      "rite": 4813,
      "tim": 4814,
      "uso": 4815,
      "way": 4816,
      "Ġ6": 4817,
      "Ġom": 4818,
      "Ġtro": 4819,
      "Ġtente": 4820,
      "Ġtalvez": 4821,
      "omb": 4822,
      "Ġsha": 4823,
      "Ġside": 4824,
      "Ġsci": 4825,
      "Ġsede": 4826,
      "Ġsangue": 4827,
      "ĠcÃ£o": 4828,
      "Ġpaz": 4829,
      "Ġnesse": 4830,
      "Ġwind": 4831,
      "Ġthough": 4832,
      "Ġbateu": 4833,
      "atur": 4834,
      "eman": 4835,
      "Ġvinte": 4836,
      "ĠlÃª": 4837,
      "Ġlut": 4838,
      "Ġlend": 4839,
      "Ġline": 4840,
      "Ġdeep": 4841,
      "ings": 4842,
      "Ġgre": 4843,
      "Ġgel": 4844,
      "Ã¡ria": 4845,
      "Ã¡veis": 4846,
      "Ġug": 4847,
      "Ġurg": 4848,
      "alha": 4849,
      "idÃ£o": 4850,
      "Ġequ": 4851,
      "Ġecon": 4852,
      "Ġcoma": 4853,
      "Ġinn": 4854,
      "Ġinverno": 4855,
      "Ġparede": 4856,
      "eth": 4857,
      "Ġwaste": 4858,
      "Ġcontei": 4859,
      "Ġreach": 4860,
      "ĠDiz": 4861,
      "ĠPl": 4862,
      "Ġjokes": 4863,
      "Ġtrat": 4864,
      "Ġtranc": 4865,
      "Ã©r": 4866,
      "Ġqueres": 4867,
      "ĠBem": 4868,
      "ĠFiz": 4869,
      "Ġaber": 4870,
      "ĠnotÃŃcia": 4871,
      "Ġfruit": 4872,
      "Ġchick": 4873,
      "Ġsabiam": 4874,
      "Ġamaz": 4875,
      "Ġleve": 4876,
      "Ġdesaf": 4877,
      "Ġanywhere": 4878,
      "Ġtens": 4879,
      "astes": 4880,
      "Ġarro": 4881,
      "Ġapar": 4882,
      "ossa": 4883,
      "ĠEsque": 4884,
      "ĠEsses": 4885,
      "Ġsomeday": 4886,
      "Ġtomou": 4887,
      "Ġsentiu": 4888,
      "Ġorgan": 4889,
      "Ġacham": 4890,
      "ĠpedaÃ§o": 4891,
      "Ġrecently": 4892,
      "Ġsorriu": 4893,
      "Ġpolic": 4894,
      "Ġespanhol": 4895,
      "Ġdescri": 4896,
      "Ġprometeu": 4897,
      "Ġwonderful": 4898,
      "Ġpretended": 4899,
      "Ġbons": 4900,
      "Ġboys": 4901,
      "Ġcansada": 4902,
      "Ġrecebeu": 4903,
      "Ġmentir": 4904,
      "ĠvÃ¡rios": 4905,
      "Ġrelat": 4906,
      "Ġtruck": 4907,
      "Ġnossos": 4908,
      "Ġanswered": 4909,
      "Ġduring": 4910,
      "Ġnamed": 4911,
      "Ġpaying": 4912,
      "Ġreport": 4913,
      "culo": 4914,
      "Ġbird": 4915,
      "Ġimpressed": 4916,
      "Ġtornar": 4917,
      "Ġolhada": 4918,
      "ĠStay": 4919,
      "Ġfuncionar": 4920,
      "Ġbeijar": 4921,
      "Ġstanding": 4922,
      "Ġsuppose": 4923,
      "Ġferido": 4924,
      "Ġdesculpas": 4925,
      "ĠOlha": 4926,
      "Ġsounds": 4927,
      "ropel": 4928,
      "Ġbored": 4929,
      "Ġpaci": 4930,
      "ĠjaponÃªs": 4931,
      "Ġpiada": 4932,
      "Ġpiadas": 4933,
      "Ġfigure": 4934,
      "Ġtraduzir": 4935,
      "ĠprÃ³prio": 4936,
      "Ġdetails": 4937,
      "Ġpriv": 4938,
      "Ġsuggest": 4939,
      "Ġapologize": 4940,
      "Ġrecognize": 4941,
      "Ġoriginal": 4942,
      "Ġdificuldade": 4943,
      "Ġoptim": 4944,
      "Ġabandon": 4945,
      "ĠContin": 4946,
      "Ġobvious": 4947,
      "ĠsanduÃŃche": 4948,
      "Ġpublic": 4949,
      "Ġinjured": 4950,
      "ĠHelp": 4951,
      "Ġnewspaper": 4952,
      "Ġappreciate": 4953,
      "VocÃª": 4954,
      "hip": 4955,
      "line": 4956,
      "rado": 4957,
      "tado": 4958,
      "tamente": 4959,
      "uo": 4960,
      "uas": 4961,
      "uid": 4962,
      "Ġ4": 4963,
      "Ġteste": 4964,
      "Ġtinh": 4965,
      "Ġtentei": 4966,
      "Ġau": 4967,
      "Ġaonde": 4968,
      "ĠTra": 4969,
      "Ġden": 4970,
      "Ġdanc": 4971,
      "Ġdentes": 4972,
      "erna": 4973,
      "Ġsave": 4974,
      "Ġsens": 4975,
      "Ġcou": 4976,
      "Ġcir": 4977,
      "Ġcum": 4978,
      "Ġmou": 4979,
      "Ġmis": 4980,
      "Ġmol": 4981,
      "Ġpas": 4982,
      "ĠpÃº": 4983,
      "ism": 4984,
      "Ġnar": 4985,
      "eng": 4986,
      "Ġthirst": 4987,
      "orros": 4988,
      "Ġhates": 4989,
      "rea": 4990,
      "Ġbelo": 4991,
      "Ġotim": 4992,
      "Ġvender": 4993,
      "Ġlon": 4994,
      "Ġloc": 4995,
      "Ġlago": 4996,
      "itam": 4997,
      "Ġgra": 4998,
      "ĠÃģ": 4999,
      "ident": 5000,
      "Ġcomfort": 5001,
      "imin": 5002,
      "stit": 5003,
      "Ġbebe": 5004,
      "Ġbebeu": 5005,
      "Ġmur": 5006,
      "Ġri": 5007,
      "Ġwasting": 5008,
      "ĠYork": 5009,
      "ĠCall": 5010,
      "Ġatropel": 5011,
      "Ġpract": 5012,
      "ution": 5013,
      "endi": 5014,
      "eias": 5015,
      "Ġchose": 5016,
      "Ã³sito": 5017,
      "Ġmorava": 5018,
      "Ġirrit": 5019,
      "Ġleaving": 5020,
      "Ġcasou": 5021,
      "Ġdesen": 5022,
      "agens": 5023,
      "ĠterrÃŃvel": 5024,
      "Ġserv": 5025,
      "Ġcomecei": 5026,
      "ĠLife": 5027,
      "Ġrespect": 5028,
      "Ġapos": 5029,
      "Ġappe": 5030,
      "ĠapÃ³s": 5031,
      "Ġpeg": 5032,
      "Ġclima": 5033,
      "ceram": 5034,
      "Ġdizem": 5035,
      "Ġhero": 5036,
      "ĠherÃ³": 5037,
      "iew": 5038,
      "Ġimped": 5039,
      "Ġspecial": 5040,
      "Ġdeveriam": 5041,
      "anhas": 5042,
      "Ġtoma": 5043,
      "Ġlots": 5044,
      "Ġcolo": 5045,
      "Ġbutton": 5046,
      "ildren": 5047,
      "Ġmaravil": 5048,
      "Ġbrown": 5049,
      "Ġteachers": 5050,
      "ĠcomeÃ§ando": 5051,
      "Ġdevem": 5052,
      "Ġmostrou": 5053,
      "ĠremÃ©dio": 5054,
      "Ġparticip": 5055,
      "Ġpromet": 5056,
      "Ġterminei": 5057,
      "Ġprofessores": 5058,
      "Ġsingle": 5059,
      "Ġeasily": 5060,
      "udei": 5061,
      "Ġchama": 5062,
      "Ġinvest": 5063,
      "Ġkeeps": 5064,
      "Ġacordar": 5065,
      "ĠSomebody": 5066,
      "Ġcontact": 5067,
      "ĠEnt": 5068,
      "Ġpainting": 5069,
      "Ġcooking": 5070,
      "Ġcookies": 5071,
      "Ġgrandes": 5072,
      "Ġeventually": 5073,
      "Ġmachucar": 5074,
      "Ġconcerned": 5075,
      "imentar": 5076,
      "Ġhumor": 5077,
      "Ġfollowed": 5078,
      "Ġcontinuou": 5079,
      "Ġcontinuar": 5080,
      "Ġbasquete": 5081,
      "Ġdivor": 5082,
      "Ġescutar": 5083,
      "Ġgolfe": 5084,
      "Ġdeserve": 5085,
      "Ġchateado": 5086,
      "Ġprefiro": 5087,
      "Ġdiferente": 5088,
      "Ġvermelho": 5089,
      "Ġdaquele": 5090,
      "ĠEurope": 5091,
      "Ã©ssemos": 5092,
      "Ġorgulhoso": 5093,
      "Ġdiscutir": 5094,
      "Ġtype": 5095,
      "Ġfamoso": 5096,
      "Ġdepressed": 5097,
      "ĠAcabei": 5098,
      "ĠpÃ¡ssaro": 5099,
      "Ġnatural": 5100,
      "Ġliter": 5101,
      "ĠBring": 5102,
      "Ġgradu": 5103,
      "Ġguerra": 5104,
      "Ġbasketball": 5105,
      "Ġjazz": 5106,
      "Ġirrelev": 5107,
      "Ġtinham": 5108,
      "ĠpÃºbl": 5109,
      "Ġthirsty": 5110,
      "Eu": 5111,
      "bel": 5112,
      "cu": 5113,
      "dred": 5114,
      "fria": 5115,
      "ius": 5116,
      "iest": 5117,
      "lu": 5118,
      "oper": 5119,
      "pir": 5120,
      "uei": 5121,
      "vard": 5122,
      "vens": 5123,
      "xico": 5124,
      "Ġtam": 5125,
      "Ġtig": 5126,
      "omed": 5127,
      "ert": 5128,
      "ĠsÃ¡": 5129,
      "Ġcade": 5130,
      "Ġmir": 5131,
      "Ġpess": 5132,
      "Ġpur": 5133,
      "ison": 5134,
      "ismo": 5135,
      "Ġnele": 5136,
      "Ġfla": 5137,
      "Ġfantas": 5138,
      "quem": 5139,
      "quÃª": 5140,
      "Ġwet": 5141,
      "Ġwood": 5142,
      "Ġthrew": 5143,
      "Ġhang": 5144,
      "Ġbis": 5145,
      "Ġbil": 5146,
      "emÃ¡tica": 5147,
      "Ġlos": 5148,
      "Ġlinda": 5149,
      "Ġlake": 5150,
      "Ġesquer": 5151,
      "Ġdetes": 5152,
      "iday": 5153,
      "Ġmeant": 5154,
      "adrÃ£o": 5155,
      "irar": 5156,
      "icular": 5157,
      "Ġinteiro": 5158,
      "ĠOde": 5159,
      "Ġparked": 5160,
      "ĠHol": 5161,
      "Ã§ou": 5162,
      "une": 5163,
      "Ġforever": 5164,
      "Ġtra": 5165,
      "Ġsuger": 5166,
      "Ġmap": 5167,
      "Ġmach": 5168,
      "Ġmapa": 5169,
      "Ġheada": 5170,
      "ĠBras": 5171,
      "Ġpressa": 5172,
      "ĠFace": 5173,
      "Ġdisco": 5174,
      "uros": 5175,
      "Ġnotice": 5176,
      "Ġarea": 5177,
      "ulas": 5178,
      "Ġteeth": 5179,
      "Ġenver": 5180,
      "Ġenerg": 5181,
      "Ġenvol": 5182,
      "Ġsaia": 5183,
      "Ġfalava": 5184,
      "Ġcasas": 5185,
      "Ġelev": 5186,
      "Ġescal": 5187,
      "ifÃŃcio": 5188,
      "ists": 5189,
      "Ġresfria": 5190,
      "Ġpeguei": 5191,
      "Ġentr": 5192,
      "Ġhadn": 5193,
      "ĠEscre": 5194,
      "Ġcheio": 5195,
      "Ġcheiro": 5196,
      "Ġesperto": 5197,
      "mother": 5198,
      "Ġadvis": 5199,
      "Ġgoodby": 5200,
      "ief": 5201,
      "icaÃ§Ã£o": 5202,
      "Ġbrilh": 5203,
      "Ġsenso": 5204,
      "anhia": 5205,
      "Ġfilmes": 5206,
      "Ġperguntei": 5207,
      "Ġcorreu": 5208,
      "Ġtiver": 5209,
      "ĠQueremos": 5210,
      "Ġcruz": 5211,
      "Ġfizer": 5212,
      "ĠDev": 5213,
      "Ġrecentemente": 5214,
      "Ġsport": 5215,
      "ĠmatemÃ¡tica": 5216,
      "Ġconfused": 5217,
      "Ġbelieves": 5218,
      "Ġpot": 5219,
      "Ġsoldi": 5220,
      "Ġsonhos": 5221,
      "Ġearl": 5222,
      "Ġvisitou": 5223,
      "Ġmala": 5224,
      "Ġhundred": 5225,
      "Ġestrada": 5226,
      "Ġjogador": 5227,
      "Ġobjet": 5228,
      "Ġdiscurso": 5229,
      "Ġconcordo": 5230,
      "Ġpronta": 5231,
      "Ġoportun": 5232,
      "Ġtelefon": 5233,
      "void": 5234,
      "Ġlimpar": 5235,
      "Ġthird": 5236,
      "Ġcustom": 5237,
      "ĠStates": 5238,
      "Ġconsidered": 5239,
      "Ġpreparar": 5240,
      "Ġwindows": 5241,
      "Ġdrove": 5242,
      "Ġbike": 5243,
      "ĠpropÃ³sito": 5244,
      "Ġpreocupada": 5245,
      "Ġdreams": 5246,
      "imentos": 5247,
      "Ġroupa": 5248,
      "Ġrisco": 5249,
      "Ġconcordou": 5250,
      "ĠbotÃ£o": 5251,
      "ĠRece": 5252,
      "Ġsteal": 5253,
      "Ġwarm": 5254,
      "Ġescutando": 5255,
      "Ġemprestado": 5256,
      "Ġodeia": 5257,
      "Ġdestr": 5258,
      "Ġprefere": 5259,
      "Ġpermitir": 5260,
      "Ġpermission": 5261,
      "Ġblood": 5262,
      "Ġimpressionado": 5263,
      "Ġdesapont": 5264,
      "Ġdesapare": 5265,
      "Ġfootball": 5266,
      "ĠlicenÃ§a": 5267,
      "Ġescondeu": 5268,
      "Ġzangado": 5269,
      "ĠpÃ¡g": 5270,
      "ĠSomething": 5271,
      "Ġprincip": 5272,
      "Ġdescobriu": 5273,
      "Ġequipe": 5274,
      "Ġescrito": 5275,
      "Ġembarrassed": 5276,
      "Ġesquiar": 5277,
      "Ġpiscina": 5278,
      "Ġcreative": 5279,
      "Ġmurder": 5280,
      "Ġmaravilhos": 5281,
      "Ġpessim": 5282,
      "ĠOdeio": 5283,
      "Ġresfriado": 5284,
      "NÃ£o": 5285,
      "aust": 5286,
      "form": 5287,
      "hem": 5288,
      "iÃ§": 5289,
      "night": 5290,
      "oz": 5291,
      "oke": 5292,
      "ross": 5293,
      "sh": 5294,
      "sy": 5295,
      "uÃ§Ã£o": 5296,
      "ximo": 5297,
      "Ġ7": 5298,
      "Ġaper": 5299,
      "ĠTw": 5300,
      "ĠTentei": 5301,
      "Ġsite": 5302,
      "Ġsaved": 5303,
      "arter": 5304,
      "Ġcad": 5305,
      "Ġcream": 5306,
      "inou": 5307,
      "Ġmic": 5308,
      "Ġmill": 5309,
      "Ġpock": 5310,
      "Ġpelas": 5311,
      "osos": 5312,
      "Ġtoca": 5313,
      "Ġtocou": 5314,
      "Ġburn": 5315,
      "atas": 5316,
      "atura": 5317,
      "Ġok": 5318,
      "ĠvÃ³s": 5319,
      "Ġvimos": 5320,
      "Ġlent": 5321,
      "Ġlock": 5322,
      "ities": 5323,
      "Ġesqu": 5324,
      "Ġqueim": 5325,
      "Ġdepende": 5326,
      "Ġgal": 5327,
      "Ġganha": 5328,
      "Ã¡st": 5329,
      "Ġuso": 5330,
      "Ġutil": 5331,
      "alous": 5332,
      "adamente": 5333,
      "Ġcomum": 5334,
      "Ġseven": 5335,
      "icana": 5336,
      "leg": 5337,
      "antic": 5338,
      "ĠAch": 5339,
      "ĠVÃ³s": 5340,
      "ower": 5341,
      "Ġmult": 5342,
      "Ġrum": 5343,
      "ĠliÃ§Ã£o": 5344,
      "Ġconst": 5345,
      "Ã§ar": 5346,
      "ĠPa": 5347,
      "ĠPens": 5348,
      "Ġju": 5349,
      "Ġstam": 5350,
      "Ġacus": 5351,
      "haust": 5352,
      "Ġits": 5353,
      "Ã©c": 5354,
      "ĠCo": 5355,
      "ĠColo": 5356,
      "Ġating": 5357,
      "ĠcanÃ§Ã£o": 5358,
      "Ġcarona": 5359,
      "ĠQuais": 5360,
      "ĠEstÃ£o": 5361,
      "ĠporquÃª": 5362,
      "Ġdisto": 5363,
      "ĠHey": 5364,
      "Ġamava": 5365,
      "Ġproject": 5366,
      "Ġexaust": 5367,
      "Ġexhaust": 5368,
      "Ġleva": 5369,
      "Ġcoin": 5370,
      "Ġcool": 5371,
      "Ġcooper": 5372,
      "ightened": 5373,
      "Ġterce": 5374,
      "ĠcomeÃ§a": 5375,
      "ivamente": 5376,
      "Ġjoin": 5377,
      "Ġcompanhia": 5378,
      "Ġcontato": 5379,
      "Ġentendeu": 5380,
      "Ġeverywhere": 5381,
      "Ġseeing": 5382,
      "Ġbrig": 5383,
      "ĠaconteÃ§a": 5384,
      "Ġdeixaria": 5385,
      "ĠSeja": 5386,
      "Ġshop": 5387,
      "Ġshot": 5388,
      "Ġpouqu": 5389,
      "ĠOntem": 5390,
      "liable": 5391,
      "Ġmeninas": 5392,
      "ĠÃºtil": 5393,
      "Ġideas": 5394,
      "ĠhorrÃŃvel": 5395,
      "Ġsmarter": 5396,
      "Ġconfort": 5397,
      "Ġbelieved": 5398,
      "Ġpresentes": 5399,
      "Ġgaragem": 5400,
      "Ġsolar": 5401,
      "Ġcachorros": 5402,
      "Ġ18": 5403,
      "Ġpreocu": 5404,
      "Ġembaixo": 5405,
      "Ġ200": 5406,
      "Ġchamou": 5407,
      "Ġpago": 5408,
      "Ġmoving": 5409,
      "Ġchorou": 5410,
      "Ġtax": 5411,
      "stron": 5412,
      "Ġacabei": 5413,
      "Ġexpecting": 5414,
      "Ġended": 5415,
      "Ġattra": 5416,
      "Ġpainted": 5417,
      "Ġperfeito": 5418,
      "Ġbeijo": 5419,
      "Ġpreparado": 5420,
      "Ġcorreto": 5421,
      "Ġgrandmother": 5422,
      "uÃŃda": 5423,
      "Ġsignific": 5424,
      "Ġmachucou": 5425,
      "ologia": 5426,
      "Ġlavou": 5427,
      "Ġspends": 5428,
      "ĠmÃ¡ximo": 5429,
      "ĠUnited": 5430,
      "ĠavÃ³": 5431,
      "ificar": 5432,
      "Ġambul": 5433,
      "Ġpunished": 5434,
      "Ġlights": 5435,
      "Ġreasons": 5436,
      "ushed": 5437,
      "ĠLeave": 5438,
      "Ġdressed": 5439,
      "Ġpuder": 5440,
      "Ġdivid": 5441,
      "Ġdesej": 5442,
      "Ġidiot": 5443,
      "ĠcaminhÃ£o": 5444,
      "Ġfaster": 5445,
      "Ġvazia": 5446,
      "Ġvazio": 5447,
      "Ġjaponesa": 5448,
      "Ġclimbed": 5449,
      "Ġmerece": 5450,
      "Ġcolegas": 5451,
      "Ġdesligou": 5452,
      "Ġhoping": 5453,
      "Ġsecond": 5454,
      "Ġscream": 5455,
      "Ġinimigo": 5456,
      "Ġenemy": 5457,
      "Ġmorreram": 5458,
      "ĠConheÃ§o": 5459,
      "ĠSpanish": 5460,
      "Ġinnoc": 5461,
      "Ġlonely": 5462,
      "ĠFacebook": 5463,
      "Ġenvergon": 5464,
      "Ġearlier": 5465,
      "Ġmillion": 5466,
      "What": 5467,
      "cy": 5468,
      "cri": 5469,
      "cut": 5470,
      "fish": 5471,
      "ging": 5472,
      "gest": 5473,
      "jeto": 5474,
      "mp": 5475,
      "ping": 5476,
      "ppy": 5477,
      "tur": 5478,
      "tura": 5479,
      "uj": 5480,
      "yst": 5481,
      "Ġ8": 5482,
      "ĠtÃª": 5483,
      "Ġtap": 5484,
      "Ġtend": 5485,
      "Ġtreat": 5486,
      "Ġavoid": 5487,
      "Ġsock": 5488,
      "Ġcow": 5489,
      "Ġcour": 5490,
      "ĠcÃ©u": 5491,
      "Ġcigar": 5492,
      "inos": 5493,
      "ano": 5494,
      "Ġham": 5495,
      "ash": 5496,
      "Ġbri": 5497,
      "Ġoce": 5498,
      "ement": 5499,
      "Ġlaz": 5500,
      "Ġlidar": 5501,
      "itado": 5502,
      "Ġcometeu": 5503,
      "Ġumas": 5504,
      "ĠinÃº": 5505,
      "ayed": 5506,
      "Ġren": 5507,
      "ches": 5508,
      "ĠPedi": 5509,
      "rib": 5510,
      "Ġemerg": 5511,
      "Ġstorm": 5512,
      "ĠYesterday": 5513,
      "happy": 5514,
      "ĠCl": 5515,
      "ĠCostum": 5516,
      "Ġvergon": 5517,
      "usa": 5518,
      "Ġcarry": 5519,
      "ĠEstarei": 5520,
      "uda": 5521,
      "ÃŃst": 5522,
      "Ġdisag": 5523,
      "Ġdiscre": 5524,
      "Ġperten": 5525,
      "Ġweak": 5526,
      "Ġtears": 5527,
      "Ġprove": 5528,
      "Ġsaindo": 5529,
      "Ġexame": 5530,
      "Ġexcept": 5531,
      "Ġplant": 5532,
      "Ġtendo": 5533,
      "Ġrealized": 5534,
      "Ġficado": 5535,
      "ĠLem": 5536,
      "Ġunhappy": 5537,
      "ctions": 5538,
      "Ġpego": 5539,
      "Ġented": 5540,
      "Ġcheated": 5541,
      "Ġclock": 5542,
      "redit": 5543,
      "ĠCanada": 5544,
      "Ġhouses": 5545,
      "Ġestarei": 5546,
      "Ġord": 5547,
      "Ġplayer": 5548,
      "Ġconheceu": 5549,
      "ĠSeus": 5550,
      "Ġroof": 5551,
      "ianÃ§a": 5552,
      "icked": 5553,
      "Ġvisita": 5554,
      "Ġmenor": 5555,
      "ĠDevo": 5556,
      "atoes": 5557,
      "Ġcalling": 5558,
      "Ġtwice": 5559,
      "Ġtwenty": 5560,
      "Ġmater": 5561,
      "Ġgarot": 5562,
      "Ġrespond": 5563,
      "Ġouvido": 5564,
      "Ġunderstands": 5565,
      "Ġvote": 5566,
      "Ġparticular": 5567,
      "Ġsincer": 5568,
      "ints": 5569,
      "ĠChildren": 5570,
      "Ġintro": 5571,
      "Ġescreve": 5572,
      "Ġescrevendo": 5573,
      "Ġident": 5574,
      "ĠchegarÃ¡": 5575,
      "ĠincÃªn": 5576,
      "Ġbigger": 5577,
      "Ġinfeliz": 5578,
      "ĠCanadÃ¡": 5579,
      "ĠAchei": 5580,
      "Ġatrasar": 5581,
      "ĠdireÃ§Ã£o": 5582,
      "Ġexcel": 5583,
      "ĠPegue": 5584,
      "Ġskirt": 5585,
      "Ġjeans": 5586,
      "Ġjealous": 5587,
      "Ġjanelas": 5588,
      "Ġsusp": 5589,
      "Ġsuspeito": 5590,
      "Ġroubado": 5591,
      "Ġchanges": 5592,
      "Ġnisto": 5593,
      "Ġmachuc": 5594,
      "ology": 5595,
      "Ġnative": 5596,
      "Ġloud": 5597,
      "ĠencontrÃ¡": 5598,
      "Ġencontramos": 5599,
      "Ġbott": 5600,
      "Ġaddict": 5601,
      "ĠpÃ´de": 5602,
      "Ġescapar": 5603,
      "Ġtelevision": 5604,
      "Ġresultado": 5605,
      "ĠedifÃŃcio": 5606,
      "ĠprisÃ£o": 5607,
      "Ġcontrato": 5608,
      "Ġnormalmente": 5609,
      "Ġdeseja": 5610,
      "Ġconvidados": 5611,
      "Ġemprestar": 5612,
      "ĠSabes": 5613,
      "ĠSabemos": 5614,
      "Ġvivem": 5615,
      "Ġbrinqu": 5616,
      "Ġaluno": 5617,
      "Ġcontract": 5618,
      "Ġpux": 5619,
      "Ġdomingos": 5620,
      "Ġsimplesmente": 5621,
      "ĠEuropa": 5622,
      "Ġpassei": 5623,
      "Ġmuseum": 5624,
      "Ġcurious": 5625,
      "ĠEncontrei": 5626,
      "Ġdemitido": 5627,
      "Ġdraw": 5628,
      "ĠintenÃ§Ã£o": 5629,
      "ĠnegÃ³cios": 5630,
      "ĠInglÃªs": 5631,
      "Ġskiing": 5632,
      "ĠDesculpe": 5633,
      "Ġugly": 5634,
      "Ġeconom": 5635,
      "Ġchicken": 5636,
      "ĠrelatÃ³rio": 5637,
      "Ġcouple": 5638,
      "ĠpÃºblico": 5639,
      "Ġmachine": 5640,
      "Ġheadache": 5641,
      "Ġadvised": 5642,
      "Ġgoodbye": 5643,
      "Ġoportunidade": 5644,
      "ĠColoque": 5645,
      "Ġgarotas": 5646,
      "No": 5647,
      "dic": 5648,
      "gia": 5649,
      "ijo": 5650,
      "irei": 5651,
      "ling": 5652,
      "ove": 5653,
      "pes": 5654,
      "vida": 5655,
      "vista": 5656,
      "vidas": 5657,
      "wel": 5658,
      "Ġtill": 5659,
      "Ġtour": 5660,
      "Ġtanta": 5661,
      "Ġahead": 5662,
      "Ġaulas": 5663,
      "ĠTive": 5664,
      "Ġdad": 5665,
      "ery": 5666,
      "arvard": 5667,
      "ĠTome": 5668,
      "Ġcen": 5669,
      "Ġcere": 5670,
      "ĠmÃ¡s": 5671,
      "Ġpill": 5672,
      "Ġpont": 5673,
      "Ġnor": 5674,
      "Ġnap": 5675,
      "Ġfeio": 5676,
      "Ġwelcome": 5677,
      "oro": 5678,
      "ordei": 5679,
      "Ġha": 5680,
      "Ġhy": 5681,
      "Ġhes": 5682,
      "Ġquil": 5683,
      "Ġquantas": 5684,
      "Ã£es": 5685,
      "Ġtowel": 5686,
      "Ġboca": 5687,
      "Ġbench": 5688,
      "Ġoper": 5689,
      "Ġvic": 5690,
      "Ġlu": 5691,
      "Ġlei": 5692,
      "Ġligo": 5693,
      "its": 5694,
      "ites": 5695,
      "eding": 5696,
      "Ġgan": 5697,
      "Ġisland": 5698,
      "Ġestudo": 5699,
      "ĠÃŃ": 5700,
      "ames": 5701,
      "icago": 5702,
      "ĠWell": 5703,
      "Ġink": 5704,
      "Ġinde": 5705,
      "ĠNenhum": 5706,
      "Ġanel": 5707,
      "ila": 5708,
      "etas": 5709,
      "igos": 5710,
      "igent": 5711,
      "ĠalÃ©m": 5712,
      "Ġrais": 5713,
      "Ġrice": 5714,
      "Ġrock": 5715,
      "Ġliar": 5716,
      "ĠHarvard": 5717,
      "olved": 5718,
      "Ġoferta": 5719,
      "Ġfail": 5720,
      "unci": 5721,
      "unting": 5722,
      "key": 5723,
      "ĠPap": 5724,
      "Ġforward": 5725,
      "Ġja": 5726,
      "Ġjail": 5727,
      "Ġstuck": 5728,
      "Ġtraf": 5729,
      "Ġmau": 5730,
      "haps": 5731,
      "ters": 5732,
      "ĠCho": 5733,
      "ĠCuid": 5734,
      "ĠBraz": 5735,
      "Ġcards": 5736,
      "Ġpregu": 5737,
      "ĠFico": 5738,
      "ÃŃf": 5739,
      "Ġfrase": 5740,
      "Ġperna": 5741,
      "eiÃ§Ã£o": 5742,
      "Ġchall": 5743,
      "estade": 5744,
      "ustomed": 5745,
      "Ġenfer": 5746,
      "Ġaque": 5747,
      "Ġcovered": 5748,
      "Ġcasados": 5749,
      "Ġdesm": 5750,
      "Ġdesem": 5751,
      "Ġplenty": 5752,
      "ache": 5753,
      "Ġesco": 5754,
      "Ġshare": 5755,
      "ĠcomeÃ§o": 5756,
      "Ġrealiz": 5757,
      "Ġrealize": 5758,
      "astic": 5759,
      "ĠLamento": 5760,
      "akes": 5761,
      "Ġheld": 5762,
      "Ġunl": 5763,
      "Ġresist": 5764,
      "Ġresolver": 5765,
      "Ġcomport": 5766,
      "Ġcheap": 5767,
      "ateful": 5768,
      "Ġveja": 5769,
      "Ġtalks": 5770,
      "Ġadi": 5771,
      "ĠGu": 5772,
      "Ġgotten": 5773,
      "anhos": 5774,
      "Ġjusto": 5775,
      "Ġlongo": 5776,
      "ĠNot": 5777,
      "ĠNova": 5778,
      "Ãªncio": 5779,
      "Ġcaminhar": 5780,
      "Ġfriendly": 5781,
      "Ġpensam": 5782,
      "ĠAlguns": 5783,
      "ĠDeus": 5784,
      "Ġpossamos": 5785,
      "ĠÃ¡rea": 5786,
      "Ġsmile": 5787,
      "Ġapres": 5788,
      "Ġpresidente": 5789,
      "Ġpolicial": 5790,
      "Ġespere": 5791,
      "Ġsalt": 5792,
      "Ġgarage": 5793,
      "Ġdecidir": 5794,
      "Ġbarato": 5795,
      "Ġduvido": 5796,
      "Ġpartida": 5797,
      "Ġerrada": 5798,
      "Ġwondered": 5799,
      "Ġpretendo": 5800,
      "Ġprovar": 5801,
      "ĠprovÃ¡vel": 5802,
      "ĠChicago": 5803,
      "Ġjuntar": 5804,
      "Ġdiria": 5805,
      "Ġmalu": 5806,
      "Ġideias": 5807,
      "Ġwinter": 5808,
      "board": 5809,
      "Ġcostumo": 5810,
      "Ġcalmo": 5811,
      "Ġconcent": 5812,
      "ĠincrÃŃvel": 5813,
      "Ġlistened": 5814,
      "Ġacordou": 5815,
      "Ġtaunting": 5816,
      "Ġnames": 5817,
      "Ġcuidar": 5818,
      "Ġclassm": 5819,
      "Ġkidding": 5820,
      "Ġtrabalham": 5821,
      "ĠAconte": 5822,
      "Ġsegundas": 5823,
      "Ġacontecido": 5824,
      "Ġrefrig": 5825,
      "Ġdirigindo": 5826,
      "Ġsky": 5827,
      "Ġcontinue": 5828,
      "Ġcorreio": 5829,
      "Ġevitar": 5830,
      "Ġproposta": 5831,
      "Ġfechar": 5832,
      "ĠÃ¡rvores": 5833,
      "Ġconcerto": 5834,
      "Ġconvencido": 5835,
      "Ġpreocupar": 5836,
      "Ġbetr": 5837,
      "Ġdesculpar": 5838,
      "Ġchegando": 5839,
      "000": 5840,
      "Ġpunido": 5841,
      "Ġ197": 5842,
      "Ġneighbors": 5843,
      "ĠconhecÃª": 5844,
      "Ġclarin": 5845,
      "ĠLev": 5846,
      "Ġproteger": 5847,
      "ĠromÃ¢n": 5848,
      "Ġromantic": 5849,
      "Ġconvidou": 5850,
      "Ġsaudade": 5851,
      "ĠsilÃªncio": 5852,
      "Ġmemory": 5853,
      "Ġcresci": 5854,
      "ĠsaÃŃda": 5855,
      "Ġcommon": 5856,
      "Ġsuporto": 5857,
      "Ġaproxim": 5858,
      "ĠPergunte": 5859,
      "Ġmotiv": 5860,
      "Ġmotivo": 5861,
      "Ġaprendi": 5862,
      "Ġcomplicated": 5863,
      "Ġdocument": 5864,
      "Ġtempestade": 5865,
      "Ġhopes": 5866,
      "Ġharm": 5867,
      "Ġharder": 5868,
      "ĠGerm": 5869,
      "Ġdesperdi": 5870,
      "Ġcertainly": 5871,
      "Ġjumped": 5872,
      "Ġabsolutely": 5873,
      "Ġlevantou": 5874,
      "Ġdefinitely": 5875,
      "Ġopportun": 5876,
      "Ġfacilmente": 5877,
      "Ġtrapace": 5878,
      "Ġassassin": 5879,
      "Ġdescansar": 5880,
      "ĠDizem": 5881,
      "Ġdesafio": 5882,
      "Ġarroz": 5883,
      "Ġdenied": 5884,
      "Ġcomfortable": 5885,
      "Ġtamanho": 5886,
      "Ġbilhe": 5887,
      "Ġlosing": 5888,
      "ĠBrasil": 5889,
      "Ġpreocupe": 5890,
      "Ġmaterial": 5891,
      "ĠincÃªndio": 5892,
      "Ġexcelente": 5893,
      "ĠPapai": 5894,
      "Ġtraffic": 5895,
      "ĠBrazil": 5896,
      "Ġrefriger": 5897,
      "cito": 5898,
      "cemos": 5899,
      "dom": 5900,
      "eiro": 5901,
      "host": 5902,
      "oa": 5903,
      "og": 5904,
      "sas": 5905,
      "simo": 5906,
      "Ģs": 5907,
      "Ġtinta": 5908,
      "Ġtantas": 5909,
      "Ġtastes": 5910,
      "Ġade": 5911,
      "Ġastron": 5912,
      "Ġdam": 5913,
      "Ġdating": 5914,
      "eral": 5915,
      "Ġsight": 5916,
      "ises": 5917,
      "Ġnorte": 5918,
      "Ġnuts": 5919,
      "ences": 5920,
      "ono": 5921,
      "ques": 5922,
      "quest": 5923,
      "Ġquais": 5924,
      "asure": 5925,
      "Ġtoward": 5926,
      "ĠEi": 5927,
      "Ġbow": 5928,
      "Ġbone": 5929,
      "Ġvar": 5930,
      "Ġland": 5931,
      "Ġlhes": 5932,
      "Ġyes": 5933,
      "itou": 5934,
      "itamente": 5935,
      "itivo": 5936,
      "Ġdedic": 5937,
      "Ġgast": 5938,
      "Ġgate": 5939,
      "Ġglo": 5940,
      "ocente": 5941,
      "Ġestas": 5942,
      "Ġeff": 5943,
      "Ġmeias": 5944,
      "ird": 5945,
      "Ġsepar": 5946,
      "ley": 5947,
      "Ġinse": 5948,
      "Ġinocente": 5949,
      "Ġnove": 5950,
      "Ġnote": 5951,
      "antage": 5952,
      "ĠAr": 5953,
      "ĠOf": 5954,
      "ĠObrigada": 5955,
      "ilhar": 5956,
      "iliar": 5957,
      "igr": 5958,
      "Ġra": 5959,
      "Ġliber": 5960,
      "olveu": 5961,
      "Ġremo": 5962,
      "Ġonline": 5963,
      "Ã§ando": 5964,
      "Ã§amos": 5965,
      "Ġofere": 5966,
      "Ġparado": 5967,
      "ĠDÃ¡": 5968,
      "Ġfailed": 5969,
      "ĠSatur": 5970,
      "ĠPro": 5971,
      "rido": 5972,
      "Ġjul": 5973,
      "Ġjack": 5974,
      "Ġtrag": 5975,
      "Ġnegou": 5976,
      "Ġmac": 5977,
      "Ġmail": 5978,
      "Ġactor": 5979,
      "Ġacross": 5980,
      "apped": 5981,
      "aporte": 5982,
      "Ġcard": 5983,
      "ĠThree": 5984,
      "Ġyourselves": 5985,
      "udge": 5986,
      "ÃŃses": 5987,
      "essem": 5988,
      "Ġfrightened": 5989,
      "Ġpersu": 5990,
      "Ġsabes": 5991,
      "Ġwebs": 5992,
      "Ġteus": 5993,
      "Ġmorou": 5994,
      "ĠexÃ©r": 5995,
      "ellent": 5996,
      "elligent": 5997,
      "Ġcash": 5998,
      "Ġdescer": 5999,
      "Ġboas": 6000,
      "Ġshall": 6001,
      "Ġprecisou": 6002,
      "Ġhapp": 6003,
      "Ġcompart": 6004,
      "Ġcontrib": 6005,
      "Ġpeace": 6006,
      "Ġenter": 6007,
      "Ġgrateful": 6008,
      "Ġadap": 6009,
      "Ġherself": 6010,
      "ĠGr": 6011,
      "ĠGod": 6012,
      "Ġparecer": 6013,
      "Ġparecem": 6014,
      "Ġpassport": 6015,
      "Ġpassaporte": 6016,
      "Ġsentence": 6017,
      "Ġlonga": 6018,
      "Ġdeixado": 6019,
      "Ġconserv": 6020,
      "Ġcorr": 6021,
      "ĠOnly": 6022,
      "Ġpedra": 6023,
      "Ġpedindo": 6024,
      "Ġstaying": 6025,
      "Ġestuda": 6026,
      "ĠDepois": 6027,
      "Ġswitch": 6028,
      "Ġmadeira": 6029,
      "icious": 6030,
      "Ġconfuso": 6031,
      "Ġimportaria": 6032,
      "Ġdevolver": 6033,
      "Ġfeels": 6034,
      "Ġpolite": 6035,
      "Ġespelho": 6036,
      "Ġsonh": 6037,
      "Ġcute": 6038,
      "Ġbarely": 6039,
      "Ġpromessa": 6040,
      "Ġperguntando": 6041,
      "Ġrained": 6042,
      "Ġansioso": 6043,
      "Ġintelligent": 6044,
      "ĠpaÃŃses": 6045,
      "Ġmalas": 6046,
      "Ġuseful": 6047,
      "Ġsinger": 6048,
      "Ġcalend": 6049,
      "Ġpagou": 6050,
      "Ġinvolved": 6051,
      "Ġincl": 6052,
      "Ġvenceu": 6053,
      "Ġzomb": 6054,
      "Ġensino": 6055,
      "Ġclasses": 6056,
      "Ġvestir": 6057,
      "Ġtrabalhou": 6058,
      "ĠacontecerÃ¡": 6059,
      "Ġexcellent": 6060,
      "Ġpoderiam": 6061,
      "ĠEntÃ£o": 6062,
      "Ġdirige": 6063,
      "Ġfuncionando": 6064,
      "Ġimporto": 6065,
      "Ġvalu": 6066,
      "Ġquebrado": 6067,
      "Ġdrogas": 6068,
      "Ġdropped": 6069,
      "ĠAny": 6070,
      "Ġferro": 6071,
      "ĠMuito": 6072,
      "Ġfechada": 6073,
      "Ġnativo": 6074,
      "Ġdesculpe": 6075,
      "Ġchegamos": 6076,
      "ĠRealmente": 6077,
      "Ġambos": 6078,
      "Ġescaped": 6079,
      "Ġwashed": 6080,
      "ĠdistÃ¢ncia": 6081,
      "Ġdesejo": 6082,
      "Ġbagun": 6083,
      "Ġdestro": 6084,
      "Ġselos": 6085,
      "Ġseldom": 6086,
      "ĠmemÃ³ria": 6087,
      "Ġtelhado": 6088,
      "Ġluzes": 6089,
      "Ġhiding": 6090,
      "ĠTrÃªs": 6091,
      "Ġrarely": 6092,
      "ĠPerguntei": 6093,
      "Ġvermelha": 6094,
      "Ġhold": 6095,
      "Ġbathroom": 6096,
      "Ġperdoar": 6097,
      "Ġmandou": 6098,
      "Ġprestando": 6099,
      "Ġsweater": 6100,
      "Ġcentro": 6101,
      "Ġsuggested": 6102,
      "ĠconfiÃ¡vel": 6103,
      "Ġpostp": 6104,
      "Ġbleeding": 6105,
      "Ġvizinhos": 6106,
      "Ġapareceu": 6107,
      "Ġbelongs": 6108,
      "ĠLondon": 6109,
      "ĠLondres": 6110,
      "ĠAposto": 6111,
      "Ġexerc": 6112,
      "Ġarrep": 6113,
      "Ġvolunte": 6114,
      "Ġtotalmente": 6115,
      "Ġstraight": 6116,
      "Ġfrango": 6117,
      "Ġsurvived": 6118,
      "Ġcousin": 6119,
      "Ġfurioso": 6120,
      "Ġsoubesse": 6121,
      "Ġamericano": 6122,
      "Ġgeladeira": 6123,
      "ĠaparÃªncia": 6124,
      "Ġmentiroso": 6125,
      "Ġauth": 6126,
      "Ġdancing": 6127,
      "ĠherÃ³i": 6128,
      "Ġimpedir": 6129,
      "Ġmirror": 6130,
      "ĠDevemos": 6131,
      "Ġexhausted": 6132,
      "Ġpouquinho": 6133,
      "Ġinnocent": 6134,
      "Ġcourse": 6135,
      "Ġvergonha": 6136,
      "Ġentediado": 6137,
      "Ġsuspicious": 6138,
      "ĠpreguiÃ§": 6139,
      "Ġopportunity": 6140,
      "Ġwebsite": 6141,
      "ĠexÃ©rcito": 6142,
      "Yes": 6143,
      "cr": 6144,
      "ea": 6145,
      "fa": 6146,
      "gy": 6147,
      "gen": 6148,
      "iou": 6149,
      "iamente": 6150,
      "jamos": 6151,
      "pend": 6152,
      "rando": 6153,
      "tando": 6154,
      "taram": 6155,
      "ute": 6156,
      "vas": 6157,
      "vÃª": 6158,
      "vio": 6159,
      "vete": 6160,
      "ye": 6161,
      "zentos": 6162,
      "Ġil": 6163,
      "Ġilha": 6164,
      "Ġtat": 6165,
      "Ġtome": 6166,
      "Ġtiv": 6167,
      "Ġast": 6168,
      "omo": 6169,
      "ĠTambÃ©m": 6170,
      "Ġdut": 6171,
      "ero": 6172,
      "Ġsar": 6173,
      "Ġcra": 6174,
      "Ġcient": 6175,
      "ĠcÃ£es": 6176,
      "inco": 6177,
      "inheiro": 6178,
      "inner": 6179,
      "Ġpi": 6180,
      "Ġpic": 6181,
      "Ġpilo": 6182,
      "Ġpelos": 6183,
      "ĠnÃ©": 6184,
      "Ġnose": 6185,
      "ency": 6186,
      "ones": 6187,
      "onha": 6188,
      "Ġfoc": 6189,
      "Ġfilled": 6190,
      "Ġwoke": 6191,
      "Ġthrow": 6192,
      "ored": 6193,
      "Ġhired": 6194,
      "osas": 6195,
      "ason": 6196,
      "Ġtol": 6197,
      "ativa": 6198,
      "emanha": 6199,
      "Ġvan": 6200,
      "Ġvaso": 6201,
      "Ġlua": 6202,
      "itando": 6203,
      "itive": 6204,
      "Ġqueix": 6205,
      "Ġqueira": 6206,
      "Ġdelas": 6207,
      "Ãªme": 6208,
      "Ġgro": 6209,
      "ĠgÃªnio": 6210,
      "Ġghost": 6211,
      "ĠgÃªme": 6212,
      "och": 6213,
      "ocion": 6214,
      "Ġult": 6215,
      "Ġestra": 6216,
      "alm": 6217,
      "alian": 6218,
      "avesse": 6219,
      "ĠÃĢs": 6220,
      "ĠdoenÃ§a": 6221,
      "Ġmeal": 6222,
      "Ġsea": 6223,
      "Ġsev": 6224,
      "ĠWrite": 6225,
      "how": 6226,
      "ĠOpen": 6227,
      "Ġanno": 6228,
      "etos": 6229,
      "Ġbebo": 6230,
      "Ġbeef": 6231,
      "Ġalu": 6232,
      "Ġaltura": 6233,
      "Ġrab": 6234,
      "Ġriu": 6235,
      "Ġriram": 6236,
      "Ġkil": 6237,
      "Ġconver": 6238,
      "Ã§ado": 6239,
      "ables": 6240,
      "ĠSeria": 6241,
      "ĠSund": 6242,
      "ĠSince": 6243,
      "ĠPass": 6244,
      "ĠPasse": 6245,
      "Ġemocion": 6246,
      "Ġtraz": 6247,
      "Ġneck": 6248,
      "Ã©tico": 6249,
      "Ġatra": 6250,
      "Ġprazer": 6251,
      "Ġpratic": 6252,
      "ĠEstive": 6253,
      "Ġpreten": 6254,
      "ĠpreÃ§os": 6255,
      "ĠFin": 6256,
      "oker": 6257,
      "ĠportÃ£o": 6258,
      "Ġdise": 6259,
      "Ġdishes": 6260,
      "ursos": 6261,
      "Ġabra": 6262,
      "Ġnotou": 6263,
      "ulo": 6264,
      "ulous": 6265,
      "Ġfranc": 6266,
      "ĠItÃ¡lia": 6267,
      "Ġprojeto": 6268,
      "Ġenx": 6269,
      "Ġsax": 6270,
      "Ġusou": 6271,
      "Ġuseless": 6272,
      "Ġaqueles": 6273,
      "Ġexemplo": 6274,
      "Ġfalamos": 6275,
      "Ġleaves": 6276,
      "Ġdesenh": 6277,
      "Ġfear": 6278,
      "Ġfebre": 6279,
      "Ġelect": 6280,
      "Ġoutono": 6281,
      "Ġshocked": 6282,
      "anda": 6283,
      "istem": 6284,
      "Ġhelps": 6285,
      "Ġhelpful": 6286,
      "Ġarqu": 6287,
      "Ġarte": 6288,
      "Ġrespe": 6289,
      "Ġreserv": 6290,
      "ĠEssas": 6291,
      "ĠesperanÃ§a": 6292,
      "Ġmesmos": 6293,
      "Ġgram": 6294,
      "bros": 6295,
      "anges": 6296,
      "Ġaff": 6297,
      "Ġtomo": 6298,
      "Ġpessoal": 6299,
      "Ġestejam": 6300,
      "Ġorange": 6301,
      "Ġficarei": 6302,
      "Ãªncias": 6303,
      "Ġbuying": 6304,
      "ĠSee": 6305,
      "Ġconsci": 6306,
      "Ġcorner": 6307,
      "Ġshoot": 6308,
      "cidos": 6309,
      "Ġhaver": 6310,
      "Ġpedido": 6311,
      "Ġsozinhos": 6312,
      "Ġ25": 6313,
      "ĠAlgo": 6314,
      "ĠAlemanha": 6315,
      "ĠDeve": 6316,
      "Ġfamiliar": 6317,
      "Ġswear": 6318,
      "ĠÃ¡l": 6319,
      "Ġmatch": 6320,
      "ĠconfianÃ§a": 6321,
      "Ġcriativo": 6322,
      "ĠcomeÃ§aram": 6323,
      "Ġsorvete": 6324,
      "Ġprofund": 6325,
      "ĠpolÃŃt": 6326,
      "Ġpolitic": 6327,
      "ualmente": 6328,
      "Ġsolve": 6329,
      "Ġexplos": 6330,
      "ĠRes": 6331,
      "Ġlaund": 6332,
      "Ġremain": 6333,
      "Ġbarbe": 6334,
      "Ġbarba": 6335,
      "cional": 6336,
      "ĠingÃªn": 6337,
      "Ġwears": 6338,
      "Ġdoce": 6339,
      "Ġcostume": 6340,
      "Ġinvit": 6341,
      "ĠinfÃ¢ncia": 6342,
      "Ġengine": 6343,
      "Ġassistiu": 6344,
      "Ġfolga": 6345,
      "Ġnasci": 6346,
      "Ġmilh": 6347,
      "Ġcountries": 6348,
      "Ġdivertir": 6349,
      "Ġarris": 6350,
      "Ġdoctors": 6351,
      "Ġempresa": 6352,
      "Ġreduz": 6353,
      "Ġempol": 6354,
      "Ġemplo": 6355,
      "Ġbolso": 6356,
      "Ġpropos": 6357,
      "Ġpreocupados": 6358,
      "Ġfuma": 6359,
      "Ġperdendo": 6360,
      "Ġartigo": 6361,
      "Ġchegaram": 6362,
      "Ġfollowing": 6363,
      "Ġarmy": 6364,
      "ĠrazÃµes": 6365,
      "Ġnearly": 6366,
      "resp": 6367,
      "Ġgenius": 6368,
      "Ġagrad": 6369,
      "Ġescape": 6370,
      "Ġcomputadores": 6371,
      "Ġexplained": 6372,
      "Ġstep": 6373,
      "Ġresults": 6374,
      "Ġstronger": 6375,
      "Ġcantando": 6376,
      "Ġcortar": 6377,
      "Ġemprestou": 6378,
      "Ġaccustomed": 6379,
      "Ġcontrole": 6380,
      "Ġteles": 6381,
      "Ġcrescer": 6382,
      "Ġwriter": 6383,
      "Ġexample": 6384,
      "Ġfaleceu": 6385,
      "ĠexplicaÃ§Ã£o": 6386,
      "Ġfigured": 6387,
      "Ġcomplained": 6388,
      "Ġperfectly": 6389,
      "denly": 6390,
      "Ġguns": 6391,
      "Ġsuitcase": 6392,
      "ĠresponsÃ¡vel": 6393,
      "Ġcomplicado": 6394,
      "Ġmidnight": 6395,
      "Ġlicense": 6396,
      "Ġcandid": 6397,
      "Ġtrocar": 6398,
      "Ġreclamar": 6399,
      "Ġabsent": 6400,
      "Ġesconder": 6401,
      "ĠTermin": 6402,
      "Ġvizinho": 6403,
      "Ġvoltaram": 6404,
      "Ġcrossed": 6405,
      "Ġhuge": 6406,
      "Ġpulled": 6407,
      "Ġprogram": 6408,
      "Ġatravessar": 6409,
      "Ġdetermin": 6410,
      "Ġfresh": 6411,
      "Ġexercis": 6412,
      "Ġrecomm": 6413,
      "Ġdepends": 6414,
      "ĠItaly": 6415,
      "Ġclaust": 6416,
      "ĠinformaÃ§Ã£o": 6417,
      "Ġdeprimido": 6418,
      "Ġshape": 6419,
      "Ġamazing": 6420,
      "ĠEsqueci": 6421,
      "ĠpaciÃªncia": 6422,
      "Ġirritado": 6423,
      "Ġbisco": 6424,
      "Ġsports": 6425,
      "ĠTwo": 6426,
      "Ġpocket": 6427,
      "Ġcoincid": 6428,
      "ĠconfortÃ¡vel": 6429,
      "Ġsocks": 6430,
      "Ġlazy": 6431,
      "Ġpertence": 6432,
      "Ġviciado": 6433,
      "Ġchallen": 6434,
      "ĠGermany": 6435,
      "ĠSaturday": 6436,
      "ĠbagunÃ§a": 6437,
      "Ġduty": 6438,
      "ĠSundays": 6439,
      "Ġpretende": 6440,
      "Ġprofundamente": 6441,
      "Ġlaundry": 6442,
      "Sim": 6443,
      "bas": 6444,
      "bby": 6445,
      "cles": 6446,
      "cida": 6447,
      "gos": 6448,
      "hi": 6449,
      "iÃµes": 6450,
      "mita": 6451,
      "pida": 6452,
      "pose": 6453,
      "uis": 6454,
      "uper": 6455,
      "upo": 6456,
      "ube": 6457,
      "writ": 6458,
      "Ġ9": 6459,
      "Ġtes": 6460,
      "Ġtare": 6461,
      "Ġtough": 6462,
      "Ġaum": 6463,
      "omes": 6464,
      "ĠTenha": 6465,
      "Ġdou": 6466,
      "erry": 6467,
      "ara": 6468,
      "Ġcouch": 6469,
      "ĠcÃ³p": 6470,
      "Ġpage": 6471,
      "Ġpair": 6472,
      "Ġnine": 6473,
      "Ġfif": 6474,
      "Ġways": 6475,
      "Ġwound": 6476,
      "anation": 6477,
      "orme": 6478,
      "Ġhide": 6479,
      "Ġtolo": 6480,
      "Ġtoalha": 6481,
      "Ġboc": 6482,
      "Ġbul": 6483,
      "Ġbody": 6484,
      "ats": 6485,
      "atch": 6486,
      "Ġodi": 6487,
      "emÃ£o": 6488,
      "Ġvos": 6489,
      "Ġvet": 6490,
      "Ġlen": 6491,
      "Ġlinha": 6492,
      "Ġego": 6493,
      "adÃª": 6494,
      "Ġcomun": 6495,
      "irm": 6496,
      "irou": 6497,
      "imp": 6498,
      "ĠWon": 6499,
      "ĠNossa": 6500,
      "stairs": 6501,
      "ilable": 6502,
      "etros": 6503,
      "Ġalc": 6504,
      "Ġalco": 6505,
      "Ġaltos": 6506,
      "Ġalugar": 6507,
      "ĠalemÃ£o": 6508,
      "Ġlixo": 6509,
      "Ġwashing": 6510,
      "ĠfaÃ§am": 6511,
      "under": 6512,
      "ĠSm": 6513,
      "ĠSente": 6514,
      "ĠSup": 6515,
      "ĠShow": 6516,
      "Ġemot": 6517,
      "Ġjoking": 6518,
      "Ġjudge": 6519,
      "Ġstars": 6520,
      "ceed": 6521,
      "Ġtran": 6522,
      "Ġtravesse": 6523,
      "Ġkne": 6524,
      "Ġsud": 6525,
      "ĠsuÃ©": 6526,
      "Ġheat": 6527,
      "ĠCor": 6528,
      "laud": 6529,
      "Ġcarp": 6530,
      "Ġcares": 6531,
      "ÃŃcios": 6532,
      "Ġdisl": 6533,
      "Ġdisgu": 6534,
      "essou": 6535,
      "Ġfrut": 6536,
      "Ġfrac": 6537,
      "Ġperf": 6538,
      "Ġsabendo": 6539,
      "Ġweird": 6540,
      "Ġproper": 6541,
      "Ġmorrendo": 6542,
      "Ġpodes": 6543,
      "Ġuses": 6544,
      "Ġusing": 6545,
      "Ġexager": 6546,
      "ump": 6547,
      "Ġcoach": 6548,
      "Ġcopy": 6549,
      "Ġcastle": 6550,
      "Ġfeed": 6551,
      "Ġfever": 6552,
      "acy": 6553,
      "Ġwore": 6554,
      "Ġshar": 6555,
      "Ġtenham": 6556,
      "ĠLig": 6557,
      "aking": 6558,
      "Ġjovens": 6559,
      "Ġunless": 6560,
      "Ġapag": 6561,
      "Ġappoint": 6562,
      "Ġmodo": 6563,
      "Ġchegue": 6564,
      "brei": 6565,
      "mail": 6566,
      "Ġground": 6567,
      "Ġgritar": 6568,
      "Ġgrupo": 6569,
      "Ġpassage": 6570,
      "Ġbrush": 6571,
      "Ġbuscar": 6572,
      "Ġmelhorar": 6573,
      "Ġsentia": 6574,
      "Ġtooth": 6575,
      "Ġoranges": 6576,
      "Ġcomprom": 6577,
      "Ġvolte": 6578,
      "Ġrob": 6579,
      "Ġbutter": 6580,
      "Ġencontro": 6581,
      "Ġcorpo": 6582,
      "ĠcaÃŃ": 6583,
      "Ġcause": 6584,
      "Ġpoucos": 6585,
      "Ġmarket": 6586,
      "Ġmeninos": 6587,
      "Ġtip": 6588,
      "ĠcrÃ©d": 6589,
      "Ġideal": 6590,
      "Ġcalls": 6591,
      "Ġpossui": 6592,
      "Ġconfus": 6593,
      "Ġconfio": 6594,
      "Ġcosts": 6595,
      "Ġpoet": 6596,
      "Ġfarm": 6597,
      "Ġpresident": 6598,
      "Ġsalad": 6599,
      "Ġsalada": 6600,
      "inaÃ§Ã£o": 6601,
      "ĠRom": 6602,
      "noite": 6603,
      "Ġ100": 6604,
      "Ġdescre": 6605,
      "ĠEstÃ¡vamos": 6606,
      "Ġvelhas": 6607,
      "Ġvotar": 6608,
      "Ġvoted": 6609,
      "ption": 6610,
      "Ġcabelos": 6611,
      "Ġintrig": 6612,
      "Ġstrang": 6613,
      "Ġinteressada": 6614,
      "Ġterminaram": 6615,
      "Ġvoltarei": 6616,
      "Ġobject": 6617,
      "Ġligue": 6618,
      "Ġchamado": 6619,
      "Ġconcl": 6620,
      "Ġinvite": 6621,
      "Ġretire": 6622,
      "Ġnadando": 6623,
      "Ġconvite": 6624,
      "ÃŃnhamos": 6625,
      "Ġmistaken": 6626,
      "ĠPerhaps": 6627,
      "ĠAcred": 6628,
      "Ġregra": 6629,
      "Ġconversando": 6630,
      "Ġdireita": 6631,
      "ĠKyo": 6632,
      "Ġprocurar": 6633,
      "Ġpaint": 6634,
      "Ġletters": 6635,
      "Ġsuspe": 6636,
      "Ġentregou": 6637,
      "Ġocupadas": 6638,
      "Ġvalor": 6639,
      "Ġvalue": 6640,
      "Ġsucceed": 6641,
      "uÃŃdo": 6642,
      "Ġmusician": 6643,
      "Ġpreocupa": 6644,
      "Ġcaused": 6645,
      "Ġconcorda": 6646,
      "Ġchocado": 6647,
      "ĠEmb": 6648,
      "ĠExiste": 6649,
      "ĠExistem": 6650,
      "Ġrazo": 6651,
      "Ġsofa": 6652,
      "Ġpunish": 6653,
      "Ġpreferiria": 6654,
      "Ġflower": 6655,
      "Ġconhecemos": 6656,
      "ĠalmoÃ§ou": 6657,
      "Ġfixed": 6658,
      "Ġresultados": 6659,
      "Ġprision": 6660,
      "Ġcantor": 6661,
      "Ġromance": 6662,
      "Ġselfish": 6663,
      "Ġmemor": 6664,
      "Ġburro": 6665,
      "Ġcresceu": 6666,
      "Ġwrites": 6667,
      "Ġexplicou": 6668,
      "Ġautor": 6669,
      "Ġfluently": 6670,
      "Ġrapaz": 6671,
      "ĠTrabal": 6672,
      "Ġdispon": 6673,
      "Ġexplanation": 6674,
      "Ġclearly": 6675,
      "Ġboring": 6676,
      "Ġreclama": 6677,
      "Ġbeginning": 6678,
      "Ġfinger": 6679,
      "ĠbÃªb": 6680,
      "ĠÃ³tima": 6681,
      "Ġtickets": 6682,
      "Ġinterrom": 6683,
      "Ġsoldados": 6684,
      "Ġ50": 6685,
      "Ġsweet": 6686,
      "Ġenviou": 6687,
      "Ġenviar": 6688,
      "Ġwarned": 6689,
      "Ġmuseu": 6690,
      "ĠGerman": 6691,
      "Ġcastelo": 6692,
      "Ġcurioso": 6693,
      "Ġadmitiu": 6694,
      "Ġeducado": 6695,
      "Ġpintou": 6696,
      "Ġestrelas": 6697,
      "ĠAfter": 6698,
      "ĠVeja": 6699,
      "ĠnegÃ³cio": 6700,
      "ĠSenti": 6701,
      "Ġabsolutamente": 6702,
      "Ġchinesa": 6703,
      "Ġfloresta": 6704,
      "Ġlaranja": 6705,
      "Ġlaranjas": 6706,
      "Ġinterrupt": 6707,
      "Ġcreio": 6708,
      "Ġdrugs": 6709,
      "Ġreached": 6710,
      "Ġaberto": 6711,
      "ĠContinue": 6712,
      "ĠTraga": 6713,
      "Ġmouth": 6714,
      "Ġpasso": 6715,
      "Ġnariz": 6716,
      "Ġlocal": 6717,
      "Ġirrelevante": 6718,
      "Ġpurpose": 6719,
      "Ġesquerda": 6720,
      "Ġsugeriu": 6721,
      "Ġsoldiers": 6722,
      "ĠpÃ¡gina": 6723,
      "Ġprincipal": 6724,
      "Ã¡stico": 6725,
      "ĠmultidÃ£o": 6726,
      "Ġterceiro": 6727,
      "Ġattractive": 6728,
      "Ġenvergonhado": 6729,
      "uji": 6730,
      "ĠinÃºtil": 6731,
      "Ġintrodu": 6732,
      "Ġpillow": 6733,
      "Ġclassmates": 6734,
      "ĠromÃ¢ntico": 6735,
      "Ġbilhete": 6736,
      "Ġdestroyed": 6737,
      "ĠpolÃŃtica": 6738,
      "ĠingÃªnuo": 6739,
      "Ġproposal": 6740,
      "ĠegoÃŃst": 6741,
      "ĠsuÃ©ter": 6742,
      "ĠKyoto": 6743,
      "''": 6744,
      "bing": 6745,
      "cimento": 6746,
      "fre": 6747,
      "fet": 6748,
      "gle": 6749,
      "ium": 6750,
      "ilet": 6751,
      "ks": 6752,
      "lor": 6753,
      "light": 6754,
      "nes": 6755,
      "nas": 6756,
      "nam": 6757,
      "scre": 6758,
      "time": 6759,
      "uvido": 6760,
      "val": 6761,
      "vid": 6762,
      "vindo": 6763,
      "wing": 6764,
      "wers": 6765,
      "Ġ$": 6766,
      "Ġteto": 6767,
      "ĠtÃŃnhamos": 6768,
      "Ġaun": 6769,
      "Ġapo": 6770,
      "Ġava": 6771,
      "Ġaves": 6772,
      "omach": 6773,
      "ĠTens": 6774,
      "ĠTanto": 6775,
      "ĠTua": 6776,
      "ĠTire": 6777,
      "Ġdado": 6778,
      "Ġdry": 6779,
      "Ġdigo": 6780,
      "Ġdying": 6781,
      "erve": 6782,
      "Ġsess": 6783,
      "Ġsist": 6784,
      "Ġsyst": 6785,
      "ouve": 6786,
      "ĠTomorrow": 6787,
      "Ġcem": 6788,
      "ĠcÃ¡": 6789,
      "Ġcult": 6790,
      "ĠcÃ¢n": 6791,
      "Ġcanta": 6792,
      "Ġcredit": 6793,
      "esar": 6794,
      "inÃ¡rio": 6795,
      "Ġmember": 6796,
      "Ġpend": 6797,
      "Ġpity": 6798,
      "Ġpower": 6799,
      "Ġpoker": 6800,
      "ene": 6801,
      "enes": 6802,
      "enced": 6803,
      "Ġfur": 6804,
      "Ġfurn": 6805,
      "queta": 6806,
      "osen": 6807,
      "remo": 6808,
      "Ġtoilet": 6809,
      "Ġobl": 6810,
      "Ġvase": 6811,
      "Ġvenda": 6812,
      "Ġview": 6813,
      "Ġlat": 6814,
      "Ġleio": 6815,
      "Ġlately": 6816,
      "ĠladrÃ£o": 6817,
      "Ġyen": 6818,
      "iture": 6819,
      "Ġgelo": 6820,
      "Ġestes": 6821,
      "avas": 6822,
      "entando": 6823,
      "ential": 6824,
      "aded": 6825,
      "adays": 6826,
      "Ġcomido": 6827,
      "ĠMant": 6828,
      "imamente": 6829,
      "ĠWith": 6830,
      "ĠWelcome": 6831,
      "ĠÃ©ramos": 6832,
      "holic": 6833,
      "rolo": 6834,
      "antly": 6835,
      "ĠAb": 6836,
      "ĠVis": 6837,
      "illa": 6838,
      "ostas": 6839,
      "igas": 6840,
      "vern": 6841,
      "Ġalter": 6842,
      "Ġgold": 6843,
      "Ġgovern": 6844,
      "ĠHouve": 6845,
      "Ġreliable": 6846,
      "Ġrevista": 6847,
      "ĠDis": 6848,
      "ĠDese": 6849,
      "ĠDuvido": 6850,
      "ĠSw": 6851,
      "ĠPonha": 6852,
      "Ġembr": 6853,
      "Ġaspir": 6854,
      "Ġfort": 6855,
      "Ġforced": 6856,
      "Ġstomach": 6857,
      "Ġfazia": 6858,
      "Ġnevar": 6859,
      "ĠTheir": 6860,
      "Ġacted": 6861,
      "Ġacomp": 6862,
      "Ġacaso": 6863,
      "guel": 6864,
      "Ã©rica": 6865,
      "ĠCD": 6866,
      "ĠCadÃª": 6867,
      "Ġator": 6868,
      "ĠBy": 6869,
      "ĠdiÃ¡rio": 6870,
      "Ġdiary": 6871,
      "ĠelÃ©t": 6872,
      "Ġpray": 6873,
      "Ġprinc": 6874,
      "Ġmyster": 6875,
      "law": 6876,
      "ĠFuji": 6877,
      "ÃŃp": 6878,
      "ÃŃveis": 6879,
      "urs": 6880,
      "Ġabri": 6881,
      "uls": 6882,
      "eiÃ§Ãµes": 6883,
      "Ġchosen": 6884,
      "ests": 6885,
      "Ġwealth": 6886,
      "Ġtext": 6887,
      "Ġprot": 6888,
      "Ġgostamos": 6889,
      "Ġexag": 6890,
      "Ġfalado": 6891,
      "umo": 6892,
      "elled": 6893,
      "Ġcop": 6894,
      "Ġcasaram": 6895,
      "Ġdescar": 6896,
      "Ġboard": 6897,
      "Ġfeita": 6898,
      "acter": 6899,
      "acidade": 6900,
      "Ġelef": 6901,
      "Ġworst": 6902,
      "Ġteremos": 6903,
      "Ġterror": 6904,
      "Ġservi": 6905,
      "Ġficamos": 6906,
      "ĠList": 6907,
      "Ġouro": 6908,
      "ivas": 6909,
      "Ġjoguei": 6910,
      "Ġunif": 6911,
      "ortes": 6912,
      "Ġcontado": 6913,
      "Ġentire": 6914,
      "ontos": 6915,
      "Ġmood": 6916,
      "Ġcheese": 6917,
      "Ġcliente": 6918,
      "ĠclÃ¡ss": 6919,
      "Ġclub": 6920,
      "Ġclube": 6921,
      "Ġpesada": 6922,
      "Ġassume": 6923,
      "Ġesperado": 6924,
      "Ġgrou": 6925,
      "Ġgrave": 6926,
      "Ġadicion": 6927,
      "ĠGood": 6928,
      "Ġcertamente": 6929,
      "Ġasks": 6930,
      "Ġpasseng": 6931,
      "Ġbrava": 6932,
      "Ġbrigar": 6933,
      "Ġaffe": 6934,
      "Ġtomando": 6935,
      "Ġinteresse": 6936,
      "Ġinterfer": 6937,
      "Ġspeaker": 6938,
      "Ġsentimentos": 6939,
      "Ġvolume": 6940,
      "Ġrot": 6941,
      "Ġrope": 6942,
      "Ġconsul": 6943,
      "Ġwhenever": 6944,
      "Ġcorda": 6945,
      "Ġcortei": 6946,
      "Ġpouca": 6947,
      "ational": 6948,
      "viver": 6949,
      "Ġvieram": 6950,
      "tarei": 6951,
      "Ġconseguimos": 6952,
      "orda": 6953,
      "Ġsurr": 6954,
      "ĠhÃ¡b": 6955,
      "Ġestudou": 6956,
      "Ġcritic": 6957,
      "Ġschools": 6958,
      "Ġocor": 6959,
      "Ġmathem": 6960,
      "Ġconfie": 6961,
      "Ġpense": 6962,
      "Ġpoison": 6963,
      "Ġfaremos": 6964,
      "Ġesperei": 6965,
      "Ġesportes": 6966,
      "Ġsale": 6967,
      "Ġvirou": 6968,
      "ĠgarÃ§": 6969,
      "Ġsolit": 6970,
      "Ġthemselves": 6971,
      "Ġouvidos": 6972,
      "Ġseguiu": 6973,
      "Ġ14": 6974,
      "Ġmostre": 6975,
      "Ġcurios": 6976,
      "Ġdescon": 6977,
      "Ġbarco": 6978,
      "Ġvelhos": 6979,
      "Ġquarre": 6980,
      "Ġblank": 6981,
      "Ġmetade": 6982,
      "Ġpartiu": 6983,
      "Ġanswers": 6984,
      "Ãªmio": 6985,
      "Ġsinal": 6986,
      "Ġdrives": 6987,
      "Ġhandle": 6988,
      "Ġmudando": 6989,
      "ĠParem": 6990,
      "Ġescrevi": 6991,
      "Ġrecebi": 6992,
      "Ġwinning": 6993,
      "Ġeasier": 6994,
      "Ġmissing": 6995,
      "ĠmÃºsico": 6996,
      "ysic": 6997,
      "Ġinflu": 6998,
      "ĠPermita": 6999,
      "Ġhurts": 7000,
      "Ġclassroom": 7001,
      "Ġbebidas": 7002,
      "ĠAmÃ©rica": 7003,
      "Ġsegundo": 7004,
      "Ġsuffer": 7005,
      "Ġconversamos": 7006,
      "Ġdireto": 7007,
      "ĠimpressÃ£o": 7008,
      "ĠIntern": 7009,
      "Ġdecor": 7010,
      "grimas": 7011,
      "Ġtrusted": 7012,
      "Ġperfeitamente": 7013,
      "Ġrule": 7014,
      "Ġsubstit": 7015,
      "Ġquebrada": 7016,
      "Ġfotog": 7017,
      "Ġnamorando": 7018,
      "Ġsupport": 7019,
      "ĠAnd": 7020,
      "Ġnecessidade": 7021,
      "Ġextra": 7022,
      "Ġfechou": 7023,
      "Ġescritor": 7024,
      "Ġadmitted": 7025,
      "Ġconvenceu": 7026,
      "Ġtallest": 7027,
      "Ġdreamed": 7028,
      "Ġfeelings": 7029,
      "Ġdesculp": 7030,
      "Ġdorme": 7031,
      "Ġimagine": 7032,
      "Ġienes": 7033,
      "ĠRec": 7034,
      "ĠRead": 7035,
      "Ġairpl": 7036,
      "Ġpatience": 7037,
      "Ġ199": 7038,
      "ĠpÃ´r": 7039,
      "Ġescapou": 7040,
      "Ġcomputers": 7041,
      "Ġguitarra": 7042,
      "Ã¡ssemos": 7043,
      "Ġconvidado": 7044,
      "ĠsaudÃ¡vel": 7045,
      "Ġsunscre": 7046,
      "rafia": 7047,
      "Ġbatatas": 7048,
      "Ġcaminhando": 7049,
      "Ġseriously": 7050,
      "Ġfluentemente": 7051,
      "Ġorgulho": 7052,
      "Ġimaginar": 7053,
      "Ġ300": 7054,
      "Ġdelicioso": 7055,
      "Ġgentl": 7056,
      "Ġsupper": 7057,
      "Ġsuponho": 7058,
      "Ġvegetables": 7059,
      "Ġdessas": 7060,
      "atics": 7061,
      "Ġcomplaining": 7062,
      "Ġcometi": 7063,
      "Ġgasol": 7064,
      "ĠengraÃ§ada": 7065,
      "Ġconselhos": 7066,
      "Ġimpressionar": 7067,
      "Ġaccepted": 7068,
      "Ġresponsible": 7069,
      "Ġidioma": 7070,
      "Ġprestes": 7071,
      "Ġdesligar": 7072,
      "Ġignored": 7073,
      "Ġdetail": 7074,
      "Ġgenerous": 7075,
      "Ġgeneroso": 7076,
      "Ġyelling": 7077,
      "Ġreclamou": 7078,
      "Ġrecognized": 7079,
      "Ġcarreg": 7080,
      "Ġgritando": 7081,
      "ĠpÃ¡ssaros": 7082,
      "Ġearthqu": 7083,
      "Ġpackage": 7084,
      "elizmente": 7085,
      "Ġestrangeiro": 7086,
      "Ġsangrando": 7087,
      "ĠVejo": 7088,
      "ĠligaÃ§Ã£o": 7089,
      "Ġescondendo": 7090,
      "Ġmercado": 7091,
      "Ġvolunt": 7092,
      "Ġphoned": 7093,
      "Ġhabil": 7094,
      "ĠEspere": 7095,
      "Ġlimpou": 7096,
      "Ġarrumar": 7097,
      "employed": 7098,
      "Ġcrowd": 7099,
      "Ġcrowded": 7100,
      "Ġbanda": 7101,
      "Ġsuicide": 7102,
      "Ġtorta": 7103,
      "Ġpintar": 7104,
      "ĠinstruÃ§Ãµes": 7105,
      "ĠFeche": 7106,
      "Ġcruel": 7107,
      "ĠDeverÃŃamos": 7108,
      "Ġscience": 7109,
      "Ġpoliceman": 7110,
      "Ġoptimistic": 7111,
      "Ġcumpr": 7112,
      "Ġotimista": 7113,
      "Ġatropelado": 7114,
      "Ġpractice": 7115,
      "Ġcoloquei": 7116,
      "Ġinvestig": 7117,
      "ĠsÃ¡bado": 7118,
      "Ġcadeia": 7119,
      "Ġdiscovered": 7120,
      "Ġbrilhante": 7121,
      "Ġdesapontado": 7122,
      "Ġmaravilhoso": 7123,
      "shirt": 7124,
      "Ġburned": 7125,
      "Ġexausto": 7126,
      "Ġbrief": 7127,
      "ĠquilÃ´m": 7128,
      "Ġindepend": 7129,
      "Ġjaqueta": 7130,
      "Ġmaluco": 7131,
      "ĠdesperdiÃ§ando": 7132,
      "Ġrefrigerator": 7133,
      "Ġastronom": 7134,
      "Ġjacket": 7135,
      "Ġarrepender": 7136,
      "Ġaluguel": 7137,
      "Ġkilomet": 7138,
      "Ġconversa": 7139,
      "Ġinvitation": 7140,
      "Ġempolgado": 7141,
      "Ġemploye": 7142,
      "Ġgunsho": 7143,
      "Ġbiscoitos": 7144,
      "Ġchallenge": 7145,
      "ĠcÃ³pia": 7146,
      "ĠalcanÃ§": 7147,
      "ĠSuponho": 7148,
      "Ġtravesseiro": 7149,
      "Ġpassageiros": 7150,
      "ĠcrÃ©dito": 7151,
      "ĠrazoÃ¡vel": 7152,
      "Ġavailable": 7153,
      "Ġsistema": 7154,
      "Ġsystem": 7155,
      "ĠcÃ¢ncer": 7156,
      "Ġpendur": 7157,
      "Ġfurniture": 7158,
      "Ġoblig": 7159,
      "ĠListen": 7160,
      "Ġpassengers": 7161,
      "ĠInternet": 7162,
      "Ġsunscreen": 7163,
      "!\"": 7164,
      "\".": 7165,
      "Are": 7166,
      "Do": 7167,
      "ax": 7168,
      "cÃ³p": 7169,
      "ex": 7170,
      "frica": 7171,
      "gamos": 7172,
      "gra": 7173,
      "ientes": 7174,
      "kle": 7175,
      "pack": 7176,
      "phone": 7177,
      "rada": 7178,
      "raria": 7179,
      "town": 7180,
      "uir": 7181,
      "xta": 7182,
      "ym": 7183,
      "zes": 7184,
      "zen": 7185,
      "Âł": 7186,
      "Ġtia": 7187,
      "Ġtinto": 7188,
      "Ġaud": 7189,
      "omen": 7190,
      "Ġdente": 7191,
      "Ġdate": 7192,
      "Ġdrew": 7193,
      "arm": 7194,
      "inze": 7195,
      "Ġmist": 7196,
      "Ġmante": 7197,
      "Ġpan": 7198,
      "Ġpet": 7199,
      "Ġpeix": 7200,
      "Ġpaco": 7201,
      "isy": 7202,
      "Ġfan": 7203,
      "Ġfle": 7204,
      "Ġfill": 7205,
      "quia": 7206,
      "Ġthro": 7207,
      "anim": 7208,
      "orde": 7209,
      "orry": 7210,
      "Ġhip": 7211,
      "Ġhire": 7212,
      "Ġqui": 7213,
      "ĠquÃ£o": 7214,
      "Ġquinze": 7215,
      "Ġtoque": 7216,
      "Ġben": 7217,
      "atra": 7218,
      "Ġvide": 7219,
      "Ġloss": 7220,
      "Ġlady": 7221,
      "Ġlocked": 7222,
      "itais": 7223,
      "Ġdete": 7224,
      "Ġdefe": 7225,
      "Ġdeitado": 7226,
      "elf": 7227,
      "Ġgordo": 7228,
      "Ġgames": 7229,
      "iders": 7230,
      "idence": 7231,
      "Ġeigh": 7232,
      "Ġeager": 7233,
      "iais": 7234,
      "adora": 7235,
      "Ġcomemos": 7236,
      "ĠMais": 7237,
      "ĠMond": 7238,
      "ĠMinhas": 7239,
      "het": 7240,
      "Ġsear": 7241,
      "Ġsexta": 7242,
      "imid": 7243,
      "icer": 7244,
      "Ġinch": 7245,
      "rof": 7246,
      "Ġnoites": 7247,
      "Ġnoisy": 7248,
      "ĠAmo": 7249,
      "ĠVale": 7250,
      "ĠNas": 7251,
      "ĠNone": 7252,
      "ĠNorm": 7253,
      "Ġann": 7254,
      "Ġanger": 7255,
      "Ġankle": 7256,
      "Ġbeard": 7257,
      "Ġrica": 7258,
      "Ġricos": 7259,
      "Ġgoals": 7260,
      "ode": 7261,
      "Ġreci": 7262,
      "Ġrelev": 7263,
      "undo": 7264,
      "abil": 7265,
      "ĠSay": 7266,
      "ĠSpe": 7267,
      "ĠSorry": 7268,
      "Ġasham": 7269,
      "Ġfortes": 7270,
      "Ġsujo": 7271,
      "Ġmain": 7272,
      "Ġacima": 7273,
      "Ġacordei": 7274,
      "guem": 7275,
      "Ġitalian": 7276,
      "Ã©rio": 7277,
      "Ã©xico": 7278,
      "tery": 7279,
      "ĠCol": 7280,
      "Ġcancer": 7281,
      "ĠBible": 7282,
      "ĠprÃ¡tica": 7283,
      "Ġprontos": 7284,
      "Ġcaras": 7285,
      "ĠcartÃ£o": 7286,
      "ĠEstÃ¡s": 7287,
      "Ġportas": 7288,
      "ÃŃdo": 7289,
      "ÃŃbl": 7290,
      "utor": 7291,
      "essas": 7292,
      "ury": 7293,
      "ulso": 7294,
      "Ġfrustr": 7295,
      "Ġchances": 7296,
      "ĠtevÃª": 7297,
      "Ġprodu": 7298,
      "Ġanda": 7299,
      "Ġgoste": 7300,
      "Ġenv": 7301,
      "Ġmorei": 7302,
      "ĠusÃ¡": 7303,
      "Ġusado": 7304,
      "Ġexch": 7305,
      "Ġexiste": 7306,
      "Ġiron": 7307,
      "ĠirÃ£o": 7308,
      "Ġagir": 7309,
      "Ġdesl": 7310,
      "Ġdesanim": 7311,
      "Ġboat": 7312,
      "Ġfeitos": 7313,
      "Ġescu": 7314,
      "ified": 7315,
      "Ġshout": 7316,
      "Ġterremo": 7317,
      "cope": 7318,
      "Ġhole": 7319,
      "ĠLuck": 7320,
      "Ġmanager": 7321,
      "aked": 7322,
      "ivid": 7323,
      "Ġunre": 7324,
      "Ġunus": 7325,
      "ugal": 7326,
      "Ġresto": 7327,
      "Ġcompla": 7328,
      "Ġcontas": 7329,
      "Ġcontente": 7330,
      "Ġcontaria": 7331,
      "ĠpeÃ§a": 7332,
      "allow": 7333,
      "Ġmoed": 7334,
      "ĠEsc": 7335,
      "Ġshoulder": 7336,
      "Ġsomente": 7337,
      "ĠCompare": 7338,
      "Ġimpac": 7339,
      "anged": 7340,
      "Ġpassagem": 7341,
      "Ġestaremos": 7342,
      "Ġfilm": 7343,
      "caras": 7344,
      "Ġsobreviver": 7345,
      "ousand": 7346,
      "ĠlÃ¡grimas": 7347,
      "ĠcomprÃ¡": 7348,
      "Ġpergunte": 7349,
      "azine": 7350,
      "Ġcamp": 7351,
      "Ġescolas": 7352,
      "Ġconsult": 7353,
      "Ġcair": 7354,
      "ĠcaÃ§": 7355,
      "Ġbombe": 7356,
      "Ġconseguem": 7357,
      "Ġtirei": 7358,
      "Ġrecursos": 7359,
      "Ġawful": 7360,
      "Ġchildhood": 7361,
      "Ġreads": 7362,
      "Ġconfia": 7363,
      "Ġimportar": 7364,
      "Ġfarto": 7365,
      "Ġsalvar": 7366,
      "Ġviria": 7367,
      "Ġdowntown": 7368,
      "Ġacredite": 7369,
      "Ġsolution": 7370,
      "ĠsoluÃ§Ã£o": 7371,
      "Ġexpulso": 7372,
      "Ġstarting": 7373,
      "ĠRuss": 7374,
      "Ġ11": 7375,
      "Ġ15": 7376,
      "Ġremind": 7377,
      "Ġbarber": 7378,
      "pted": 7379,
      "Ġears": 7380,
      "Ġprometo": 7381,
      "Ġlugares": 7382,
      "ĠJoÃ£o": 7383,
      "Ġingress": 7384,
      "ĠFriday": 7385,
      "Ġcapit": 7386,
      "Ġcaptain": 7387,
      "Ġsooner": 7388,
      "ĠmanhÃ£s": 7389,
      "Ġhanded": 7390,
      "ĠEngland": 7391,
      "Ġjobs": 7392,
      "ĠmudanÃ§a": 7393,
      "Ġembaix": 7394,
      "Ġhung": 7395,
      "Ġreceive": 7396,
      "Ġjogamos": 7397,
      "Ġmention": 7398,
      "Ġligado": 7399,
      "Ġliguei": 7400,
      "Ġchamada": 7401,
      "Ġremembered": 7402,
      "ĠcostumÃ¡vamos": 7403,
      "Ġdiscoura": 7404,
      "Ġinsist": 7405,
      "Ġbadly": 7406,
      "Ġengord": 7407,
      "aterra": 7408,
      "ney": 7409,
      "Ġpronoun": 7410,
      "ĠopÃ§Ãµes": 7411,
      "Ġacabar": 7412,
      "Ġclassical": 7413,
      "Ġtirando": 7414,
      "ĠmÃ©dio": 7415,
      "ĠmÃ©dica": 7416,
      "ĠmÃ©dicos": 7417,
      "Ã¢nico": 7418,
      "Ġmiles": 7419,
      "Ġtrabalhava": 7420,
      "Ġrepet": 7421,
      "Ġrepente": 7422,
      "Ġbirds": 7423,
      "Ġconversou": 7424,
      "Ġexperimentar": 7425,
      "Ġtrezentos": 7426,
      "Ġdecl": 7427,
      "Ġadorme": 7428,
      "ĠadorÃ¡vel": 7429,
      "Ġanimado": 7430,
      "grap": 7431,
      "Ġtornoz": 7432,
      "Ġensinando": 7433,
      "Ġattend": 7434,
      "ĠviolÃªncia": 7435,
      "Ġcustou": 7436,
      "Ġperderam": 7437,
      "Ġcozinheiro": 7438,
      "Ġguardar": 7439,
      "Ġquebrar": 7440,
      "ÃŃssimo": 7441,
      "Ġdrown": 7442,
      "ĠAntes": 7443,
      "ĠDeslig": 7444,
      "Ġmachucado": 7445,
      "Ġadmir": 7446,
      "Ġarticle": 7447,
      "Ġsongs": 7448,
      "ĠmantÃ©m": 7449,
      "Ġadvantage": 7450,
      "Ġcontinued": 7451,
      "Ġdistra": 7452,
      "Ġcantou": 7453,
      "ĠFaÃ§am": 7454,
      "ĠWashing": 7455,
      "Ġsilly": 7456,
      "Ġantigo": 7457,
      "Ġceiling": 7458,
      "Ġmeaning": 7459,
      "Ġcaminhada": 7460,
      "ĠdanÃ§ando": 7461,
      "Ġfighting": 7462,
      "Ġvivos": 7463,
      "Ġgerente": 7464,
      "Ġformul": 7465,
      "Ġpercebi": 7466,
      "ĠShut": 7467,
      "ĠProm": 7468,
      "ĠPrices": 7469,
      "Ġdeserves": 7470,
      "Ġtranslated": 7471,
      "Ġchato": 7472,
      "Ġcommun": 7473,
      "ĠridÃŃ": 7474,
      "Ġdisappe": 7475,
      "Ġgives": 7476,
      "Ġreasonable": 7477,
      "Ġcometer": 7478,
      "ĠConc": 7479,
      "Ġpression": 7480,
      "Ġclimate": 7481,
      "ĠdiscussÃ£o": 7482,
      "Ġcanceled": 7483,
      "ĠprÃ³prios": 7484,
      "Ġacreditam": 7485,
      "Ġrelaxar": 7486,
      "Ġquantidade": 7487,
      "Ġblew": 7488,
      "Ġabsor": 7489,
      "Ġreligion": 7490,
      "ĠreligiÃ£o": 7491,
      "ĠDeixa": 7492,
      "Ġcarregar": 7493,
      "Ġgritou": 7494,
      "Ġfugir": 7495,
      "Ġfugiu": 7496,
      "ĠMostre": 7497,
      "Ġaparecer": 7498,
      "Ġeduc": 7499,
      "Ġmagazine": 7500,
      "ĠAfrica": 7501,
      "ĠSometimes": 7502,
      "Ġborrowed": 7503,
      "ĠFicamos": 7504,
      "Ġnovels": 7505,
      "Ġrecomend": 7506,
      "Ġderr": 7507,
      "ĠInglaterra": 7508,
      "Ġcloser": 7509,
      "Ġpleased": 7510,
      "Ġhabit": 7511,
      "ĠItalian": 7512,
      "Ġuniversidade": 7513,
      "Ġuniversity": 7514,
      "Ġprisoner": 7515,
      "Ġdefinitivamente": 7516,
      "Ġcousins": 7517,
      "Ġfurious": 7518,
      "Ġcoberto": 7519,
      "Ġcobertor": 7520,
      "Ġinstrum": 7521,
      "Ġdiamond": 7522,
      "Ġtalented": 7523,
      "Ġombro": 7524,
      "Ġlutar": 7525,
      "Ġurgent": 7526,
      "Ġurgente": 7527,
      "Ġobviously": 7528,
      "Ġmisunder": 7529,
      "ĠÃģfrica": 7530,
      "Ġaposentar": 7531,
      "Ġprometi": 7532,
      "Ġgraduated": 7533,
      "Ġdetesto": 7534,
      "Ġenergia": 7535,
      "ĠEscreva": 7536,
      "Ġcader": 7537,
      "ĠAchava": 7538,
      "Ġrumor": 7539,
      "Ġjuice": 7540,
      "Ġhaja": 7541,
      "Ġhesit": 7542,
      "ĠCuidado": 7543,
      "ÃŃfico": 7544,
      "Ġdesempre": 7545,
      "Ġeffort": 7546,
      "Ġnotebook": 7547,
      "Ġsonhando": 7548,
      "Ġtomei": 7549,
      "Ġastrolo": 7550,
      "Ġtoler": 7551,
      "Ġghosts": 7552,
      "Ġfrancesa": 7553,
      "Ġdesenhou": 7554,
      "Ġelectric": 7555,
      "Ġafford": 7556,
      "Ġpolitics": 7557,
      "Ġreduzir": 7558,
      "ĠagradÃ¡vel": 7559,
      "Ġtranqu": 7560,
      "Ġsuddenly": 7561,
      "Ġprisioneiro": 7562,
      "ĠdisponÃŃvel": 7563,
      "Ġaunt": 7564,
      "Ġacompanh": 7565,
      "ĠclÃ¡ssica": 7566,
      "Ġgroup": 7567,
      "Ġmathematics": 7568,
      "Ġairplane": 7569,
      "Ġgentleman": 7570,
      "Ġearthquake": 7571,
      "ĠquilÃ´metros": 7572,
      "Ġkilometers": 7573,
      "cÃ³pio": 7574,
      "ĠhipÃ³": 7575,
      "ĠMondays": 7576,
      "ĠNormalmente": 7577,
      "Ġashamed": 7578,
      "ÃŃblia": 7579,
      "Ġdesanimado": 7580,
      "Ġingressos": 7581,
      "Ġdiscouraged": 7582,
      "Ġtornozelo": 7583,
      "..": 7584,
      "bum": 7585,
      "bio": 7586,
      "ead": 7587,
      "gs": 7588,
      "gel": 7589,
      "gam": 7590,
      "gados": 7591,
      "hy": 7592,
      "hada": 7593,
      "iped": 7594,
      "iosa": 7595,
      "ns": 7596,
      "nico": 7597,
      "oito": 7598,
      "oÃ§Ã£o": 7599,
      "tured": 7600,
      "tugal": 7601,
      "uem": 7602,
      "uct": 7603,
      "vam": 7604,
      "vesse": 7605,
      "view": 7606,
      "word": 7607,
      "wood": 7608,
      "ĠX": 7609,
      "ĠZ": 7610,
      "Ġtiro": 7611,
      "Ġtort": 7612,
      "ĠtÃ©c": 7613,
      "ĠTur": 7614,
      "ĠTime": 7615,
      "Ġdom": 7616,
      "Ġdan": 7617,
      "Ġdaria": 7618,
      "Ġdimin": 7619,
      "ern": 7620,
      "Ġsize": 7621,
      "Ġserei": 7622,
      "Ġciv": 7623,
      "esome": 7624,
      "esper": 7625,
      "Ġmos": 7626,
      "ĠmÃ³": 7627,
      "ĠmÃŃn": 7628,
      "iso": 7629,
      "isto": 7630,
      "Ġnai": 7631,
      "Ġnone": 7632,
      "Ġnela": 7633,
      "Ġnomes": 7634,
      "enÃ§as": 7635,
      "onete": 7636,
      "ĠIgn": 7637,
      "ĠfÃŃs": 7638,
      "quir": 7639,
      "Ġwol": 7640,
      "Ġthreat": 7641,
      "oria": 7642,
      "orado": 7643,
      "orter": 7644,
      "orei": 7645,
      "ories": 7646,
      "Ġhig": 7647,
      "Ġhated": 7648,
      "ases": 7649,
      "Ġtoy": 7650,
      "Ġtopo": 7651,
      "Ġtoco": 7652,
      "Ġbac": 7653,
      "Ġbare": 7654,
      "Ġbaix": 7655,
      "atele": 7656,
      "Ġod": 7657,
      "Ġox": 7658,
      "Ġobrig": 7659,
      "Ġvento": 7660,
      "Ġvitam": 7661,
      "Ġlava": 7662,
      "iter": 7663,
      "itei": 7664,
      "Ġqueijo": 7665,
      "edos": 7666,
      "ednes": 7667,
      "elha": 7668,
      "Ġge": 7669,
      "Ġgain": 7670,
      "Ã¡g": 7671,
      "Ġur": 7672,
      "Ġestais": 7673,
      "ĠestÃ´m": 7674,
      "ales": 7675,
      "ament": 7676,
      "Ġdoendo": 7677,
      "iada": 7678,
      "Ġcometa": 7679,
      "ĠMt": 7680,
      "ĠMÃ©xico": 7681,
      "Ġseason": 7682,
      "iculous": 7683,
      "ĠWomen": 7684,
      "ĠWednes": 7685,
      "Ġinfe": 7686,
      "Ġincre": 7687,
      "sole": 7688,
      "Ġnoj": 7689,
      "ĠNor": 7690,
      "ĠOh": 7691,
      "Ġanal": 7692,
      "Ġante": 7693,
      "Ġparasse": 7694,
      "Ġbeat": 7695,
      "Ġbegun": 7696,
      "Ġmudei": 7697,
      "Ġras": 7698,
      "Ġrang": 7699,
      "Ġkicked": 7700,
      "oln": 7701,
      "olar": 7702,
      "Ġcondi": 7703,
      "Ġconvert": 7704,
      "Ġrepe": 7705,
      "Ġrequest": 7706,
      "ĠDei": 7707,
      "Ġfaint": 7708,
      "unda": 7709,
      "ĠSai": 7710,
      "ĠSend": 7711,
      "ĠPol": 7712,
      "riv": 7713,
      "teis": 7714,
      "Ġasso": 7715,
      "Ġstairs": 7716,
      "Ã³l": 7717,
      "Ġtrens": 7718,
      "Ġsuco": 7719,
      "Ġsuport": 7720,
      "taque": 7721,
      "Ġacer": 7722,
      "Ġacal": 7723,
      "Ġqueriam": 7724,
      "Ġatendeu": 7725,
      "Ġatirar": 7726,
      "Ġfazermos": 7727,
      "ĠBoa": 7728,
      "Ġpratos": 7729,
      "Ġpratele": 7730,
      "Ġverde": 7731,
      "ĠQuÃ£o": 7732,
      "Ġpreench": 7733,
      "Ġprepare": 7734,
      "ĠFather": 7735,
      "ĠThink": 7736,
      "udes": 7737,
      "Ġsoa": 7738,
      "Ġsotaque": 7739,
      "Ġabil": 7740,
      "ĠabraÃ§": 7741,
      "Ġaborre": 7742,
      "Ġabove": 7743,
      "ulto": 7744,
      "ulty": 7745,
      "Ġfruta": 7746,
      "Ġperde": 7747,
      "Ġpernas": 7748,
      "estes": 7749,
      "ustÃŃvel": 7750,
      "Ġfox": 7751,
      "Ġench": 7752,
      "Ġenven": 7753,
      "Ġmortos": 7754,
      "Ġexce": 7755,
      "Ġirresp": 7756,
      "ello": 7757,
      "renome": 7758,
      "Ġdesceu": 7759,
      "Ġwhis": 7760,
      "oraÃ§Ã£o": 7761,
      "Ġescada": 7762,
      "ify": 7763,
      "Ġshelf": 7764,
      "Ġshorter": 7765,
      "Ġterra": 7766,
      "Ġterno": 7767,
      "ioto": 7768,
      "Ġtenhamos": 7769,
      "ĠserÃ£o": 7770,
      "ĠPortugal": 7771,
      "assem": 7772,
      "Ġallerg": 7773,
      "ĠLinc": 7774,
      "lesc": 7775,
      "Ġlivraria": 7776,
      "Ġuncon": 7777,
      "Ġunemployed": 7778,
      "Ġargue": 7779,
      "Ġaranhas": 7780,
      "ugg": 7781,
      "Ġresour": 7782,
      "Ġapre": 7783,
      "Ġapont": 7784,
      "Ġaplaud": 7785,
      "Ġcompan": 7786,
      "Ġcompare": 7787,
      "Ġcontando": 7788,
      "Ġpeel": 7789,
      "Ġajudasse": 7790,
      "ĠJune": 7791,
      "Ġentrei": 7792,
      "Ġchegado": 7793,
      "Ġcheating": 7794,
      "Ġclou": 7795,
      "Ġclientes": 7796,
      "bled": 7797,
      "Ġpesca": 7798,
      "Ġassum": 7799,
      "Ġassinar": 7800,
      "Ġgrab": 7801,
      "Ġplanned": 7802,
      "Ġcert": 7803,
      "ciam": 7804,
      "cioso": 7805,
      "Ġpassaram": 7806,
      "Ġpassword": 7807,
      "Ġbriga": 7808,
      "Ġsenha": 7809,
      "ĠMex": 7810,
      "ĠMexico": 7811,
      "velop": 7812,
      "Ġtomates": 7813,
      "Ġtomatoes": 7814,
      "Ġsobrev": 7815,
      "Ãºmes": 7816,
      "Ġpessoalmente": 7817,
      "Ġconhecido": 7818,
      "Ġlongest": 7819,
      "Ġguests": 7820,
      "Ġcampo": 7821,
      "Ġcoll": 7822,
      "ĠSegu": 7823,
      "Ġconsiga": 7824,
      "Ġbomb": 7825,
      "Ġbomba": 7826,
      "Ġdiab": 7827,
      "Ġpedimos": 7828,
      "Ġmencion": 7829,
      "issem": 7830,
      "ĠQueres": 7831,
      "Ġsurf": 7832,
      "Ġcrash": 7833,
      "Ġfizeste": 7834,
      "Ġflat": 7835,
      "Ġpensado": 7836,
      "ĠDecid": 7837,
      "Ġolhe": 7838,
      "Ġfundos": 7839,
      "Ġfuneral": 7840,
      "urei": 7841,
      "Ġhorses": 7842,
      "Ġdemorar": 7843,
      "Ġcomeram": 7844,
      "Ġdevolveu": 7845,
      "Ġapront": 7846,
      "Ġapressar": 7847,
      "Ġpoem": 7848,
      "Ġchova": 7849,
      "Ġsalvou": 7850,
      "ĠvirÃ£o": 7851,
      "Ġdormi": 7852,
      "Ġsolved": 7853,
      "Ġrespostas": 7854,
      "Ġdecidiram": 7855,
      "Ġseguida": 7856,
      "Ġseguinte": 7857,
      "Ġdesconhe": 7858,
      "Ġquarta": 7859,
      "Ġdoors": 7860,
      "cionamento": 7861,
      "Ġbreath": 7862,
      "Ġperguntava": 7863,
      "Ġsinta": 7864,
      "Ġplanejo": 7865,
      "Ġbonitas": 7866,
      "ĠPoder": 7867,
      "Ġinteressa": 7868,
      "Ġjunho": 7869,
      "Ġjuntas": 7870,
      "ĠdirÃ¡": 7871,
      "Ġterminado": 7872,
      "Ġterminamos": 7873,
      "Ġbanana": 7874,
      "Ġyoungest": 7875,
      "Ġestranhos": 7876,
      "Ġjogos": 7877,
      "Ġmentira": 7878,
      "Ġhonesta": 7879,
      "box": 7880,
      "Ġcostumes": 7881,
      "Ġinvent": 7882,
      "Ġkeeping": 7883,
      "Ġinsult": 7884,
      "Ġinsetos": 7885,
      "ĠfÃ¡br": 7886,
      "Ġclever": 7887,
      "Ġpermane": 7888,
      "ĠÃ³b": 7889,
      "Ġbebendo": 7890,
      "Ġenjoys": 7891,
      "Ã¢ndia": 7892,
      "Ġbedroom": 7893,
      "Ġowns": 7894,
      "Ġtrains": 7895,
      "Ġmilhas": 7896,
      "Ġdezoito": 7897,
      "Ġlimpo": 7898,
      "Ġviaj": 7899,
      "Ġexcuse": 7900,
      "Ġexceto": 7901,
      "Ġacontecem": 7902,
      "Ġtrein": 7903,
      "Ġdeclar": 7904,
      "Ġtornaram": 7905,
      "ĠrefeiÃ§Ã£o": 7906,
      "ĠPeguei": 7907,
      "ĠpoderÃ¡": 7908,
      "Ġarru": 7909,
      "Ġviolence": 7910,
      "Ġconsiderado": 7911,
      "Ġhonestidade": 7912,
      "icionado": 7913,
      "Ġempres": 7914,
      "Ġredor": 7915,
      "Ġsushi": 7916,
      "ĠLogo": 7917,
      "Ġroubar": 7918,
      "Ġlargest": 7919,
      "Ġmachuquei": 7920,
      "Ġdifficulty": 7921,
      "Ġcamiseta": 7922,
      "Ġmatters": 7923,
      "Ġdreaming": 7924,
      "Ġcausou": 7925,
      "Ġentendem": 7926,
      "Ġconcordar": 7927,
      "Ġchegaria": 7928,
      "Ġencontrado": 7929,
      "Ġencontraram": 7930,
      "ĠiP": 7931,
      "Ġsnowing": 7932,
      "Ġnearest": 7933,
      "Ġ195": 7934,
      "Ġ198": 7935,
      "ĠpÃ´quer": 7936,
      "Ġazuis": 7937,
      "ĠsÃ©ria": 7938,
      "Ġignore": 7939,
      "Ġrelacionamento": 7940,
      "Ġaccent": 7941,
      "Ġcleaned": 7942,
      "Ġcleaning": 7943,
      "Ġdestino": 7944,
      "Ġcontrolar": 7945,
      "Ġanti": 7946,
      "Ġgeral": 7947,
      "Ġblackboard": 7948,
      "ĠShall": 7949,
      "ĠProc": 7950,
      "Ġigu": 7951,
      "Ġigual": 7952,
      "Ġcommit": 7953,
      "Ġriding": 7954,
      "Ġridiculous": 7955,
      "ĠFale": 7956,
      "Ġgiving": 7957,
      "Ġaprove": 7958,
      "ĠConf": 7959,
      "Ġfallen": 7960,
      "Ġaviso": 7961,
      "Ġclimb": 7962,
      "Ġaprendendo": 7963,
      "Ġdiscussion": 7964,
      "Ġholiday": 7965,
      "ĠAdiv": 7966,
      "Ġperdoe": 7967,
      "Ġdaquela": 7968,
      "Ġacreditou": 7969,
      "Ġlesson": 7970,
      "Ġyelled": 7971,
      "Ġcharge": 7972,
      "Ġapologized": 7973,
      "Ġconheceram": 7974,
      "Ġaguard": 7975,
      "Ġaguento": 7976,
      "ĠCheguei": 7977,
      "Ġsuccessful": 7978,
      "Ġinstante": 7979,
      "Ġringing": 7980,
      "ĠDeixei": 7981,
      "Ġpencils": 7982,
      "ĠAcabo": 7983,
      "Ġamericana": 7984,
      "Ġpacking": 7985,
      "ĠSobre": 7986,
      "Ġsobrenome": 7987,
      "Ġabandoned": 7988,
      "Ġestrangeira": 7989,
      "Ġnaturais": 7990,
      "Ġatravessou": 7991,
      "ĠciÃºmes": 7992,
      "ĠVoltarei": 7993,
      "Ã´nia": 7994,
      "Ġdescobri": 7995,
      "Ġsortudo": 7996,
      "ĠchinÃªs": 7997,
      "Ġcomplete": 7998,
      "Ġapproach": 7999,
      "Ġphysic": 8000,
      "Ġbills": 8001,
      "Ġcondition": 8002,
      "Ġlimpando": 8003,
      "Ġclaim": 8004,
      "Ġpulou": 8005,
      "ĠdÃºvidas": 8006,
      "Ġadultos": 8007,
      "Ġcuidadosamente": 8008,
      "Ġcontratou": 8009,
      "Ġcontratar": 8010,
      "ĠinformaÃ§Ãµes": 8011,
      "ĠcombustÃŃvel": 8012,
      "ĠAjudei": 8013,
      "Ġjantando": 8014,
      "Ġdiamante": 8015,
      "Ġarguing": 8016,
      "Ġtalentoso": 8017,
      "Ġaconselhou": 8018,
      "Ġscient": 8019,
      "Ġdeeply": 8020,
      "Ġgreen": 8021,
      "Ġtrancar": 8022,
      "Ġabandonou": 8023,
      "Ġcirc": 8024,
      "Ġmolhado": 8025,
      "ĠgraÃ§a": 8026,
      "Ġdesenvol": 8027,
      "Ġcoloque": 8028,
      "Ġfantasmas": 8029,
      "Ġenergy": 8030,
      "Ġenvolvido": 8031,
      "Ġobjetivo": 8032,
      "Ġpessimista": 8033,
      "Ġokay": 8034,
      "Ġstamp": 8035,
      "Ġstamps": 8036,
      "Ġ2003": 8037,
      "Ġambulance": 8038,
      "ĠambulÃ¢ncia": 8039,
      "Ġcoward": 8040,
      "Ġhammer": 8041,
      "Ġocean": 8042,
      "ĠClose": 8043,
      "Ġdisagre": 8044,
      "Ġbottles": 8045,
      "Ġbrinquedos": 8046,
      "ĠChoveu": 8047,
      "Ġdesmai": 8048,
      "ĠGuess": 8049,
      "ĠAconteceu": 8050,
      "Ġbowl": 8051,
      "ĠProv": 8052,
      "Ġcompartilhar": 8053,
      "Ġswitched": 8054,
      "Ġvaluable": 8055,
      "Ġauthor": 8056,
      "ĠpreguiÃ§oso": 8057,
      "Ġultimamente": 8058,
      "Ġannoyed": 8059,
      "Ġrabb": 8060,
      "Ġatraente": 8061,
      "Ġdisease": 8062,
      "Ġtarefa": 8063,
      "Ġdisgust": 8064,
      "Ġappointment": 8065,
      "Ġstrangers": 8066,
      "Ġconclus": 8067,
      "ĠegoÃŃsta": 8068,
      "ĠWithout": 8069,
      "ĠprincÃŃp": 8070,
      "Ġwealthy": 8071,
      "Ġexagger": 8072,
      "ĠserviÃ§o": 8073,
      "Ġuniform": 8074,
      "ĠsolitÃ¡rio": 8075,
      "Ġpeixes": 8076,
      "Ġpacote": 8077,
      "Ġquieto": 8078,
      "Ġbenef": 8079,
      "Ġeighteen": 8080,
      "ĠNasci": 8081,
      "Ġterremoto": 8082,
      "Ġunusual": 8083,
      "Ġcomplaints": 8084,
      "Ġnaive": 8085,
      "ĠestÃ´mago": 8086,
      "ĠWednesday": 8087,
      "Ġprateleira": 8088,
      "Ġenvenen": 8089,
      "Ġirrespons": 8090,
      "ĠLincoln": 8091,
      "Ġresources": 8092,
      "bar": 8093,
      "bia": 8094,
      "born": 8095,
      "bage": 8096,
      "bile": 8097,
      "cent": 8098,
      "hib": 8099,
      "ike": 8100,
      "iÃªn": 8101,
      "iremos": 8102,
      "ipped": 8103,
      "kn": 8104,
      "ky": 8105,
      "lido": 8106,
      "lass": 8107,
      "med": 8108,
      "ron": 8109,
      "rico": 8110,
      "sors": 8111,
      "tÃ¡": 8112,
      "tro": 8113,
      "uiu": 8114,
      "uary": 8115,
      "via": 8116,
      "vando": 8117,
      "vind": 8118,
      "Ġtido": 8119,
      "Ġtoss": 8120,
      "ĠTent": 8121,
      "Ġdil": 8122,
      "ĠdÃŃ": 8123,
      "Ġdata": 8124,
      "Ġscis": 8125,
      "Ġspre": 8126,
      "arro": 8127,
      "Ġcave": 8128,
      "Ġcoun": 8129,
      "Ġcough": 8130,
      "esia": 8131,
      "ines": 8132,
      "inhe": 8133,
      "ination": 8134,
      "Ġmart": 8135,
      "Ġpad": 8136,
      "Ġpla": 8137,
      "Ġpush": 8138,
      "Ġpants": 8139,
      "ĠpadrÃ£o": 8140,
      "Ġpsy": 8141,
      "Ġnur": 8142,
      "onest": 8143,
      "Ġfant": 8144,
      "Ġfence": 8145,
      "Ġwild": 8146,
      "aninha": 8147,
      "asant": 8148,
      "aster": 8149,
      "Ã£e": 8150,
      "Ġtoys": 8151,
      "ĠbraÃ§": 8152,
      "atis": 8153,
      "atient": 8154,
      "Ġobe": 8155,
      "Ġovo": 8156,
      "Ġobrigada": 8157,
      "Ġvig": 8158,
      "Ġvais": 8159,
      "Ġvict": 8160,
      "Ġlow": 8161,
      "Ġlay": 8162,
      "Ġlap": 8163,
      "ĠlÃŃ": 8164,
      "itor": 8165,
      "Ġesquina": 8166,
      "Ġdedo": 8167,
      "Ġdelic": 8168,
      "Ġdevelop": 8169,
      "Ġgri": 8170,
      "Ġgira": 8171,
      "ĠgÃ¡s": 8172,
      "Ġganho": 8173,
      "Ġtheater": 8174,
      "amer": 8175,
      "amentos": 8176,
      "enth": 8177,
      "entas": 8178,
      "Ġdobr": 8179,
      "Ġdozen": 8180,
      "idor": 8181,
      "Ġearn": 8182,
      "Ġcomed": 8183,
      "Ġcompens": 8184,
      "irma": 8185,
      "irva": 8186,
      "irds": 8187,
      "ĠMoney": 8188,
      "Ġsejam": 8189,
      "icidade": 8190,
      "icans": 8191,
      "Ġincid": 8192,
      "ĠinÃŃcio": 8193,
      "rol": 8194,
      "antos": 8195,
      "antado": 8196,
      "ĠAct": 8197,
      "ĠAno": 8198,
      "ĠAgr": 8199,
      "ĠNever": 8200,
      "ĠOut": 8201,
      "Ġparada": 8202,
      "Ġpararam": 8203,
      "ette": 8204,
      "igam": 8205,
      "verage": 8206,
      "Ġalimentar": 8207,
      "Ġrato": 8208,
      "Ġrosa": 8209,
      "Ġrace": 8210,
      "Ġlies": 8211,
      "Ġlift": 8212,
      "Ġrei": 8213,
      "Ġrepr": 8214,
      "Ġrefer": 8215,
      "Ġreact": 8216,
      "ĠDay": 8217,
      "ĠDorm": 8218,
      "ĠDinner": 8219,
      "Ġfaith": 8220,
      "Ġfaces": 8221,
      "uncia": 8222,
      "ĠSit": 8223,
      "ĠSanta": 8224,
      "ĠPac": 8225,
      "ĠPense": 8226,
      "Ġjanta": 8227,
      "Ġstat": 8228,
      "Ġstone": 8229,
      "Ġstub": 8230,
      "ceis": 8231,
      "Ġtrick": 8232,
      "Ġtrair": 8233,
      "Ġtrata": 8234,
      "Ġtrunk": 8235,
      "Ġfazende": 8236,
      "Ġfazenda": 8237,
      "Ġneither": 8238,
      "Ġmaj": 8239,
      "Ġaccess": 8240,
      "Ġacesso": 8241,
      "gues": 8242,
      "Ġknowled": 8243,
      "Ã©is": 8244,
      "Ġquerendo": 8245,
      "ĠCar": 8246,
      "Ġatirou": 8247,
      "ĠBas": 8248,
      "ĠBÃŃblia": 8249,
      "ĠBirds": 8250,
      "Ġdiet": 8251,
      "Ġdieta": 8252,
      "Ġprima": 8253,
      "Ġprimo": 8254,
      "ĠprÃªmio": 8255,
      "Ġverificar": 8256,
      "ĠQuioto": 8257,
      "Ġprev": 8258,
      "ĠFish": 8259,
      "ĠFarei": 8260,
      "ĠFomos": 8261,
      "Ġloan": 8262,
      "Ġlovel": 8263,
      "oked": 8264,
      "ĠThings": 8265,
      "ÃŃb": 8266,
      "ÃŃl": 8267,
      "ÃŃdio": 8268,
      "esses": 8269,
      "uras": 8270,
      "endido": 8271,
      "endemos": 8272,
      "Ġnotas": 8273,
      "Ġareia": 8274,
      "Ġfria": 8275,
      "Ġfraco": 8276,
      "Ġfridge": 8277,
      "Ġperda": 8278,
      "Ġperple": 8279,
      "Ġchem": 8280,
      "Ġchame": 8281,
      "Ġcherry": 8282,
      "Ġweigh": 8283,
      "Ġteim": 8284,
      "Ġamam": 8285,
      "Ġamamos": 8286,
      "Ġamong": 8287,
      "Ġamea": 8288,
      "Ġnacional": 8289,
      "Ġproib": 8290,
      "Ġencar": 8291,
      "Ġenorme": 8292,
      "Ġsaf": 8293,
      "Ġmoramos": 8294,
      "Ġusava": 8295,
      "Ġaquelas": 8296,
      "Ġexit": 8297,
      "pera": 8298,
      "Ġagiu": 8299,
      "Ġcov": 8300,
      "Ġcobr": 8301,
      "Ġcasada": 8302,
      "Ġdesast": 8303,
      "Ġdesenho": 8304,
      "Ġdesign": 8305,
      "Ġbobo": 8306,
      "Ġfeche": 8307,
      "Ġplantas": 8308,
      "Ġwhose": 8309,
      "Ġelection": 8310,
      "Ġeleph": 8311,
      "Ġescure": 8312,
      "Ġescuta": 8313,
      "Ġescriv": 8314,
      "Ġshiver": 8315,
      "Ġshared": 8316,
      "Ġterm": 8317,
      "Ġserve": 8318,
      "ĠPorque": 8319,
      "caÃ§Ã£o": 8320,
      "Ġhobby": 8321,
      "Ġprecise": 8322,
      "ĠLua": 8323,
      "Ġmanaged": 8324,
      "ophone": 8325,
      "Ġresign": 8326,
      "Ġcontest": 8327,
      "Ġajudado": 8328,
      "Ġajudando": 8329,
      "ossos": 8330,
      "ĠEscu": 8331,
      "Ġcheque": 8332,
      "blado": 8333,
      "Ġesperamos": 8334,
      "Ġnovos": 8335,
      "jeira": 8336,
      "Ġgrade": 8337,
      "Ġgrass": 8338,
      "Ġgrades": 8339,
      "Ġadiar": 8340,
      "Ġthanked": 8341,
      "ciais": 8342,
      "Ġparecido": 8343,
      "Ġpareciam": 8344,
      "Ġimpatient": 8345,
      "Ġbright": 8346,
      "Ġhouve": 8347,
      "Ġfiltro": 8348,
      "Ġintern": 8349,
      "Ãºn": 8350,
      "Ġsentamos": 8351,
      "Ġsentaram": 8352,
      "Ġlotado": 8353,
      "Ġacharam": 8354,
      "Ġcompramos": 8355,
      "ĠNoel": 8356,
      "Ġvoltei": 8357,
      "Ġdeixando": 8358,
      "Ġofficer": 8359,
      "Ġcorri": 8360,
      "Ġstudies": 8361,
      "ĠcaÃ§ar": 8362,
      "Ġfelicidade": 8363,
      "Ġtentado": 8364,
      "Ġmenu": 8365,
      "Ġmaster": 8366,
      "ĠajudarÃ¡": 8367,
      "ĠfizÃ©ssemos": 8368,
      "Ġrecord": 8369,
      "ĠToda": 8370,
      "Ġolhei": 8371,
      "Ġfaminto": 8372,
      "aixe": 8373,
      "Ġswam": 8374,
      "Ġpossess": 8375,
      "Ġsmiling": 8376,
      "Ġspace": 8377,
      "icient": 8378,
      "Ġconfund": 8379,
      "Ġourselves": 8380,
      "ĠQualquer": 8381,
      "ĠcomeÃ§amos": 8382,
      "Ãµem": 8383,
      "Ġpois": 8384,
      "Ġpresos": 8385,
      "Ġesporte": 8386,
      "ĠespaÃ§o": 8387,
      "Ġdarei": 8388,
      "Ġgarg": 8389,
      "Ġgarbage": 8390,
      "Ġsolteira": 8391,
      "ĠRela": 8392,
      "ĠRoub": 8393,
      "enham": 8394,
      "Ġsons": 8395,
      "Ġseguindo": 8396,
      "Ġseguros": 8397,
      "Ġ16": 8398,
      "Ġ17": 8399,
      "Ġhomes": 8400,
      "Ġremar": 8401,
      "Ġdescal": 8402,
      "Ã©dia": 8403,
      "Ġbarra": 8404,
      "Ġbarata": 8405,
      "Ġquarenta": 8406,
      "Ġlevam": 8407,
      "Ġlevanta": 8408,
      "stood": 8409,
      "Ġpromises": 8410,
      "ĠJogue": 8411,
      "Ġbreat": 8412,
      "ĠFrom": 8413,
      "ĠFrank": 8414,
      "letas": 8415,
      "Ġprett": 8416,
      "Ġwished": 8417,
      "Ġprovou": 8418,
      "ĠCham": 8419,
      "ĠChame": 8420,
      "ĠmudanÃ§as": 8421,
      "Ã¢mp": 8422,
      "Ġpausa": 8423,
      "Ġstrict": 8424,
      "Ġlemon": 8425,
      "Ġdoces": 8426,
      "Ġjunto": 8427,
      "Ġwalks": 8428,
      "ĠvoltarÃ¡": 8429,
      "ĠencontrarÃ¡": 8430,
      "Ġestranha": 8431,
      "Ġcansados": 8432,
      "Ġjogam": 8433,
      "Ġjogaram": 8434,
      "Ġmentiria": 8435,
      "ĠcalÃ§as": 8436,
      "Ġdiscordo": 8437,
      "Ġpages": 8438,
      "Ġinventou": 8439,
      "Ġmission": 8440,
      "Ġrelations": 8441,
      "Ġincon": 8442,
      "Ġvende": 8443,
      "ĠAqueles": 8444,
      "Ġacordada": 8445,
      "Ġacordados": 8446,
      "Ġassistant": 8447,
      "Ġassistente": 8448,
      "Ġensina": 8449,
      "Ġdurou": 8450,
      "ĠParecia": 8451,
      "Ġpronunci": 8452,
      "Ġbegins": 8453,
      "Ġfolha": 8454,
      "ĠAmbas": 8455,
      "ĠDoesn": 8456,
      "Ġtrabalhadores": 8457,
      "Ġrepair": 8458,
      "Ġsuff": 8459,
      "Ġtongue": 8460,
      "Ġscare": 8461,
      "Ġpianist": 8462,
      "Ġpianista": 8463,
      "Ġlimite": 8464,
      "Ġexperiment": 8465,
      "Ġtremendo": 8466,
      "Ġacontecesse": 8467,
      "Ġtreated": 8468,
      "ĠpoderÃŃamos": 8469,
      "Ġattended": 8470,
      "Ġviolin": 8471,
      "Ġviolent": 8472,
      "Ġviolento": 8473,
      "Ġviolino": 8474,
      "Ġcusto": 8475,
      "Ġcustar": 8476,
      "Ġlaughs": 8477,
      "Ġskin": 8478,
      "ĠFiquem": 8479,
      "ĠhistÃ³": 8480,
      "Ġfuncionou": 8481,
      "Ġgarotos": 8482,
      "Ġhonestly": 8483,
      "ĠsimpÃ¡tico": 8484,
      "Ġruined": 8485,
      "Ġempur": 8486,
      "ulaÃ§Ã£o": 8487,
      "Ġdrop": 8488,
      "Ġculpar": 8489,
      "Ġbiologia": 8490,
      "Ġbiology": 8491,
      "Ġsigned": 8492,
      "Ġpapers": 8493,
      "Ġcaverna": 8494,
      "Ġlavando": 8495,
      "Ġlegs": 8496,
      "Ġentendendo": 8497,
      "cedor": 8498,
      "ĠmÃ¡g": 8499,
      "ĠlouÃ§a": 8500,
      "Ġdesculpa": 8501,
      "Ġconcordamos": 8502,
      "Ġcaixas": 8503,
      "Ġcurto": 8504,
      "Ġcurtain": 8505,
      "Ġambas": 8506,
      "resso": 8507,
      "Ġsocial": 8508,
      "Ġapaixonou": 8509,
      "uiÃ§Ã£o": 8510,
      "Ġwheel": 8511,
      "ĠalmoÃ§ando": 8512,
      "Ġsteps": 8513,
      "ĠAmericans": 8514,
      "Ġboxes": 8515,
      "ĠLeve": 8516,
      "Ġdistur": 8517,
      "Ġdistingu": 8518,
      "Ġproteg": 8519,
      "Ġromances": 8520,
      "Ġaccused": 8521,
      "Ġaccomp": 8522,
      "Ġsilence": 8523,
      "Ġsung": 8524,
      "Ġburaco": 8525,
      "Ġdefend": 8526,
      "ĠSabe": 8527,
      "Ġcavalos": 8528,
      "Ġcavalheiro": 8529,
      "Ġantigos": 8530,
      "Ġhandsome": 8531,
      "Ġbatendo": 8532,
      "Ġautom": 8533,
      "ĠsaÃŃram": 8534,
      "Ġflute": 8535,
      "Ġimaginei": 8536,
      "Ġexplod": 8537,
      "Ġdeliciosa": 8538,
      "Ġcollection": 8539,
      "Ġpermitido": 8540,
      "Ġtraveled": 8541,
      "Ġtraveling": 8542,
      "Ġblog": 8543,
      "ortunately": 8544,
      "ĠavisÃ¡": 8545,
      "Ġmodel": 8546,
      "Ġholding": 8547,
      "Ġresponsabil": 8548,
      "ĠestÃºpida": 8549,
      "ĠcoleÃ§Ã£o": 8550,
      "Ġreconheceu": 8551,
      "Ġsweat": 8552,
      "Ġdocumento": 8553,
      "Ġignorou": 8554,
      "Ġindis": 8555,
      "ĠNowadays": 8556,
      "Ġhealthy": 8557,
      "Ġcentury": 8558,
      "Ġyellow": 8559,
      "Ġfactory": 8560,
      "Ġjornais": 8561,
      "Ġcharacter": 8562,
      "Ġorgulhosa": 8563,
      "Ġagrees": 8564,
      "ĠSpain": 8565,
      "ĠChegamos": 8566,
      "Ġabsur": 8567,
      "ĠDeixem": 8568,
      "Ġorigin": 8569,
      "Ġhumanos": 8570,
      "Ġoptions": 8571,
      "ĠAprendi": 8572,
      "ĠeducaÃ§Ã£o": 8573,
      "Ġpacked": 8574,
      "Ġvendem": 8575,
      "Ġjump": 8576,
      "Ġmagic": 8577,
      "Ġmagro": 8578,
      "Ġestrangeiras": 8579,
      "Ġvegetariano": 8580,
      "Ġestrela": 8581,
      "ĠNeither": 8582,
      "Ġobviamente": 8583,
      "Ġespecialista": 8584,
      "Ġsmells": 8585,
      "Ġderro": 8586,
      "Ġestacionou": 8587,
      "Ġlevantei": 8588,
      "Ġapprove": 8589,
      "Ġadolesc": 8590,
      "Ġpleasure": 8591,
      "Ġflying": 8592,
      "Ġconstruiu": 8593,
      "ĠEspanha": 8594,
      "Ġsurvive": 8595,
      "Ġincomodando": 8596,
      "Ġslip": 8597,
      "Ġnublado": 8598,
      "Ġviveu": 8599,
      "ĠsuicÃŃdio": 8600,
      "Ġimprove": 8601,
      "Ġsorriso": 8602,
      "ĠdÃºz": 8603,
      "Ġronca": 8604,
      "Ġtemperature": 8605,
      "Ġleader": 8606,
      "Ġdespedir": 8607,
      "Ġcuidadoso": 8608,
      "Ġataque": 8609,
      "Ġinstrumento": 8610,
      "Ġinstructions": 8611,
      "ĠAjude": 8612,
      "Ġrosas": 8613,
      "Ġattacked": 8614,
      "Ġbothering": 8615,
      "Ġretornou": 8616,
      "Ġretornar": 8617,
      "Ġamericanos": 8618,
      "foot": 8619,
      "ĠPlane": 8620,
      "Ġorganized": 8621,
      "Ġmouse": 8622,
      "Ġpasta": 8623,
      "Ġdesenhar": 8624,
      "Ġliteratura": 8625,
      "Ġirrelevant": 8626,
      "Ġcadeiras": 8627,
      "Ġflauta": 8628,
      "ĠHold": 8629,
      "Ġelevador": 8630,
      "Ġelevator": 8631,
      "Ġescalou": 8632,
      "Ġentraram": 8633,
      "Ġtiveram": 8634,
      "Ġpotatoes": 8635,
      "Ġobjetivos": 8636,
      "Ġtelefonou": 8637,
      "ĠdestruÃŃda": 8638,
      "Ġmaravilhosa": 8639,
      "ĠPaulo": 8640,
      "Ġtaxista": 8641,
      "Ġsignificado": 8642,
      "Ġscreaming": 8643,
      "Ġ80": 8644,
      "Ġcigarro": 8645,
      "ĠemergÃªncia": 8646,
      "ĠCostumÃ¡vamos": 8647,
      "Ġdisagree": 8648,
      "Ġdiscreet": 8649,
      "ĠLembro": 8650,
      "Ġloudly": 8651,
      "Ġbottom": 8652,
      "Ġaddicted": 8653,
      "Ġbrinquedo": 8654,
      "Ġganhei": 8655,
      "ĠÃŃn": 8656,
      "Ġraise": 8657,
      "Ġraised": 8658,
      "Ġenferme": 8659,
      "Ġconcentr": 8660,
      "Ġbetray": 8661,
      "Ġbetrayed": 8662,
      "Ġclarinet": 8663,
      "Ġadeus": 8664,
      "Ġinsects": 8665,
      "Ġtraga": 8666,
      "Ġcalendar": 8667,
      "Ġpostpone": 8668,
      "ĠexercÃŃcios": 8669,
      "Ġsarc": 8670,
      "ĠFinalmente": 8671,
      "Ġenxer": 8672,
      "Ġengineer": 8673,
      "Ġexercise": 8674,
      "Ġrecommend": 8675,
      "writer": 8676,
      "Ġtesou": 8677,
      "Ġfifteen": 8678,
      "Ġfrutas": 8679,
      "Ġsharpen": 8680,
      "Ġapagou": 8681,
      "Ġrobbed": 8682,
      "Ġrapazes": 8683,
      "ĠTrabalho": 8684,
      "ĠreclamaÃ§Ãµes": 8685,
      "Ġavesso": 8686,
      "Ġsessenta": 8687,
      "ĠMantenha": 8688,
      "ĠDesejo": 8689,
      "Ġembria": 8690,
      "Ġocorreu": 8691,
      "Ġgasolina": 8692,
      "Ġemployees": 8693,
      "Ġobliged": 8694,
      "Ġdetective": 8695,
      "Ġrelevant": 8696,
      "Ġimpaciente": 8697,
      "ĠRussian": 8698,
      "ĠcapitÃ£o": 8699,
      "ĠWashington": 8700,
      "Ġcommunic": 8701,
      "ĠridÃŃculo": 8702,
      "Ġderrub": 8703,
      "Ġmisunderstood": 8704,
      "Ġcaderno": 8705,
      "ĠtÃ©cnico": 8706,
      "ĠmÃ³veis": 8707,
      "Ġbarefoot": 8708,
      "ĠcondiÃ§Ãµes": 8709,
      "Ġrepeat": 8710,
      "Ġfainted": 8711,
      "Ġpreencher": 8712,
      "Ġallergic": 8713,
      "Ġclouds": 8714,
      "Ġaprontando": 8715,
      "ĠfÃ¡brica": 8716,
      "ĠProvavelmente": 8717,
      "Ġdisgusting": 8718,
      "ĠprincÃŃpio": 8719,
      "Ġscissors": 8720,
      "Ġspread": 8721,
      "Ġmartelo": 8722,
      "ĠbraÃ§os": 8723,
      "ĠAgrade": 8724,
      "Ġstubborn": 8725,
      "Ġtrairia": 8726,
      "Ġknowledge": 8727,
      "Ġlovely": 8728,
      "Ġescrivaninha": 8729,
      "Ġrelationship": 8730,
      ",\"": 8731,
      "It": 8732,
      "On": 8733,
      "Th": 8734,
      "Tom": 8735,
      "Will": 8736,
      "Where": 8737,
      "You": 8738,
      "cor": 8739,
      "cond": 8740,
      "cerei": 8741,
      "dy": 8742,
      "dice": 8743,
      "een": 8744,
      "eff": 8745,
      "eiras": 8746,
      "fando": 8747,
      "fortunately": 8748,
      "ges": 8749,
      "iant": 8750,
      "iando": 8751,
      "ients": 8752,
      "iÃªncia": 8753,
      "ipt": 8754,
      "jud": 8755,
      "ker": 8756,
      "mal": 8757,
      "mind": 8758,
      "ments": 8759,
      "ote": 8760,
      "other": 8761,
      "poc": 8762,
      "pite": 8763,
      "pamento": 8764,
      "roc": 8765,
      "rug": 8766,
      "rÃ´": 8767,
      "sito": 8768,
      "sur": 8769,
      "tal": 8770,
      "tam": 8771,
      "uf": 8772,
      "vinda": 8773,
      "vise": 8774,
      "vagens": 8775,
      "wa": 8776,
      "xto": 8777,
      "yard": 8778,
      "ycles": 8779,
      "zer": 8780,
      "zas": 8781,
      "zinho": 8782,
      "Ãī": 8783,
      "Ġost": 8784,
      "Ġtight": 8785,
      "Ġtag": 8786,
      "Ġtart": 8787,
      "Ġtaste": 8788,
      "Ġtimid": 8789,
      "Ġaus": 8790,
      "Ġaumento": 8791,
      "Ġaverage": 8792,
      "oms": 8793,
      "omas": 8794,
      "Ġdados": 8795,
      "Ġdyed": 8796,
      "erk": 8797,
      "erva": 8798,
      "Ġsed": 8799,
      "Ġsone": 8800,
      "arug": 8801,
      "Ġcoc": 8802,
      "Ġcro": 8803,
      "Ġcante": 8804,
      "Ġcure": 8805,
      "eses": 8806,
      "iny": 8807,
      "inach": 8808,
      "Ġmoch": 8809,
      "Ġpel": 8810,
      "Ġpup": 8811,
      "Ġpairs": 8812,
      "isis": 8813,
      "Ġnick": 8814,
      "Ġnational": 8815,
      "eno": 8816,
      "enas": 8817,
      "enso": 8818,
      "encial": 8819,
      "enager": 8820,
      "ĠIor": 8821,
      "Ġfio": 8822,
      "Ġfond": 8823,
      "quinha": 8824,
      "quela": 8825,
      "Ġwink": 8826,
      "Ġwide": 8827,
      "Ġthief": 8828,
      "Ġthousand": 8829,
      "orou": 8830,
      "organ": 8831,
      "Ġhi": 8832,
      "Ġhem": 8833,
      "Ġhost": 8834,
      "Ġquint": 8835,
      "Ġquinta": 8836,
      "ĠquÃŃm": 8837,
      "asy": 8838,
      "asso": 8839,
      "read": 8840,
      "reio": 8841,
      "ĠEv": 8842,
      "ĠEis": 8843,
      "Ġba": 8844,
      "Ġbell": 8845,
      "Ġbite": 8846,
      "Ġbanc": 8847,
      "Ġbife": 8848,
      "Ġbater": 8849,
      "Ġbaked": 8850,
      "atul": 8851,
      "ators": 8852,
      "atical": 8853,
      "emia": 8854,
      "emember": 8855,
      "Ġving": 8856,
      "Ġvinha": 8857,
      "Ġvenho": 8858,
      "ĠvÃªm": 8859,
      "Ġvidas": 8860,
      "Ġvilla": 8861,
      "Ġlid": 8862,
      "Ġlad": 8863,
      "Ġlag": 8864,
      "Ġlack": 8865,
      "Ġlento": 8866,
      "ĠlÃ¢mp": 8867,
      "iting": 8868,
      "itter": 8869,
      "itious": 8870,
      "itudes": 8871,
      "Ġquebrei": 8872,
      "Ġdeaf": 8873,
      "elve": 8874,
      "elhos": 8875,
      "Ġgav": 8876,
      "Ġgig": 8877,
      "Ġgata": 8878,
      "Ġgym": 8879,
      "ocidade": 8880,
      "Ã¡gua": 8881,
      "ĠestÃ³ria": 8882,
      "alt": 8883,
      "aled": 8884,
      "alhou": 8885,
      "avior": 8886,
      "entado": 8887,
      "entimento": 8888,
      "ĠdoenÃ§as": 8889,
      "ids": 8890,
      "ided": 8891,
      "adilha": 8892,
      "ĠMes": 8893,
      "ĠMen": 8894,
      "ĠMil": 8895,
      "ĠMonte": 8896,
      "ĠMoz": 8897,
      "ĠMoro": 8898,
      "icamente": 8899,
      "ĠWater": 8900,
      "ĠWatch": 8901,
      "lei": 8902,
      "leta": 8903,
      "Ġinte": 8904,
      "Ġinap": 8905,
      "Ġinven": 8906,
      "Ġnota": 8907,
      "Ġnoiva": 8908,
      "ĠAgu": 8909,
      "ĠAÃŃ": 8910,
      "ĠAbra": 8911,
      "ĠVal": 8912,
      "ĠVia": 8913,
      "Ġpares": 8914,
      "ste": 8915,
      "etes": 8916,
      "etite": 8917,
      "ostos": 8918,
      "ereis": 8919,
      "verty": 8920,
      "Ġalf": 8921,
      "ĠalÃ©": 8922,
      "Ġalug": 8923,
      "Ġalma": 8924,
      "Ġrus": 8925,
      "Ġrug": 8926,
      "Ġricas": 8927,
      "Ġrail": 8928,
      "chn": 8929,
      "chief": 8930,
      "Ġking": 8931,
      "Ġwashes": 8932,
      "ĠHur": 8933,
      "ĠHallow": 8934,
      "ĠHello": 8935,
      "ola": 8936,
      "ollow": 8937,
      "Ġconne": 8938,
      "Ġcongr": 8939,
      "Ġconsole": 8940,
      "Ġreje": 8941,
      "Ġones": 8942,
      "ĠDir": 8943,
      "ĠDet": 8944,
      "ĠDuas": 8945,
      "Ġfab": 8946,
      "Ġfax": 8947,
      "ĠfaÃ§amos": 8948,
      "ĠSoc": 8949,
      "ĠSiga": 8950,
      "ĠSuas": 8951,
      "ĠSimp": 8952,
      "ĠPou": 8953,
      "rie": 8954,
      "riet": 8955,
      "riate": 8956,
      "rianÃ§as": 8957,
      "Ġemail": 8958,
      "Ġaside": 8959,
      "Ġfork": 8960,
      "Ġforest": 8961,
      "Ġforty": 8962,
      "Ġstri": 8963,
      "Ġstories": 8964,
      "Ã³r": 8965,
      "Ã³is": 8966,
      "Ġtric": 8967,
      "Ġtrai": 8968,
      "Ġtrack": 8969,
      "ĠtrÃ¢n": 8970,
      "Ġnevando": 8971,
      "Ġmaid": 8972,
      "Ġmagn": 8973,
      "Ġacting": 8974,
      "tered": 8975,
      "teria": 8976,
      "ĠCle": 8977,
      "ĠCada": 8978,
      "ĠCreio": 8979,
      "ĠCrianÃ§as": 8980,
      "Ġatual": 8981,
      "Ġcanetas": 8982,
      "lywood": 8983,
      "ĠBom": 8984,
      "Ġdiante": 8985,
      "Ġelet": 8986,
      "ĠeleiÃ§Ãµes": 8987,
      "Ġprud": 8988,
      "Ġpraz": 8989,
      "Ġprato": 8990,
      "aps": 8991,
      "Ġcareless": 8992,
      "ĠEstud": 8993,
      "Ġprem": 8994,
      "Ġwithin": 8995,
      "ĠFica": 8996,
      "ĠFollow": 8997,
      "Ġlobo": 8998,
      "Ġport": 8999,
      "Ġporco": 9000,
      "ÃŃg": 9001,
      "Ġdish": 9002,
      "Ġsobr": 9003,
      "Ġsoph": 9004,
      "utou": 9005,
      "endem": 9006,
      "Ġabo": 9007,
      "Ġabre": 9008,
      "Ġperca": 9009,
      "estim": 9010,
      "usto": 9011,
      "Ġfof": 9012,
      "Ġsabias": 9013,
      "Ġweb": 9014,
      "Ġteatro": 9015,
      "Ġteenager": 9016,
      "Ġtechn": 9017,
      "Ġamiz": 9018,
      "Ġamount": 9019,
      "Ġnail": 9020,
      "Ġandou": 9021,
      "Ġandando": 9022,
      "Ġenl": 9023,
      "Ġmordeu": 9024,
      "Ġmorrido": 9025,
      "Ġpoderei": 9026,
      "Ġexpen": 9027,
      "raÃ§Ã£o": 9028,
      "Ġfalso": 9029,
      "Ġfaltando": 9030,
      "umb": 9031,
      "umn": 9032,
      "ums": 9033,
      "pers": 9034,
      "ĠWhatever": 9035,
      "elling": 9036,
      "Ġages": 9037,
      "Ġcover": 9038,
      "Ġcoelho": 9039,
      "Ġcasei": 9040,
      "Ġdeson": 9041,
      "Ġdesista": 9042,
      "ĠDois": 9043,
      "ighten": 9044,
      "Ġboi": 9045,
      "Ġescadas": 9046,
      "Ġworries": 9047,
      "iff": 9048,
      "Ġshave": 9049,
      "Ġshame": 9050,
      "pendo": 9051,
      "anded": 9052,
      "Ġservem": 9053,
      "cool": 9054,
      "coÃ§o": 9055,
      "Ġprecisas": 9056,
      "Ġprecisando": 9057,
      "Ġfico": 9058,
      "assy": 9059,
      "ĠLast": 9060,
      "Ġmaneiras": 9061,
      "Ġlivrar": 9062,
      "istry": 9063,
      "ives": 9064,
      "iving": 9065,
      "Ġjogue": 9066,
      "Ġjoined": 9067,
      "arda": 9068,
      "Ġunc": 9069,
      "Ġunable": 9070,
      "Ġupstairs": 9071,
      "Ġarmas": 9072,
      "Ġapesar": 9073,
      "Ġcontarei": 9074,
      "ĠJamais": 9075,
      "Ġmover": 9076,
      "Ġchego": 9077,
      "Ġcheek": 9078,
      "Ġchega": 9079,
      "Ġcheaper": 9080,
      "Ġchewing": 9081,
      "Ġclient": 9082,
      "Ġcloud": 9083,
      "onteira": 9084,
      "Ġworkers": 9085,
      "Ġsoul": 9086,
      "Ġsour": 9087,
      "ĠpescoÃ§o": 9088,
      "idez": 9089,
      "Ġassento": 9090,
      "Ġassiste": 9091,
      "Ġassinou": 9092,
      "Ġgrato": 9093,
      "Ġadulto": 9094,
      "ieved": 9095,
      "ĠComi": 9096,
      "ĠCompar": 9097,
      "Ġpareceu": 9098,
      "Ġparecidos": 9099,
[...]
